<pad>	0
<bos>	0
<eos>	0
<unk>	0
▁이	-0
니다	-1
▁있	-2
▁수	-3
으로	-4
▁사	-5
에서	-6
▁그	-7
▁1	-8
▁대	-9
▁기	-10
▁가	-11
▁2	-12
습니다	-13
▁지	-14
▁시	-15
하는	-16
▁것	-17
▁전	-18
▁아	-19
▁제	-20
▁보	-21
▁한	-22
▁하	-23
▁다	-24
..	-25
▁-	-26
▁정	-27
▁자	-28
▁주	-29
하고	-30
▁위	-31
▁인	-32
▁경	-33
했다	-34
▁모	-35
▁등	-36
▁일	-37
▁나	-38
▁중	-39
▁공	-40
▁상	-41
00	-42
▁부	-43
▁있다	-44
▁마	-45
▁고	-46
▁어	-47
▁소	-48
▁유	-49
▁오	-50
▁있는	-51
▁3	-52
이다	-53
▁관	-54
▁여	-55
▁내	-56
합니다	-57
▁않	-58
▁해	-59
▁비	-60
▁있습니다	-61
▁개	-62
▁조	-63
▁‘	-64
▁신	-65
▁없	-66
▁무	-67
▁바	-68
▁구	-69
▁연	-70
▁20	-71
▁만	-72
▁및	-73
▁서	-74
▁스	-75
▁생	-76
입니다	-77
▁선	-78
▁의	-79
▁방	-80
▁최	-81
▁우	-82
▁안	-83
▁때	-84
▁발	-85
▁통	-86
▁미	-87
▁도	-88
▁말	-89
지만	-90
▁세	-91
▁예	-92
▁동	-93
▁국	-94
▁문	-95
▁영	-96
er	-97
▁“	-98
▁분	-99
in	-100
▁(	-101
▁성	-102
들이	-103
▁더	-104
▁실	-105
에게	-106
▁거	-107
▁진	-108
적인	-109
▁많	-110
▁또	-111
▁되	-112
▁4	-113
▁장	-114
이라	-115
▁사용	-116
하게	-117
었다	-118
▁5	-119
on	-120
하여	-121
한다	-122
까지	-123
▁결	-124
▁저	-125
▁현	-126
▁알	-127
▁대한	-128
▁교	-129
▁따	-130
▁추	-131
▁원	-132
▁'	-133
▁강	-134
▁확	-135
▁같	-136
적으로	-137
▁"	-138
an	-139
에는	-140
▁재	-141
...	-142
▁매	-143
▁할	-144
▁불	-145
▁후	-146
▁계	-147
▁S	-148
하기	-149
▁위해	-150
▁감	-151
▁작	-152
or	-153
▁특	-154
▁좋	-155
▁사람	-156
▁포	-157
▁당	-158
▁배	-159
▁설	-160
▁적	-161
▁C	-162
▁받	-163
▁프	-164
부터	-165
▁노	-166
▁반	-167
▁A	-168
st	-169
면서	-170
▁단	-171
▁회	-172
▁경우	-173
▁요	-174
▁출	-175
20	-176
▁t	-177
▁우리	-178
▁201	-179
▁차	-180
▁들	-181
▁입	-182
▁게	-183
▁건	-184
▁김	-185
at	-186
▁필	-187
이트	-188
▁파	-189
am	-190
▁남	-191
▁:	-192
▁함	-193
re	-194
le	-195
▁과	-196
▁참	-197
들은	-198
▁6	-199
다는	-200
▁통해	-201
▁물	-202
▁|	-203
들의	-204
▁두	-205
▁가능	-206
▁올	-207
▁학	-208
▁운	-209
▁데	-210
▁피	-211
▁활	-212
▁제공	-213
en	-214
▁금	-215
▁카	-216
▁것이	-217
▁직	-218
▁10	-219
▁[	-220
▁P	-221
하지	-222
▁역	-223
는데	-224
리고	-225
▁코	-226
으며	-227
▁때문	-228
▁한국	-229
비스	-230
▁하는	-231
▁이용	-232
▁호	-233
▁목	-234
▁새	-235
▁행	-236
▁생각	-237
▁달	-238
▁변	-239
al	-240
▁7	-241
▁본	-242
▁지난	-243
다고	-244
▁아니	-245
om	-246
ar	-247
▁평	-248
▁함께	-249
it	-250
▁M	-251
▁열	-252
▁T	-253
▁화	-254
세요	-255
he	-256
▁하나	-257
도록	-258
▁간	-259
▁따라	-260
기를	-261
됩니다	-262
▁I	-263
▁드	-264
▁리	-265
▁프로	-266
▁환	-267
▁다른	-268
▁필요	-269
▁잘	-270
▁명	-271
▁살	-272
▁8	-273
▁증	-274
들을	-275
▁많은	-276
▁높	-277
▁못	-278
▁외	-279
▁집	-280
▁초	-281
ou	-282
▁편	-283
▁대해	-284
▁치	-285
▁검	-286
된다	-287
▁체	-288
레이	-289
▁투	-290
라고	-291
▁종	-292
▁업	-293
▁가장	-294
▁점	-295
▁약	-296
▁산	-297
에서는	-298
▁모든	-299
▁청	-300
되는	-301
▁시간	-302
▁같은	-303
스트	-304
▁시작	-305
▁양	-306
▁심	-307
▁처	-308
▁문제	-309
||	-310
하며	-311
▁아이	-312
이나	-313
▁정보	-314
▁9	-315
▁판	-316
▁다양	-317
▁위한	-318
▁라	-319
▁서비스	-320
▁한다	-321
▁디	-322
▁B	-323
▁맞	-324
▁온	-325
ic	-326
▁메	-327
▁크	-328
▁에	-329
▁손	-330
에도	-331
▁찾	-332
해야	-333
▁이상	-334
하면	-335
▁진행	-336
▁그러	-337
▁박	-338
▁각	-339
▁앞	-340
▁만들	-341
▁표	-342
▁D	-343
▁관련	-344
▁지원	-345
▁것으로	-346
--	-347
▁완	-348
▁식	-349
▁c	-350
되어	-351
▁번	-352
▁0	-353
ion	-354
리는	-355
▁음	-356
▁지역	-357
▁들어	-358
▁있어	-359
▁타	-360
하다	-361
이라고	-362
▁밝	-363
▁자신	-364
지는	-365
▁속	-366
출장	-367
es	-368
▁19	-369
페이	-370
거나	-371
▁L	-372
▁임	-373
▁다양한	-374
▁것을	-375
보다	-376
▁E	-377
▁플	-378
▁제품	-379
▁f	-380
ed	-381
▁또한	-382
였다	-383
▁방법	-384
라는	-385
000	-386
▁기자	-387
▁로	-388
▁복	-389
▁확인	-390
▁그리고	-391
▁취	-392
▁채	-393
▁글	-394
▁p	-395
▁총	-396
▁때문에	-397
▁또는	-398
▁법	-399
19	-400
.0	-401
았다	-402
ing	-403
▁합니다	-404
▁언	-405
리를	-406
▁것이다	-407
▁근	-408
▁것은	-409
했습니다	-410
▁누	-411
▁s	-412
대로	-413
사를	-414
▁이번	-415
로운	-416
ex	-417
▁준	-418
is	-419
▁서울	-420
▁충	-421
▁질	-422
▁미국	-423
▁돌	-424
자가	-425
▁광	-426
었습니다	-427
▁항	-428
▁먹	-429
지를	-430
10	-431
▁사업	-432
il	-433
▁시장	-434
▁a	-435
▁R	-436
▁느	-437
▁세계	-438
시간	-439
▁창	-440
▁다음	-441
▁버	-442
기에	-443
▁가지	-444
▁트	-445
▁개인	-446
▁걸	-447
▁책	-448
성을	-449
▁고객	-450
▁F	-451
▁민	-452
▁싶	-453
자는	-454
▁토	-455
ro	-456
▁큰	-457
뉴스	-458
▁하고	-459
▁게임	-460
▁될	-461
▁모두	-462
▁G	-463
▁담	-464
해서	-465
▁여러	-466
▁너	-467
▁순	-468
▁사회	-469
▁대표	-470
▁형	-471
▁눈	-472
▁K	-473
라인	-474
▁독	-475
▁효	-476
▁the	-477
▁날	-478
▁#	-479
▁내용	-480
▁커	-481
기도	-482
▁H	-483
▁많이	-484
있는	-485
▁접	-486
들에게	-487
센터	-488
▁w	-489
▁브	-490
▁애	-491
▁줄	-492
▁좋은	-493
▁베	-494
ht	-495
▁기업	-496
▁규	-497
▁선택	-498
▁클	-499
▁연구	-500
▁했다	-501
▁기술	-502
▁12	-503
et	-504
▁운영	-505
▁중요	-506
▁전문	-507
▁이어	-508
▁N	-509
니까	-510
서는	-511
됐다	-512
▁협	-513
▁교육	-514
▁현재	-515
▁친	-516
이터	-517
com	-518
그램	-519
and	-520
▁발생	-521
▁곳	-522
▁하지만	-523
이고	-524
▁<	-525
▁W	-526
el	-527
▁11	-528
▁b	-529
▁향	-530
력을	-531
▁/	-532
▁o	-533
▁절	-534
처럼	-535
▁그런	-536
▁된	-537
▁네	-538
자의	-539
기가	-540
으면	-541
ac	-542
▁없는	-543
정을	-544
▁개발	-545
▁202	-546
▁얼	-547
as	-548
▁지금	-549
▁상황	-550
▁다시	-551
▁태	-552
▁힘	-553
▁m	-554
▁결과	-555
정보	-556
장을	-557
▁밝혔	-558
▁용	-559
▁않는	-560
▁무료	-561
렇게	-562
▁정도	-563
▁합	-564
-0	-565
▁아니라	-566
),	-567
▁포함	-568
장은	-569
▁권	-570
▁블	-571
어요	-572
▁패	-573
▁등을	-574
▁관계	-575
em	-576
.1	-577
▁마음	-578
이라는	-579
상을	-580
▁상품	-581
▁추가	-582
▁테	-583
▁이후	-584
▁볼	-585
▁레	-586
화를	-587
exam	-588
▁있을	-589
▁새로운	-590
▁북	-591
▁빠	-592
▁백	-593
▁사실	-594
▁삼	-595
▁정부	-596
▁그래	-597
▁어떤	-598
이는	-599
위원	-600
▁넘	-601
▁것입니다	-602
▁뒤	-603
▁말했다	-604
학교	-605
하시	-606
▁중국	-607
▁밝혔다	-608
▁즐	-609
▁바로	-610
▁인터	-611
▁이미	-612
▁30	-613
▁15	-614
되고	-615
▁가격	-616
▁농	-617
▁허	-618
▁했	-619
성이	-620
▁사진	-621
▁설명	-622
▁국내	-623
▁특히	-624
▁이야	-625
랜드	-626
ple	-627
▁안전	-628
기는	-629
사는	-630
▁200	-631
▁기능	-632
페이지	-633
▁d	-634
가는	-635
▁있으며	-636
▁있도록	-637
▁최근	-638
스템	-639
▁관리	-640
▁그러나	-641
ent	-642
하면서	-643
▁첫	-644
▁이런	-645
▁이유	-646
▁O	-647
▁동안	-648
▁호텔	-649
▁보고	-650
▁활동	-651
사업	-652
시오	-653
로나	-654
▁사이	-655
▁승	-656
▁길	-657
사지	-658
▁일본	-659
▁참여	-660
사가	-661
ame	-662
리가	-663
ig	-664
▁최고	-665
들과	-666
▁갖	-667
자를	-668
시아	-669
▁천	-670
▁구매	-671
▁쓰	-672
▁of	-673
▁프로그램	-674
▁해당	-675
▁너무	-676
▁모습	-677
▁일반	-678
자인	-679
▁판매	-680
십시오	-681
▁논	-682
▁계획	-683
▁준비	-684
▁끝	-685
주의	-686
식을	-687
▁나타	-688
▁당신	-689
▁은	-690
▁축	-691
▁머	-692
▁경제	-693
▁야	-694
▁군	-695
▁1.	-696
이며	-697
▁홍	-698
사의	-699
-1	-700
▁별	-701
▁건강	-702
▁대상	-703
▁시설	-704
▁여행	-705
통령	-706
겠습니다	-707
▁오늘	-708
라이	-709
▁도움	-710
만원	-711
ol	-712
▁국가	-713
▁사랑	-714
▁맛	-715
▁병	-716
ir	-717
▁키	-718
▁활용	-719
지노	-720
▁어떻	-721
▁귀	-722
▁이러	-723
▁직접	-724
▁V	-725
▁온라인	-726
▁분석	-727
▁환경	-728
▁자동	-729
▁만들어	-730
▁알려	-731
▁예정	-732
가지	-733
id	-734
졌다	-735
▁구성	-736
▁어떻게	-737
30	-738
▁위치	-739
▁그것	-740
에서도	-741
.2	-742
기업	-743
ec	-744
▁쉽	-745
▁in	-746
▁and	-747
▁U	-748
▁없다	-749
▁치료	-750
!!	-751
▁존	-752
▁부분	-753
name	-754
▁경험	-755
▁그는	-756
▁기준	-757
▁월	-758
▁추천	-759
▁늘	-760
장이	-761
▁100	-762
▁실제	-763
ot	-764
▁...	-765
▁된다	-766
▁효과	-767
▁투자	-768
립니다	-769
▁처음	-770
▁잡	-771
▁무엇	-772
▁최대	-773
----	-774
la	-775
▁어려	-776
▁않고	-777
example	-778
▁면	-779
▁국민	-780
▁이러한	-781
▁대통령	-782
회의	-783
▁휴	-784
교육	-785
사이트	-786
▁적용	-787
stname	-788
▁의미	-789
▁얻	-790
▁있었	-791
리스	-792
네요	-793
▁데이터	-794
ww	-795
▁전체	-796
ation	-797
르면	-798
▁등의	-799
▁찾아	-800
▁사이트	-801
겠다	-802
리아	-803
▁높은	-804
▁있었다	-805
▁좋아	-806
▁올해	-807
스를	-808
▁학생	-809
▁침	-810
▁않은	-811
주는	-812
다면	-813
케이	-814
▁몇	-815
▁to	-816
▁관심	-817
▁영화	-818
▁잠	-819
리에	-820
▁시스템	-821
▁18	-822
▁막	-823
▁있고	-824
-2	-825
▁주요	-826
▁답	-827
▁콘	-828
▁문화	-829
도를	-830
▁골	-831
지고	-832
▁갈	-833
....	-834
▁알아	-835
▁상태	-836
▁이를	-837
▁코로나	-838
인이	-839
▁거래	-840
▁엄	-841
▁몸	-842
안마	-843
▁일부	-844
▁매우	-845
▁2.	-846
덤프	-847
▁폭	-848
▁영향	-849
▁방문	-850
하세요	-851
▁설치	-852
▁측	-853
▁증가	-854
▁자신의	-855
▁여성	-856
▁기대	-857
ᄏᄏ	-858
▁이름	-859
▁수도	-860
므로	-861
라도	-862
▁.	-863
▁회원	-864
드는	-865
마트	-866
▁기록	-867
시는	-868
▁14	-869
▁신청	-870
▁16	-871
▁이해	-872
▁계속	-873
▁산업	-874
▁캐	-875
201	-876
어나	-877
▁없이	-878
ad	-879
▁소개	-880
▁스타	-881
▁보여	-882
▁와	-883
▁되는	-884
▁응	-885
랍니다	-886
▁숙	-887
▁철	-888
이었다	-889
▁발표	-890
회를	-891
▁아래	-892
▁더욱	-893
▁급	-894
tp	-895
작권	-896
▁기본	-897
부분	-898
▁아닌	-899
원을	-900
▁있다는	-901
▁벌	-902
//	-903
▁이제	-904
▁됩니다	-905
▁유지	-906
▁가족	-907
시에	-908
▁떠	-909
50	-910
▁평가	-911
ow	-912
us	-913
▁먼	-914
시키	-915
치를	-916
자료	-917
▁결정	-918
▁지속	-919
,000	-920
▁13	-921
http	-922
▁나는	-923
보험	-924
▁있으	-925
▁삶	-926
▁필요한	-927
▁정책	-928
▁생산	-929
▁등록	-930
했던	-931
▁인터넷	-932
▁과정	-933
.”	-934
://	-935
스크	-936
하려	-937
없이	-938
▁2020	-939
un	-940
▁감사	-941
▁돌아	-942
▁마련	-943
▁금지	-944
보기	-945
▁받아	-946
되지	-947
원이	-948
▁없습니다	-949
▁따르면	-950
▁소비	-951
▁▲	-952
▁죽	-953
원은	-954
어서	-955
▁작성	-956
▁디자인	-957
▁물론	-958
▁특별	-959
▁공개	-960
인의	-961
▁정말	-962
▁좀	-963
▁즉	-964
▁놀	-965
▁극	-966
▁작업	-967
▁홈	-968
um	-969
▁풍	-970
ail	-971
▁*	-972
im	-973
ch	-974
▁해결	-975
▁같이	-976
▁내가	-977
▁돈	-978
인데	-979
포츠	-980
▁난	-981
해주	-982
▁제작	-983
▁성장	-984
경제	-985
▁경기	-986
oo	-987
▁기간	-988
▁추진	-989
▁가지고	-990
▁읽	-991
▁대학	-992
▁J	-993
▁이렇게	-994
▁2019	-995
▁범	-996
▁17	-997
왔다	-998
▁왜	-999
▁성공	-1000
▁낮	-1001
스타	-1002
▁자세	-1003
▁암	-1004
▁하나님	-1005
▁바랍니다	-1006
▁생활	-1007
▁가능한	-1008
관리	-1009
트를	-1010
est	-1011
▁분야	-1012
▁보호	-1013
문화	-1014
▁공간	-1015
▁우리는	-1016
▁이것	-1017
iv	-1018
▁그래서	-1019
드를	-1020
▁윤	-1021
텐츠	-1022
점을	-1023
력이	-1024
르는	-1025
▁떨	-1026
▁y	-1027
▁국제	-1028
▁발전	-1029
디어	-1030
▁웹	-1031
▁무단	-1032
▁시험	-1033
인지	-1034
▁등이	-1035
사회	-1036
▁않습니다	-1037
▁혼	-1038
▁품	-1039
ur	-1040
▁요구	-1041
▁3.	-1042
원의	-1043
▁어린	-1044
치는	-1045
기로	-1046
▁기존	-1047
▁이에	-1048
▁개선	-1049
▁컨	-1050
▁작품	-1051
▁아무	-1052
▁이날	-1053
대출	-1054
시장	-1055
▁팀	-1056
▁되어	-1057
▁자연	-1058
▁중요한	-1059
▁수준	-1060
▁사항	-1061
▁검색	-1062
운데	-1063
▁중심	-1064
▁탄	-1065
하거나	-1066
▁슬	-1067
인을	-1068
스는	-1069
▁악	-1070
물을	-1071
▁24	-1072
▁현대	-1073
▁그렇	-1074
▁풀	-1075
하였	-1076
로벌	-1077
렸다	-1078
인가	-1079
▁피해	-1080
▁않았	-1081
제를	-1082
▁조금	-1083
▁h	-1084
▁놓	-1085
전히	-1086
▁대부분	-1087
▁학교	-1088
▁연결	-1089
ut	-1090
ag	-1091
▁지난해	-1092
▁뿐	-1093
기관	-1094
도로	-1095
▁미래	-1096
▁그녀	-1097
▁변화	-1098
▁나오	-1099
음을	-1100
▁있다고	-1101
나는	-1102
위를	-1103
▁몰	-1104
▁희	-1105
▁친구	-1106
▁책임	-1107
르게	-1108
▁re	-1109
지역	-1110
▁송	-1111
도가	-1112
▁예약	-1113
▁자료	-1114
▁황	-1115
▁어느	-1116
수를	-1117
▁먼저	-1118
▁2018	-1119
▁밀	-1120
▁색	-1121
▁역할	-1122
다가	-1123
▁라이	-1124
op	-1125
시험	-1126
▁강화	-1127
▁정보를	-1128
▁해외	-1129
▁브랜드	-1130
▁노력	-1131
보고	-1132
연구	-1133
▁50	-1134
▁인간	-1135
▁방송	-1136
▁이야기	-1137
▁얼마	-1138
바이	-1139
▁믿	-1140
▁모델	-1141
지가	-1142
마다	-1143
▁비교	-1144
▁역시	-1145
▁운동	-1146
▁기반	-1147
▁핵	-1148
수가	-1149
위원회	-1150
▁둘	-1151
ap	-1152
▁도시	-1153
대를	-1154
▁g	-1155
금을	-1156
▁이는	-1157
11	-1158
▁n	-1159
▁바이	-1160
▁방식	-1161
▁그의	-1162
▁플레이	-1163
▁년	-1164
▁인해	-1165
이가	-1166
하십시오	-1167
▁주문	-1168
디오	-1169
▁you	-1170
마사지	-1171
▁하루	-1172
▁스마트	-1173
스터	-1174
▁아직	-1175
ay	-1176
▁경쟁	-1177
▁알고	-1178
지원	-1179
▁금융	-1180
의를	-1181
▁이루	-1182
▁여기	-1183
상이	-1184
니스	-1185
▁사람이	-1186
▁있는데	-1187
배포	-1188
산업	-1189
동안	-1190
▁–	-1191
감을	-1192
▁카지노	-1193
▁가운데	-1194
▁존재	-1195
▁목표	-1196
if	-1197
나요	-1198
▁이동	-1199
▁업무	-1200
스로	-1201
▁긴	-1202
▁정치	-1203
도의	-1204
▁않을	-1205
▁보면	-1206
▁파일	-1207
▁회사	-1208
ce	-1209
▁능	-1210
▁당시	-1211
었던	-1212
▁자유	-1213
▁있지만	-1214
▁관한	-1215
▁25	-1216
이드	-1217
▁한편	-1218
▁배우	-1219
▁객	-1220
▁울	-1221
▁쉽게	-1222
▁오후	-1223
▁고려	-1224
▁피부	-1225
▁북한	-1226
▁전략	-1227
들도	-1228
▁헤	-1229
수는	-1230
▁게시	-1231
시설	-1232
lo	-1233
▁개최	-1234
▁글로벌	-1235
▁시민	-1236
은행	-1237
▁사건	-1238
명이	-1239
▁착	-1240
▁떨어	-1241
이지	-1242
프트	-1243
▁번째	-1244
▁21	-1245
드립니다	-1246
▁터	-1247
▁공동	-1248
▁변경	-1249
▁전국	-1250
▁솔	-1251
가능	-1252
서비스	-1253
▁깨	-1254
▁도움이	-1255
▁이전	-1256
21	-1257
▁http	-1258
▁말씀	-1259
▁위험	-1260
▁발견	-1261
▁육	-1262
▁저작권	-1263
명의	-1264
ew	-1265
지막	-1266
▁선정	-1267
▁Q	-1268
▁서비스를	-1269
▁음식	-1270
▁출장	-1271
기술	-1272
▁출시	-1273
ver	-1274
로드	-1275
▁자체	-1276
지도	-1277
▁>	-1278
==	-1279
자로	-1280
▁다운	-1281
▁공급	-1282
데이트	-1283
▁폐	-1284
워크	-1285
소를	-1286
개월	-1287
org	-1288
소년	-1289
▁씨	-1290
시면	-1291
▁정확	-1292
번호	-1293
▁보내	-1294
▁비용	-1295
ul	-1296
▁확대	-1297
▁결제	-1298
▁팔	-1299
▁공유	-1300
환경	-1301
▁수행	-1302
▁예상	-1303
는다	-1304
명을	-1305
계를	-1306
ter	-1307
했고	-1308
사와	-1309
▁오는	-1310
▁꿈	-1311
▁사람들이	-1312
한국	-1313
ct	-1314
▁앞으로	-1315
▁최신	-1316
까요	-1317
선을	-1318
상의	-1319
▁th	-1320
▁크게	-1321
러운	-1322
▁혹	-1323
이어	-1324
▁부산	-1325
▁궁	-1326
▁엔	-1327
▁넣	-1328
▁설정	-1329
▁컴	-1330
나라	-1331
▁앱	-1332
억원	-1333
장에서	-1334
▁뉴스	-1335
▁안내	-1336
▁표현	-1337
▁질문	-1338
▁2021	-1339
▁광고	-1340
랫폼	-1341
▁후보	-1342
12	-1343
▁것도	-1344
▁대비	-1345
▁해야	-1346
▁탈	-1347
▁만나	-1348
▁전에	-1349
▁듯	-1350
▁하지	-1351
자들이	-1352
서를	-1353
▁마지막	-1354
▁가입	-1355
▁여러분	-1356
러스	-1357
▁문의	-1358
▁누구	-1359
▁규모	-1360
▁작은	-1361
▁이벤	-1362
인은	-1363
ight	-1364
▁장애	-1365
하지만	-1366
▁뜻	-1367
▁참고	-1368
했다고	-1369
▁사용할	-1370
▁따라서	-1371
▁전문가	-1372
시기	-1373
▁쿠	-1374
▁혈	-1375
▁자기	-1376
하실	-1377
▁스포츠	-1378
▁업체	-1379
▁꼭	-1380
▁삼성	-1381
▁적극	-1382
▁제주	-1383
밖에	-1384
▁뉴	-1385
▁만큼	-1386
▁처리	-1387
▁2017	-1388
업체	-1389
▁뛰	-1390
머니	-1391
▁살아	-1392
자에게	-1393
기간	-1394
혁신	-1395
▁영향을	-1396
▁조사	-1397
자와	-1398
▁강조	-1399
▁의료	-1400
이를	-1401
▁인증	-1402
▁스트	-1403
댓글	-1404
리지	-1405
ab	-1406
장의	-1407
▁조직	-1408
하였다	-1409
문제	-1410
▁제가	-1411
▁티	-1412
너지	-1413
▁팬	-1414
▁보험	-1415
od	-1416
▁주민	-1417
▁전망	-1418
▁깊	-1419
아요	-1420
해보	-1421
).	-1422
▁지방	-1423
▁구조	-1424
▁4.	-1425
로부터	-1426
▁콘텐츠	-1427
전을	-1428
▁공부	-1429
으나	-1430
▁비롯	-1431
▁봉	-1432
인다	-1433
▁실시	-1434
▁압	-1435
▁그런데	-1436
요일	-1437
:00	-1438
▁집중	-1439
▁우리가	-1440
^^	-1441
▁때문이다	-1442
▁페	-1443
지털	-1444
▁40	-1445
▁제한	-1446
▁어디	-1447
▁왕	-1448
▁22	-1449
▁플랫폼	-1450
▁행복	-1451
▁언제	-1452
▁기타	-1453
email	-1454
과의	-1455
대한	-1456
▁하면	-1457
▁거의	-1458
▁그렇게	-1459
복지	-1460
▁일이	-1461
▁받고	-1462
정이	-1463
▁느낌	-1464
▁In	-1465
▁음악	-1466
성과	-1467
웨어	-1468
안을	-1469
▁배송	-1470
▁쇼	-1471
▁러	-1472
▁꾸	-1473
라마	-1474
os	-1475
▁기사	-1476
기의	-1477
▁for	-1478
개의	-1479
부는	-1480
스의	-1481
었고	-1482
▁항공	-1483
▁익	-1484
▁체크	-1485
▁상담	-1486
▁기억	-1487
▁액	-1488
로는	-1489
스가	-1490
▁△	-1491
션을	-1492
▁최고의	-1493
▁의해	-1494
동을	-1495
났다	-1496
리의	-1497
▁댓글	-1498
▁자동차	-1499
▁전달	-1500
바일	-1501
▁퍼	-1502
▁얼굴	-1503
▁서로	-1504
▁형태	-1505
▁계약	-1506
▁구축	-1507
▁예정이다	-1508
▁선수	-1509
▁따른	-1510
▁감독	-1511
▁아름	-1512
▁주변	-1513
일부터	-1514
진다	-1515
ate	-1516
22	-1517
인트	-1518
정한	-1519
▁지나	-1520
ore	-1521
▁요청	-1522
생활	-1523
대의	-1524
▁신고	-1525
▁빨	-1526
▁루	-1527
되었습니다	-1528
▁결국	-1529
▁개인정보	-1530
▁노동	-1531
▁프로젝	-1532
▁관광	-1533
▁23	-1534
▁편의	-1535
장에	-1536
▁보다	-1537
▁시간이	-1538
파트	-1539
르고	-1540
▁문제가	-1541
▁충분	-1542
▁fir	-1543
▁의견	-1544
스토	-1545
▁입니다	-1546
lastname	-1547
▁전자	-1548
▁사고	-1549
▁제공합니다	-1550
▁움	-1551
서울	-1552
▁한번	-1553
되며	-1554
▁겨	-1555
▁상승	-1556
적이	-1557
▁있게	-1558
되었다	-1559
▁등에	-1560
▁시간을	-1561
▁시행	-1562
▁인기	-1563
▁경찰	-1564
개발	-1565
로그	-1566
지에	-1567
려고	-1568
▁Y	-1569
▁덤프	-1570
th	-1571
한다고	-1572
ers	-1573
▁역사	-1574
▁제조	-1575
40	-1576
님의	-1577
▁영상	-1578
▁녹	-1579
하도록	-1580
▁옵	-1581
회가	-1582
하는데	-1583
▁올라	-1584
▁부담	-1585
15	-1586
사항	-1587
▁전화	-1588
▁자리	-1589
▁않아	-1590
▁받은	-1591
로서	-1592
80	-1593
▁고민	-1594
▁아주	-1595
▁공식	-1596
일까지	-1597
▁정상	-1598
▁대상으로	-1599
▁저희	-1600
▁가져	-1601
▁정신	-1602
▁행사	-1603
전에	-1604
▁부족	-1605
60	-1606
▁수익	-1607
▁숨	-1608
▁인정	-1609
한다는	-1610
▁붙	-1611
거리	-1612
▁l	-1613
▁않았다	-1614
▁답변	-1615
ss	-1616
▁안정	-1617
에서의	-1618
으로써	-1619
대표	-1620
▁클릭	-1621
▁만든	-1622
▁상당	-1623
민국	-1624
▁나라	-1625
▁예방	-1626
정부	-1627
▁갑	-1628
▁주장	-1629
스럽	-1630
▁이벤트	-1631
**	-1632
▁199	-1633
▁견	-1634
▁e	-1635
출장샵	-1636
▁흔	-1637
▁기관	-1638
▁객실	-1639
게임	-1640
▁항상	-1641
▁가진	-1642
▁맡	-1643
▁밤	-1644
▁받을	-1645
.5	-1646
▁열린	-1647
롭게	-1648
▁대출	-1649
▁있어서	-1650
▁어린이	-1651
▁경영	-1652
라우	-1653
▁꽃	-1654
▁최소	-1655
--------	-1656
▁어렵	-1657
▁현실	-1658
▁유명	-1659
▁듣	-1660
일을	-1661
물이	-1662
▁차량	-1663
▁욕	-1664
▁흐	-1665
▁업데이트	-1666
▁email	-1667
제로	-1668
ly	-1669
▁확보	-1670
움을	-1671
▁가까	-1672
▁펼	-1673
하신	-1674
▁민주	-1675
▁특징	-1676
▁혜	-1677
▁석	-1678
qu	-1679
▁그림	-1680
콜걸	-1681
이에	-1682
▁참석	-1683
kr	-1684
ia	-1685
▁감소	-1686
▁연락	-1687
▁저는	-1688
가를	-1689
대학교	-1690
▁제공하는	-1691
▁가치	-1692
▁디지털	-1693
▁=	-1694
이기	-1695
▁단계	-1696
ity	-1697
대에	-1698
ip	-1699
▁캠	-1700
동산	-1701
어를	-1702
▁살펴	-1703
수의	-1704
▁판단	-1705
촬영	-1706
▁잔	-1707
▁TV	-1708
▁웃	-1709
▁대응	-1710
▁만족	-1711
▁끌	-1712
▁쉬	-1713
는지	-1714
▁인천	-1715
▁firstname	-1716
사진	-1717
았습니다	-1718
만큼	-1719
거래	-1720
▁전기	-1721
▁되고	-1722
▁모바일	-1723
▁재배포	-1724
▁&	-1725
av	-1726
께서	-1727
▁소재	-1728
이크	-1729
▁염	-1730
▁표시	-1731
▁공격	-1732
▁보는	-1733
."	-1734
▁칼	-1735
▁조건	-1736
원에	-1737
년에	-1738
▁활성	-1739
70	-1740
ist	-1741
▁v	-1742
시고	-1743
▁핵심	-1744
정책	-1745
없는	-1746
24	-1747
▁동시에	-1748
어난	-1749
▁있기	-1750
어가	-1751
▁X	-1752
권을	-1753
도는	-1754
▁싸	-1755
art	-1756
대학	-1757
프로	-1758
)’	-1759
▁우선	-1760
▁움직	-1761
출장안마	-1762
퓨터	-1763
▁제시	-1764
▁같습니다	-1765
▁우리의	-1766
▁최초	-1767
레스	-1768
▁2022	-1769
▁컬	-1770
만의	-1771
▁프리	-1772
▁제거	-1773
상품	-1774
▁아침	-1775
다운	-1776
▁레이	-1777
이란	-1778
▁분위	-1779
▁이상의	-1780
▁간단	-1781
▁가능합니다	-1782
▁,	-1783
▁뭐	-1784
▁특정	-1785
▁격	-1786
▁통합	-1787
▁워	-1788
점이	-1789
▁·	-1790
▁전시	-1791
▁반응	-1792
▁St	-1793
▁케이	-1794
보는	-1795
▁유럽	-1796
▁사례	-1797
▁외국	-1798
13	-1799
▁이루어	-1800
▁일을	-1801
▁평균	-1802
가가	-1803
▁바라	-1804
▁과거	-1805
카지노	-1806
이스	-1807
our	-1808
▁오래	-1809
18	-1810
▁중앙	-1811
▁시즌	-1812
회는	-1813
▁역할을	-1814
www	-1815
▁아니다	-1816
▁사용하는	-1817
ith	-1818
▁입력	-1819
km	-1820
▁상대	-1821
오는	-1822
▁기다	-1823
▁보기	-1824
되었	-1825
▁문제를	-1826
▁지급	-1827
▁pro	-1828
▁내려	-1829
▁자주	-1830
▁참가	-1831
케팅	-1832
-3	-1833
▁주차	-1834
▁모습을	-1835
▁대구	-1836
▁각각	-1837
전자	-1838
▁2016	-1839
더라도	-1840
▁오전	-1841
성에	-1842
드리	-1843
▁숙박	-1844
▁흥	-1845
라운	-1846
▁같다	-1847
▁보유	-1848
▁빈	-1849
신문	-1850
▁촉	-1851
▁싶은	-1852
▁요금	-1853
▁전통	-1854
23	-1855
oc	-1856
구를	-1857
▁도입	-1858
ort	-1859
리즈	-1860
▁내부	-1861
▁기능을	-1862
▁카드	-1863
▁섬	-1864
업을	-1865
▁멀	-1866
단체	-1867
▁말을	-1868
ure	-1869
▁매일	-1870
▁우수	-1871
구요	-1872
이자	-1873
▁방향	-1874
▁체험	-1875
▁영국	-1876
▁on	-1877
▁과학	-1878
▁혁신	-1879
▁할인	-1880
▁공연	-1881
▁is	-1882
▁순간	-1883
자들의	-1884
▁감염	-1885
▁페이	-1886
▁빌	-1887
▁단순	-1888
▁찍	-1889
▁냉	-1890
ind	-1891
▁직원	-1892
방법	-1893
▁지적	-1894
▁나온	-1895
▁재미	-1896
TV	-1897
▁부모	-1898
▁대해서	-1899
ub	-1900
▁그냥	-1901
▁선보	-1902
ess	-1903
으니	-1904
▁Ex	-1905
▁공공	-1906
어야	-1907
▁제대로	-1908
▁종류	-1909
▁통한	-1910
▁결혼	-1911
▁장소	-1912
▁얼마나	-1913
는데요	-1914
정에	-1915
▁방법을	-1916
임을	-1917
▁비즈	-1918
BS	-1919
▁완료	-1920
▁위원	-1921
비를	-1922
▁대신	-1923
▁매출	-1924
년간	-1925
▁그룹	-1926
16	-1927
ak	-1928
▁대한민국	-1929
▁언론	-1930
▁원하는	-1931
▁맥	-1932
▁되었다	-1933
훈련	-1934
▁교수	-1935
▁만드는	-1936
드시	-1937
리카	-1938
▁마사지	-1939
함을	-1940
이션	-1941
부를	-1942
▁27	-1943
▁홍보	-1944
대가	-1945
▁+	-1946
▁프로젝트	-1947
▁주식	-1948
▁최종	-1949
▁26	-1950
▁완벽	-1951
그룹	-1952
들에	-1953
co	-1954
~~	-1955
상에	-1956
▁궁금	-1957
▁다운로드	-1958
▁어려운	-1959
학생	-1960
▁드라마	-1961
료를	-1962
??	-1963
이지만	-1964
▁협력	-1965
▁앞서	-1966
▁드러	-1967
▁st	-1968
▁빛	-1969
지지	-1970
습니까	-1971
▁그대로	-1972
▁겪	-1973
▁여름	-1974
▁유형	-1975
▁청소년	-1976
▁사회적	-1977
▁보장	-1978
이버	-1979
▁전환	-1980
.3	-1981
▁탐	-1982
25	-1983
▁제외	-1984
자들은	-1985
불어	-1986
제가	-1987
▁접근	-1988
ant	-1989
아서	-1990
지의	-1991
ect	-1992
▁컴퓨터	-1993
되면	-1994
스러운	-1995
▁됐다	-1996
▁건설	-1997
▁슈	-1998
▁28	-1999
▁다음과	-2000
▁바람	-2001
기자	-2002
세계	-2003
▁관계자는	-2004
▁전했다	-2005
냈다	-2006
▁담당	-2007
▁지정	-2008
▁촬영	-2009
▁덕	-2010
14	-2011
추천	-2012
▁좌	-2013
카오	-2014
▁청년	-2015
NS	-2016
어도	-2017
뮤니	-2018
▁실행	-2019
▁등장	-2020
▁신규	-2021
▁구입	-2022
이라며	-2023
겠다는	-2024
▁기획	-2025
▁달러	-2026
카라	-2027
▁왔	-2028
도시	-2029
▁홈페이지	-2030
링크	-2031
카드	-2032
▁정도로	-2033
영상	-2034
와의	-2035
▁각종	-2036
▁학습	-2037
▁내용을	-2038
▁하며	-2039
▁망	-2040
▁걱	-2041
▁60	-2042
▁스스로	-2043
내는	-2044
운동	-2045
량을	-2046
▁주는	-2047
▁정의	-2048
식이	-2049
▁영업	-2050
트워크	-2051
정은	-2052
▁~	-2053
▁신경	-2054
▁불법	-2055
200	-2056
▁혜택	-2057
▁해서	-2058
증을	-2059
▁실제로	-2060
▁벗	-2061
▁라인	-2062
▁느끼	-2063
▁푸	-2064
▁사용하여	-2065
▁위해서는	-2066
아가	-2067
사에	-2068
안전	-2069
▁신뢰	-2070
제품	-2071
하자	-2072
▁않는다	-2073
▁설계	-2074
▁돼	-2075
ine	-2076
▁사무	-2077
▁퇴	-2078
내용	-2079
up	-2080
학과	-2081
▁인한	-2082
▁동일	-2083
원에서	-2084
▁등으로	-2085
려면	-2086
▁차지	-2087
▁사람은	-2088
▁그것은	-2089
으로서	-2090
▁이곳	-2091
▁수상	-2092
▁기념	-2093
만남	-2094
▁우려	-2095
▁조성	-2096
산을	-2097
▁행동	-2098
▁조선	-2099
17	-2100
시켜	-2101
se	-2102
▁페이지	-2103
문을	-2104
님이	-2105
위에	-2106
▁예술	-2107
치고	-2108
▁다만	-2109
▁여자	-2110
▁by	-2111
▁29	-2112
물의	-2113
1.	-2114
▁달리	-2115
▁가정	-2116
▁뜨	-2117
▁바탕	-2118
▁혹은	-2119
▁반드시	-2120
▁얘	-2121
▁보인다	-2122
▁강력	-2123
▁없었다	-2124
▁힘들	-2125
했지만	-2126
▁주택	-2127
▁여전히	-2128
▁우리나라	-2129
으로는	-2130
▁부탁	-2131
하다고	-2132
▁좋습니다	-2133
▁행정	-2134
▁요즘	-2135
▁리뷰	-2136
있다	-2137
▁이내	-2138
▁스타일	-2139
▁아마	-2140
▁넓	-2141
관계	-2142
연합	-2143
세를	-2144
▁목적	-2145
’,	-2146
▁정리	-2147
줍니다	-2148
▁곧	-2149
▁관련된	-2150
▁부동산	-2151
▁선거	-2152
금융	-2153
라며	-2154
▁이것은	-2155
▁The	-2156
▁더불어	-2157
▁이야기를	-2158
▁자격	-2159
▁©	-2160
▁희망	-2161
우스	-2162
하던	-2163
▁주목	-2164
개를	-2165
통신	-2166
전재	-2167
▁커피	-2168
▁받는	-2169
nd	-2170
회사	-2171
▁들어가	-2172
▁보안	-2173
ial	-2174
▁제품을	-2175
▁신용	-2176
▁폴	-2177
셔서	-2178
▁아파트	-2179
▁보도	-2180
▁효율	-2181
▁모르	-2182
▁의원	-2183
▁설립	-2184
▁넘어	-2185
거운	-2186
였습니다	-2187
▁제출	-2188
▁화면	-2189
리로	-2190
▁그들은	-2191
▁지도	-2192
▁경우에는	-2193
갔다	-2194
ert	-2195
ud	-2196
▁달라	-2197
▁노래	-2198
▁있어요	-2199
▁개념	-2200
소개	-2201
기와	-2202
▁2015	-2203
▁종합	-2204
년부터	-2205
했으며	-2206
라면	-2207
)||	-2208
린다	-2209
▁비즈니스	-2210
▁질병	-2211
했을	-2212
▁5.	-2213
▁수있는	-2214
활동	-2215
▁마을	-2216
▁비슷	-2217
▁마케팅	-2218
▁하는데	-2219
▁잃	-2220
▁성과	-2221
▁중에	-2222
적이고	-2223
▁뇌	-2224
분이	-2225
▁갖고	-2226
▁시청	-2227
▁옵션	-2228
▁영어	-2229
같은	-2230
녕하세요	-2231
위한	-2232
▁저장	-2233
가요	-2234
▁소프트	-2235
▁목소	-2236
아이	-2237
▁있다면	-2238
ST	-2239
▁요소	-2240
▁스토	-2241
▁경우가	-2242
▁교통	-2243
▁애플	-2244
▁필수	-2245
▁을	-2246
주시	-2247
투자	-2248
▁주소	-2249
하다는	-2250
드로	-2251
▁말이	-2252
▁러시아	-2253
▁무단전재	-2254
▁위해서	-2255
▁이하	-2256
▁현장	-2257
▁가능성이	-2258
보호	-2259
all	-2260
ard	-2261
많은	-2262
화된	-2263
▁찬	-2264
▁아버	-2265
▁멋	-2266
right	-2267
▁못한	-2268
▁경기도	-2269
메일	-2270
ont	-2271
주세요	-2272
▁선물	-2273
세대	-2274
▁전재	-2275
▁금액	-2276
▁졸	-2277
ack	-2278
▁블랙	-2279
▁땅	-2280
▁절차	-2281
▁해도	-2282
▁택	-2283
지로	-2284
▁두고	-2285
▁자신이	-2286
▁▶	-2287
▁반영	-2288
▁저렴	-2289
▁비밀	-2290
하시면	-2291
▁주의	-2292
수록	-2293
▁출연	-2294
▁헌	-2295
▁나가	-2296
▁납	-2297
▁품질	-2298
88	-2299
조건	-2300
▁되지	-2301
BC	-2302
주고	-2303
▁이뤄	-2304
▁인도	-2305
이었	-2306
▁PC	-2307
▁배경	-2308
ps	-2309
인증	-2310
▁은행	-2311
부가	-2312
▁잘못	-2313
▁with	-2314
▁인사	-2315
▁회복	-2316
AP	-2317
▁있던	-2318
계획	-2319
▁제안	-2320
▁메뉴	-2321
▁불편	-2322
회에서	-2323
성은	-2324
-10	-2325
간의	-2326
▁남자	-2327
중에	-2328
뿐만	-2329
▁즐길	-2330
▁히	-2331
▁사람들은	-2332
▁영역	-2333
▁빠르게	-2334
ang	-2335
▁분명	-2336
▁술	-2337
▁하기	-2338
▁셀	-2339
하기도	-2340
▁때는	-2341
▁센터	-2342
장과	-2343
▁그가	-2344
▁조회	-2345
가의	-2346
▁Ch	-2347
▁하여	-2348
ook	-2349
▁빠른	-2350
약을	-2351
▁마음을	-2352
▁끊	-2353
시키는	-2354
플레이	-2355
▁가는	-2356
▁아시아	-2357
▁개의	-2358
민주	-2359
ions	-2360
출장마사지	-2361
▁나와	-2362
erv	-2363
▁진단	-2364
▁도착	-2365
관을	-2366
▁파악	-2367
▁콜	-2368
▁사용자	-2369
관은	-2370
릭터	-2371
▁계획이다	-2372
▁LG	-2373
▁혐	-2374
주택	-2375
▁쇼핑	-2376
▁없어	-2377
▁오픈	-2378
▁위치한	-2379
▁활동을	-2380
▁습	-2381
are	-2382
스팅	-2383
씨는	-2384
보다는	-2385
ill	-2386
▁의사	-2387
▁에너지	-2388
등학교	-2389
▁단체	-2390
하겠다	-2391
▁언급	-2392
▁수출	-2393
▁수요	-2394
▁인식	-2395
▁Al	-2396
▁겨울	-2397
▁외부	-2398
▁확실	-2399
▁중심으로	-2400
▁편안	-2401
▁묻	-2402
병원	-2403
▁한다는	-2404
▁봐	-2405
ain	-2406
▁교환	-2407
eb	-2408
▁사라	-2409
▁프랑	-2410
▁장기	-2411
▁채널	-2412
▁커뮤니	-2413
▁괜	-2414
구하고	-2415
▁만에	-2416
▁수정	-2417
▁딸	-2418
▁높아	-2419
감이	-2420
▁베팅	-2421
▁보니	-2422
전문	-2423
▁예수	-2424
▁독일	-2425
▁관심을	-2426
▁되면	-2427
of	-2428
▁비해	-2429
▁인생	-2430
▁니	-2431
▁향상	-2432
자리	-2433
ive	-2434
▁대체	-2435
▁검토	-2436
▁하나의	-2437
번째	-2438
신청	-2439
▁되었	-2440
▁그리	-2441
스코	-2442
집니다	-2443
▁억	-2444
ev	-2445
▁엄마	-2446
일보	-2447
▁https	-2448
▁사망	-2449
▁수술	-2450
▁특별한	-2451
▁주로	-2452
우는	-2453
▁삭	-2454
▁테스트	-2455
▁젊	-2456
하고자	-2457
▁느껴	-2458
ment	-2459
▁낙	-2460
규모	-2461
▁성능	-2462
인과	-2463
▁도움을	-2464
▁나누	-2465
▁전쟁	-2466
▁네트워크	-2467
▁블로그	-2468
▁맞는	-2469
▁..	-2470
▁탑	-2471
▁로그	-2472
▁감사합니다	-2473
▁나무	-2474
하나	-2475
ᄒᄒ	-2476
▁첨	-2477
▁이미지	-2478
▁완성	-2479
▁진짜	-2480
▁오른	-2481
▁스마트폰	-2482
회에	-2483
▁돈을	-2484
▁모양	-2485
▁위하여	-2486
▁그럼	-2487
▁업계	-2488
▁건축	-2489
nt	-2490
치가	-2491
▁메시	-2492
하시는	-2493
▁소통	-2494
심을	-2495
▁일반적으로	-2496
▁징	-2497
▁확장	-2498
▁1,	-2499
해요	-2500
▁이유는	-2501
▁자세한	-2502
▁보이는	-2503
▁바탕으로	-2504
상은	-2505
▁수집	-2506
▁회의	-2507
▁앉	-2508
▁이와	-2509
▁i	-2510
리어	-2511
해도	-2512
▁엘	-2513
▁솔루	-2514
▁지지	-2515
국의	-2516
▁사전	-2517
겠지만	-2518
▁캐릭터	-2519
▁필요가	-2520
500	-2521
▁선생	-2522
으로부터	-2523
▁봄	-2524
▁흡	-2525
▁것이라고	-2526
▁본문	-2527
▁대중	-2528
▁활성화	-2529
▁전혀	-2530
자에	-2531
▁검사	-2532
메라	-2533
▁보통	-2534
▁고양	-2535
▁IT	-2536
절한	-2537
관이	-2538
▁죄	-2539
▁대전	-2540
▁시리즈	-2541
▁논의	-2542
▁하이	-2543
ER	-2544
도에	-2545
▁결과를	-2546
▁옆	-2547
▁실시간	-2548
리와	-2549
달러	-2550
▁써	-2551
점은	-2552
후기	-2553
▁편집	-2554
▁70	-2555
먼트	-2556
방송	-2557
겠다고	-2558
▁옷	-2559
▁훨	-2560
▁쪽	-2561
▁일정	-2562
▁찾을	-2563
▁설명했다	-2564
▁엄청	-2565
%)	-2566
과학	-2567
여행	-2568
했는데	-2569
성의	-2570
▁완전히	-2571
▁통과	-2572
▁이용할	-2573
▁타이	-2574
▁수가	-2575
▁닫	-2576
▁없을	-2577
▁기초	-2578
▁확인할	-2579
▁취소	-2580
▁법률	-2581
두고	-2582
▁쌓	-2583
▁be	-2584
▁짧	-2585
▁나서	-2586
▁미리	-2587
ep	-2588
나무	-2589
▁SK	-2590
▁경험을	-2591
라스	-2592
▁아동	-2593
▁뿌	-2594
▁통신	-2595
보면	-2596
량이	-2597
일에	-2598
▁휴대	-2599
▁수입	-2600
롯데	-2601
▁과정에서	-2602
▁당신이	-2603
▁이용해	-2604
▁안에	-2605
▁검찰	-2606
시스템	-2607
▁훨씬	-2608
▁중인	-2609
르기	-2610
더니	-2611
▁예를	-2612
-4	-2613
문의	-2614
일이	-2615
분에	-2616
one	-2617
한다면	-2618
▁본격	-2619
가격	-2620
▁가득	-2621
히려	-2622
▁생성	-2623
▁홀	-2624
하려면	-2625
▁소프트웨어	-2626
구가	-2627
자기	-2628
니아	-2629
▁2014	-2630
▁명의	-2631
하기로	-2632
▁지켜	-2633
ice	-2634
분을	-2635
사로	-2636
cm	-2637
▁따뜻	-2638
이라면	-2639
▁카페	-2640
▁있는지	-2641
정의	-2642
ass	-2643
화가	-2644
1)	-2645
▁대부분의	-2646
▁강남	-2647
▁구체	-2648
▁당신의	-2649
튜브	-2650
▁기술을	-2651
▁샤	-2652
▁전반	-2653
▁예산	-2654
▁빼	-2655
▁신체	-2656
▁했습니다	-2657
▁아름다운	-2658
이즈	-2659
▁딱	-2660
▁곡	-2661
▁싱	-2662
og	-2663
으로도	-2664
▁exam	-2665
▁는	-2666
▁고용	-2667
▁조합	-2668
▁일상	-2669
▁불가	-2670
▁에어	-2671
함으로써	-2672
▁속에서	-2673
만을	-2674
▁먹튀	-2675
회장	-2676
만한	-2677
IN	-2678
▁확산	-2679
별로	-2680
====	-2681
▁100%	-2682
품을	-2683
:0	-2684
ON	-2685
▁「	-2686
경기	-2687
▁도전	-2688
▁전용	-2689
이너	-2690
rom	-2691
▁대형	-2692
▁자세히	-2693
▁생각이	-2694
장애	-2695
▁편리	-2696
:3	-2697
▁일으	-2698
▁비판	-2699
법을	-2700
▁심각	-2701
▁대하여	-2702
▁약속	-2703
▁화장	-2704
▁맺	-2705
▁받았다	-2706
.4	-2707
▁형성	-2708
▁고급	-2709
▁그들의	-2710
▁것에	-2711
▁반면	-2712
▁아닙	-2713
▁『	-2714
▁섭	-2715
스럽게	-2716
▁인터뷰	-2717
부의	-2718
▁오히려	-2719
사고	-2720
리기	-2721
▁부정	-2722
▁최저	-2723
▁향후	-2724
▁걱정	-2725
90	-2726
iz	-2727
▁됐	-2728
▁이끌	-2729
26	-2730
▁소속	-2731
더라	-2732
▁게임을	-2733
▁것처럼	-2734
대비	-2735
▁2023	-2736
했다는	-2737
무원	-2738
▁주인	-2739
▁동물	-2740
구의	-2741
▁불구하고	-2742
▁나의	-2743
▁광주	-2744
▁링크	-2745
과는	-2746
▁적합	-2747
27	-2748
28	-2749
▁are	-2750
▁예측	-2751
▁옥	-2752
▁현지	-2753
▁일단	-2754
대는	-2755
리그	-2756
조사	-2757
▁창업	-2758
보니	-2759
AR	-2760
▁AI	-2761
▁그동안	-2762
▁중단	-2763
▁하나님의	-2764
▁착용	-2765
.)	-2766
ED	-2767
▁벽	-2768
▁도와	-2769
▁프로그램을	-2770
자동	-2771
데이	-2772
▁오랜	-2773
든지	-2774
▁파트	-2775
▁꾸준	-2776
▁거리	-2777
▁훈련	-2778
▁중소	-2779
ib	-2780
▁네이버	-2781
▁수많은	-2782
▁80	-2783
어진	-2784
▁부드	-2785
▁정기	-2786
우리	-2787
▁소유	-2788
이면	-2789
act	-2790
▁개정	-2791
▁마찬	-2792
▁이사	-2793
단계	-2794
▁늦	-2795
▁무슨	-2796
▁시도	-2797
▁무료로	-2798
기고	-2799
체를	-2800
이번	-2801
제는	-2802
실을	-2803
▁사실을	-2804
해주세요	-2805
드가	-2806
▁제공하고	-2807
▁괜찮	-2808
▁k	-2809
▁이메일	-2810
▁마찬가지	-2811
▁기여	-2812
▁일어나	-2813
▁있지	-2814
ust	-2815
▁다가	-2816
▁흘	-2817
소득	-2818
ᅲᅲ	-2819
▁웨	-2820
▁논란	-2821
▁되었습니다	-2822
단의	-2823
▁제기	-2824
마을	-2825
▁반대	-2826
▁안녕하세요	-2827
▁사람의	-2828
▁미디어	-2829
▁하락	-2830
▁케	-2831
▁힘을	-2832
▁출발	-2833
▁받았	-2834
▁기회를	-2835
▁측면	-2836
▁근무	-2837
age	-2838
▁글을	-2839
▁사는	-2840
2)	-2841
▁분류	-2842
▁31	-2843
▁조정	-2844
▁하다	-2845
▁저녁	-2846
▁언어	-2847
해야합니다	-2848
▁식사	-2849
▁사업을	-2850
▁않다	-2851
년도	-2852
▁하늘	-2853
닷컴	-2854
그래	-2855
ast	-2856
보세요	-2857
▁독립	-2858
페인	-2859
▁그리스	-2860
ong	-2861
▁지금까지	-2862
▁체결	-2863
▁눈에	-2864
▁카카오	-2865
등록	-2866
▁아닙니다	-2867
▁후기	-2868
느냐	-2869
▁남성	-2870
▁가슴	-2871
▁덧	-2872
▁입장	-2873
점에서	-2874
▁당연	-2875
ᄏᄏᄏᄏ	-2876
▁(0	-2877
:5	-2878
AN	-2879
▁당신은	-2880
▁데이트	-2881
Fi	-2882
▁최적	-2883
▁지식	-2884
드의	-2885
햇살	-2886
▁내용은	-2887
▁뿐만	-2888
▁자랑	-2889
▁갤	-2890
▁자녀	-2891
▁컬러	-2892
무리	-2893
-5	-2894
▁못하고	-2895
▁반복	-2896
적을	-2897
▁관심이	-2898
군요	-2899
▁낮은	-2900
▁수영	-2901
▁맞춤	-2902
▁깔	-2903
▁Pro	-2904
▁불가능	-2905
스에	-2906
▁유통	-2907
▁버전	-2908
▁옮	-2909
상담	-2910
트로	-2911
▁소비자	-2912
▁초기	-2913
▁출신	-2914
▁진출	-2915
▁불안	-2916
▁서울시	-2917
니터	-2918
▁보관	-2919
▁암호	-2920
▁라이브	-2921
▁고통	-2922
▁젊은	-2923
▁거쳐	-2924
▁버튼	-2925
▁긍	-2926
협회	-2927
65	-2928
평가	-2929
인터	-2930
▁근로	-2931
:4	-2932
▁기계	-2933
▁만약	-2934
▁제목	-2935
심히	-2936
▁2013	-2937
영화	-2938
▁던	-2939
▁남아	-2940
▁끼	-2941
▁상호	-2942
▁겁	-2943
쳤다	-2944
받는	-2945
▁바다	-2946
▁시각	-2947
▁수는	-2948
.9	-2949
▁쓸	-2950
29	-2951
▁식품	-2952
▁잊	-2953
▁인공	-2954
▁채용	-2955
▁위에	-2956
ark	-2957
▁영양	-2958
▁세상	-2959
본부	-2960
▁포인트	-2961
OS	-2962
이블	-2963
제의	-2964
원으로	-2965
▁대화	-2966
%,	-2967
만에	-2968
▁축구	-2969
out	-2970
단을	-2971
▁시절	-2972
▁장애인	-2973
▁Wi	-2974
▁베이	-2975
▁서버	-2976
반기	-2977
▁실패	-2978
었는데	-2979
ra	-2980
▁삶을	-2981
당한	-2982
하였습니다	-2983
케이션	-2984
ob	-2985
만이	-2986
▁메이	-2987
AT	-2988
ov	-2989
공부	-2990
▁게시물	-2991
▁실험	-2992
▁카메라	-2993
▁다르	-2994
▁과정을	-2995
어드	-2996
예술	-2997
▁만들기	-2998
▁작가	-2999
▁없고	-3000
▁수업	-3001
▁하면서	-3002
▁졸업	-3003
▁마치	-3004
▁훌	-3005
저작권	-3006
▁근처	-3007
▁뒷	-3008
▁시대	-3009
▁빨리	-3010
님께	-3011
▁통해서	-3012
▁후에	-3013
mm	-3014
의회	-3015
▁벤	-3016
이의	-3017
▁건물	-3018
받은	-3019
▁사람을	-3020
▁※	-3021
▁까	-3022
위는	-3023
▁균	-3024
▁방식으로	-3025
금이	-3026
리오	-3027
-7	-3028
▁절대	-3029
▁밖	-3030
▁달성	-3031
▁강조했다	-3032
▁능력	-3033
▁를	-3034
▁스테	-3035
되면서	-3036
▁생각을	-3037
▁데이터를	-3038
이라도	-3039
▁혼자	-3040
▁사진을	-3041
▁코스	-3042
▁지키	-3043
장으로	-3044
▁롯데	-3045
▁구글	-3046
▁국민의	-3047
예요	-3048
답니다	-3049
▁봤	-3050
▁연속	-3051
훼손	-3052
위가	-3053
▁an	-3054
채팅	-3055
▁않으면	-3056
▁비디오	-3057
▁있으므로	-3058
질을	-3059
▁계산	-3060
▁돕	-3061
랐다	-3062
▁스크	-3063
공사	-3064
기준	-3065
멤버	-3066
▁위반	-3067
▁동의	-3068
··	-3069
아야	-3070
▁작동	-3071
스와	-3072
준다	-3073
하라	-3074
▁것과	-3075
▁보건	-3076
관광	-3077
▁실천	-3078
▁중에서	-3079
▁충분히	-3080
▁아프	-3081
▁백신	-3082
▁대표는	-3083
.7	-3084
ml	-3085
과정	-3086
ide	-3087
가입	-3088
▁센	-3089
▁보증	-3090
▁PD	-3091
▁허용	-3092
▁빅	-3093
▁찾는	-3094
▁매력	-3095
▁방지	-3096
able	-3097
▁즉시	-3098
▁나오는	-3099
▁미국의	-3100
▁한다고	-3101
ik	-3102
▁측정	-3103
▁있었습니다	-3104
위로	-3105
리티	-3106
림픽	-3107
▁명예	-3108
▁평화	-3109
가고	-3110
▁전해	-3111
▁점을	-3112
▁필요합니다	-3113
▁섹	-3114
같이	-3115
▁가르	-3116
로를	-3117
▁wh	-3118
티브	-3119
▁•	-3120
기사	-3121
▁때문입니다	-3122
▁민간	-3123
▁값	-3124
▁커뮤니티	-3125
▁좋아하는	-3126
럼프	-3127
가기	-3128
들로	-3129
년을	-3130
▁있으면	-3131
▁괴	-3132
▁《	-3133
교통	-3134
▁주고	-3135
▁지하	-3136
어는	-3137
▁자신을	-3138
▁그것을	-3139
▁유일	-3140
▁삭제	-3141
(3	-3142
셨습니다	-3143
도와	-3144
▁둘러	-3145
지요	-3146
▁의한	-3147
▁남편	-3148
▁500	-3149
▁변호	-3150
판매	-3151
▁모집	-3152
발전	-3153
▁발행	-3154
▁드라이	-3155
사랑	-3156
터리	-3157
▁목록	-3158
▁취업	-3159
년대	-3160
▁나이	-3161
▁포함한	-3162
__	-3163
개인	-3164
▁골프	-3165
▁체크인	-3166
▁질환	-3167
▁여기에	-3168
에만	-3169
▁그때	-3170
ee	-3171
어들	-3172
▁틀	-3173
▁도서	-3174
▁완전	-3175
▁모니터	-3176
▁뮤	-3177
▁헬	-3178
▁많다	-3179
율이	-3180
100	-3181
▁지속적으로	-3182
▁정확한	-3183
▁가을	-3184
▁○	-3185
▁방법은	-3186
▁이름을	-3187
▁표준	-3188
▁그래도	-3189
배송	-3190
이하	-3191
▁얻을	-3192
▁연합	-3193
사람	-3194
▁교회	-3195
▁소득	-3196
으면서	-3197
▁토론	-3198
고를	-3199
▁강력한	-3200
건설	-3201
려는	-3202
▁가능하다	-3203
EC	-3204
▁기준으로	-3205
▁어머니	-3206
지와	-3207
▁의무	-3208
시킬	-3209
노동	-3210
저는	-3211
프라	-3212
▁누구나	-3213
경영	-3214
되기	-3215
▁2012	-3216
-6	-3217
pp	-3218
▁범죄	-3219
란다	-3220
▁다니	-3221
▁차별	-3222
▁블록	-3223
▁있어야	-3224
▁매년	-3225
-20	-3226
▁아이템	-3227
▁대해서는	-3228
▁효과를	-3229
▁긍정	-3230
에게는	-3231
트는	-3232
저작권자	-3233
버전	-3234
▁지난달	-3235
▁환불	-3236
▁맨	-3237
▁있으니	-3238
▁완벽한	-3239
ews	-3240
▁나를	-3241
▁하게	-3242
.6	-3243
해진	-3244
▁300	-3245
▁열심히	-3246
교회	-3247
▁맞춰	-3248
▁인상	-3249
▁프리미	-3250
▁속에	-3251
재단	-3252
▁가상	-3253
금은	-3254
▁관계를	-3255
▁밥	-3256
▁획	-3257
씨가	-3258
코리아	-3259
▁주세요	-3260
du	-3261
식품	-3262
▁파트너	-3263
▁노출	-3264
▁기반으로	-3265
▁적이	-3266
▁도박	-3267
내고	-3268
ies	-3269
▁원래	-3270
▁부과	-3271
▁안전한	-3272
▁마스크	-3273
.8	-3274
재인	-3275
▁확진	-3276
▁못하는	-3277
▁지불	-3278
▁충전	-3279
▁국회	-3280
증권	-3281
이기도	-3282
▁문제는	-3283
▁파워	-3284
ost	-3285
▁똑	-3286
▁다이	-3287
end	-3288
▁90	-3289
건강	-3290
▁좋다	-3291
▁걷	-3292
▁유리	-3293
OR	-3294
릅니다	-3295
▁비롯한	-3296
▁운전	-3297
▁복잡	-3298
월부터	-3299
분기	-3300
▁풍부	-3301
▁마무리	-3302
',	-3303
업계	-3304
▁이익	-3305
▁클래	-3306
하의	-3307
▁중간	-3308
▁먹고	-3309
에선	-3310
이익	-3311
▁상황에서	-3312
▁번역	-3313
▁프랑스	-3314
▁직장	-3315
격을	-3316
▁최선을	-3317
▁덧붙	-3318
동물	-3319
▁리더	-3320
▁내년	-3321
▁펼쳐	-3322
▁정부가	-3323
치료	-3324
햇살론	-3325
▁유튜브	-3326
IC	-3327
▁핸	-3328
ile	-3329
중한	-3330
비가	-3331
▁your	-3332
▁문서	-3333
▁Th	-3334
▁02	-3335
▁미니	-3336
2019	-3337
for	-3338
▁항목	-3339
▁Z	-3340
▁한국의	-3341
▁구현	-3342
▁삶의	-3343
▁있음	-3344
▁복지	-3345
▁올바	-3346
▁부여	-3347
▁우승	-3348
▁조절	-3349
체의	-3350
테크	-3351
▁이유로	-3352
른다	-3353
▁동반	-3354
차를	-3355
▁드립니다	-3356
▁공정	-3357
▁쓴	-3358
AC	-3359
▁필요하다	-3360
셔야	-3361
▁그녀의	-3362
▁시작했다	-3363
▁강의	-3364
▁연출	-3365
▁강한	-3366
주를	-3367
▁꺼	-3368
▁있었던	-3369
부에	-3370
▁없다는	-3371
대회	-3372
▁같아요	-3373
ry	-3374
cc	-3375
IS	-3376
▁규정	-3377
스포츠	-3378
▁통증	-3379
▁보고서	-3380
ld	-3381
▁분들이	-3382
▁둔	-3383
피스	-3384
작용	-3385
▁검증	-3386
테고	-3387
트남	-3388
▁US	-3389
▁ex	-3390
▁상세	-3391
아웃	-3392
▁타고	-3393
IT	-3394
▁바카라	-3395
▁생명	-3396
하려는	-3397
▁고객센터	-3398
▁비트	-3399
비용	-3400
▁멤버	-3401
ell	-3402
▁공모	-3403
.(	-3404
▁자극	-3405
구나	-3406
▁연기	-3407
▁사이즈	-3408
▁떠나	-3409
국민	-3410
▁정부의	-3411
▁않도록	-3412
▁상황을	-3413
▁로그인	-3414
EN	-3415
▁자본	-3416
▁직업	-3417
▁해석	-3418
▁섭취	-3419
AS	-3420
ear	-3421
침해	-3422
▁나타나	-3423
였던	-3424
▁많아	-3425
이야	-3426
▁혐의	-3427
umps	-3428
▁바꾸	-3429
▁유용	-3430
중앙	-3431
▁슬롯	-3432
분석	-3433
▁새로	-3434
어로	-3435
▁작용	-3436
이사	-3437
▁유명한	-3438
▁앞에	-3439
▁제일	-3440
▁근거	-3441
▁가까운	-3442
다른	-3443
거든	-3444
▁점검	-3445
▁결합	-3446
소에	-3447
▁부문	-3448
화폐	-3449
▁깊은	-3450
ows	-3451
섰다	-3452
한테	-3453
체가	-3454
원과	-3455
▁흐름	-3456
면을	-3457
▁수밖에	-3458
ue	-3459
정도	-3460
▁크리스	-3461
▁주제	-3462
지방	-3463
▁참조	-3464
구조	-3465
졌습니다	-3466
리트	-3467
▁종교	-3468
▁의견을	-3469
국제	-3470
▁지원을	-3471
리적	-3472
▁불러	-3473
스토랑	-3474
이상	-3475
▁든	-3476
경을	-3477
▁재생	-3478
▁도구	-3479
▁뭔	-3480
입니까	-3481
▁페이스	-3482
▁that	-3483
▁정부는	-3484
▁없음	-3485
▁즐기	-3486
port	-3487
ff	-3488
ng	-3489
대상	-3490
▁블루	-3491
▁솔루션	-3492
▁점점	-3493
▁주시기	-3494
▁내용의	-3495
▁밑	-3496
▁사람들	-3497
▁$	-3498
▁말고	-3499
식으로	-3500
▁신속	-3501
▁환자	-3502
▁흥미	-3503
▁패션	-3504
▁근육	-3505
건을	-3506
▁특수	-3507
pt	-3508
/0	-3509
자동차	-3510
▁갖추	-3511
최신	-3512
▁자산	-3513
세가	-3514
▁손을	-3515
▁뉴욕	-3516
▁웹사이트	-3517
월에	-3518
시를	-3519
▁오늘은	-3520
▁제도	-3521
-8	-3522
체육	-3523
▁원칙	-3524
▁후원	-3525
5%	-3526
▁거주	-3527
▁그녀는	-3528
▁규제	-3529
시스	-3530
▁여기서	-3531
▁아이디어	-3532
▁짓	-3533
소가	-3534
▁잠시	-3535
33	-3536
회생	-3537
▁이번에	-3538
▁알게	-3539
▁의원은	-3540
자치	-3541
경찰	-3542
특별	-3543
▁개별	-3544
▁제휴	-3545
겼다	-3546
▁강원	-3547
▁com	-3548
▁그린	-3549
조합	-3550
▁효과가	-3551
oft	-3552
안에	-3553
의료	-3554
지기	-3555
.10	-3556
▁훌륭	-3557
▁동영상	-3558
신을	-3559
수로	-3560
▁사태	-3561
우고	-3562
eg	-3563
▁작업을	-3564
▁보이	-3565
▁이들은	-3566
▁회장	-3567
▁요리	-3568
▁지구	-3569
▁성인	-3570
▁덜	-3571
▁잇	-3572
▁새롭게	-3573
▁책을	-3574
2020	-3575
▁합의	-3576
▁알아보	-3577
▁거부	-3578
▁발생할	-3579
▁대책	-3580
▁비슷한	-3581
▁체계	-3582
▁렌	-3583
▁극복	-3584
▁유사	-3585
▁수수	-3586
▁나타났다	-3587
▁굳	-3588
▁트럼프	-3589
▁기울	-3590
▁유치	-3591
▁바뀌	-3592
▁취득	-3593
▁만들고	-3594
▁꽤	-3595
▁실내	-3596
력과	-3597
듯이	-3598
코로나	-3599
가족	-3600
님은	-3601
▁맞아	-3602
▁겸	-3603
지게	-3604
▁발달	-3605
▁키워	-3606
▁상품을	-3607
유의	-3608
▁선발	-3609
▁대통령은	-3610
▁접수	-3611
▁■	-3612
율을	-3613
▁프로세	-3614
라우드	-3615
▁수사	-3616
▁침대	-3617
▁SNS	-3618
▁국립	-3619
▁2010	-3620
있게	-3621
▁해주	-3622
opy	-3623
ES	-3624
행을	-3625
▁)	-3626
▁장비	-3627
▁비롯해	-3628
▁중이다	-3629
▁병원	-3630
▁사람들에게	-3631
▁꼬	-3632
▁처음으로	-3633
▁올려	-3634
았던	-3635
▁종료	-3636
▁왔다	-3637
▁사람들의	-3638
선거	-3639
▁접속	-3640
▁건강한	-3641
처리	-3642
▁마음이	-3643
인들이	-3644
▁분쟁	-3645
ord	-3646
▁모두가	-3647
▁지역의	-3648
년까지	-3649
▁휘	-3650
ork	-3651
▁주인공	-3652
▁좋을	-3653
▁확정	-3654
▁때까지	-3655
▁길을	-3656
ire	-3657
공간	-3658
▁위협	-3659
▁짜	-3660
▁마음에	-3661
시키고	-3662
ite	-3663
항공	-3664
위의	-3665
재를	-3666
▁r	-3667
▁철저	-3668
▁싶다	-3669
학적	-3670
치지	-3671
▁먹는	-3672
▁배치	-3673
▁이론	-3674
▁어떠	-3675
▁차이가	-3676
전화	-3677
▁주말	-3678
▁흑	-3679
지면	-3680
▁공항	-3681
▁말한다	-3682
▁레스토랑	-3683
▁qu	-3684
▁듣고	-3685
▁도로	-3686
▁밖에	-3687
아시아	-3688
물은	-3689
기능	-3690
44	-3691
▁원인	-3692
▁상당히	-3693
리며	-3694
▁2000	-3695
▁소리	-3696
▁월드	-3697
▁사이에	-3698
▁완화	-3699
시킨	-3700
주가	-3701
웠다	-3702
▁얘기	-3703
도서	-3704
▁무선	-3705
일리	-3706
▁간편	-3707
가락	-3708
----------------	-3709
)'	-3710
점에	-3711
▁민주당	-3712
봅니다	-3713
▁us	-3714
▁앨	-3715
▁농업	-3716
버스	-3717
▁저렴한	-3718
률이	-3719
▁재료	-3720
하겠습니다	-3721
진을	-3722
▁결론	-3723
55	-3724
지능	-3725
▁이탈	-3726
▁미술	-3727
▁it	-3728
ID	-3729
▁펀	-3730
▁깨끗	-3731
▁특성	-3732
실에서	-3733
▁기도	-3734
타민	-3735
▁스위	-3736
시다	-3737
▁꾸준히	-3738
시민	-3739
▁현금	-3740
.12	-3741
▁의혹	-3742
▁태양	-3743
금액	-3744
▁실현	-3745
ere	-3746
▁가치를	-3747
운드	-3748
▁척	-3749
▁시스템을	-3750
▁아내	-3751
▁꼽	-3752
타임	-3753
등급	-3754
▁멈	-3755
년이	-3756
수도	-3757
결과	-3758
타이	-3759
조선	-3760
▁장치	-3761
▁쏟	-3762
류를	-3763
▁갑자기	-3764
▁누군	-3765
99	-3766
?”	-3767
사용	-3768
▁받으	-3769
▁아닐	-3770
▁발생하는	-3771
▁텍	-3772
함이	-3773
▁바닥	-3774
▁하겠습니다	-3775
상으로	-3776
민주당	-3777
▁탁	-3778
님을	-3779
▁다이어	-3780
▁중요합니다	-3781
▁인근	-3782
해를	-3783
받고	-3784
▁걸쳐	-3785
▁카테고	-3786
관련	-3787
▁묘	-3788
▁연계	-3789
▁토토	-3790
▁불과	-3791
음이	-3792
이에요	-3793
▁생각합니다	-3794
▁들고	-3795
▁기업의	-3796
길을	-3797
▁차단	-3798
▁지금은	-3799
움이	-3800
▁그들이	-3801
종의	-3802
▁십	-3803
명은	-3804
▁전투	-3805
▁고정	-3806
2018	-3807
공원	-3808
▁선호	-3809
▁테이블	-3810
데요	-3811
▁트렌	-3812
▁구독	-3813
하니	-3814
진이	-3815
▁보세요	-3816
▁종종	-3817
▁에서	-3818
▁pre	-3819
ult	-3820
이용	-3821
▁베트남	-3822
▁1)	-3823
▁윈	-3824
▁자동으로	-3825
▁분양	-3826
트가	-3827
▁프레	-3828
전거	-3829
정으로	-3830
▁All	-3831
나다	-3832
▁보였다	-3833
관의	-3834
▁만남	-3835
▁소설	-3836
▁동일한	-3837
▁이슈	-3838
파크	-3839
시가	-3840
형을	-3841
▁느낄	-3842
indows	-3843
▁`	-3844
일까	-3845
▁슈퍼	-3846
▁오프	-3847
일은	-3848
▁싫	-3849
받을	-3850
안내	-3851
▁생태	-3852
▁재판	-3853
하려고	-3854
▁했던	-3855
▁머리	-3856
35	-3857
▁%	-3858
▁밝혀	-3859
EO	-3860
조차	-3861
▁시장의	-3862
사에서	-3863
▁창출	-3864
▁번호	-3865
▁구분	-3866
▁방역	-3867
ory	-3868
▁상황에	-3869
▁2011	-3870
▁누가	-3871
▁이웃	-3872
▁인물	-3873
에요	-3874
▁상황이	-3875
▁최대한	-3876
점으로	-3877
왼쪽	-3878
▁달려	-3879
▁숫	-3880
ase	-3881
문에	-3882
▁안심	-3883
▁챙	-3884
제도	-3885
▁(0)||	-3886
▁빠져	-3887
▁짐	-3888
estions	-3889
31	-3890
▁적절한	-3891
▁조치	-3892
▁노트	-3893
kg	-3894
▁뽑	-3895
▁갈등	-3896
명으로	-3897
▁차례	-3898
부모	-3899
▁아이폰	-3900
▁보조	-3901
지면서	-3902
▁포장	-3903
▁자료를	-3904
▁의심	-3905
하우	-3906
▁35	-3907
선이	-3908
▁at	-3909
▁겁니다	-3910
▁아는	-3911
IP	-3912
▁바란다	-3913
주민	-3914
net	-3915
분의	-3916
▁굴	-3917
ree	-3918
▁어울	-3919
▁패키	-3920
님께서	-3921
▁모습이	-3922
히는	-3923
단이	-3924
체인	-3925
데이터	-3926
▁몸을	-3927
▁마이크	-3928
었지만	-3929
▁물질	-3930
▁여유	-3931
▁앞두고	-3932
명한	-3933
▁건조	-3934
▁소식	-3935
계약	-3936
트의	-3937
▁친환경	-3938
io	-3939
▁굉	-3940
▁재정	-3941
▁남북	-3942
분야	-3943
opyright	-3944
▁외국인	-3945
▁따로	-3946
▁연예	-3947
스테	-3948
▁바이러스	-3949
45	-3950
니어	-3951
▁주도	-3952
TS	-3953
스러	-3954
화에	-3955
샘플	-3956
단은	-3957
▁일반적인	-3958
▁민족	-3959
▁Com	-3960
▁나왔	-3961
대행	-3962
▁혈액	-3963
▁외에도	-3964
▁이들	-3965
학을	-3966
▁대통령이	-3967
▁발생한	-3968
단에	-3969
운영	-3970
▁향해	-3971
▁세부	-3972
int	-3973
▁임대	-3974
▁성격	-3975
▁런	-3976
종합	-3977
▁생각한다	-3978
▁힘든	-3979
구는	-3980
▁위로	-3981
lic	-3982
AM	-3983
▁프리미엄	-3984
▁명령	-3985
▁유발	-3986
▁쓰는	-3987
▁차이	-3988
▁따뜻한	-3989
▁중소기업	-3990
ros	-3991
▁Tr	-3992
iew	-3993
▁액세	-3994
▁권장	-3995
77	-3996
▁인수	-3997
▁기회	-3998
▁눈을	-3999
OM	-4000
▁배출	-4001
▁이외	-4002
파이	-4003
▁제품은	-4004
▁저작권침해	-4005
▁변화를	-4006
▁사과	-4007
ign	-4008
▁권한	-4009
▁끝나	-4010
▁세포	-4011
▁응답	-4012
▁무엇보다	-4013
모델	-4014
▁그를	-4015
도체	-4016
▁자리를	-4017
▁기부	-4018
▁출처	-4019
▁단지	-4020
▁쉬운	-4021
▁나머	-4022
.11	-4023
독교	-4024
▁주제로	-4025
▁멋진	-4026
▁앞에서	-4027
▁이제는	-4028
▁했는데	-4029
▁포기	-4030
▁굉장	-4031
▁사랑을	-4032
▁res	-4033
▁적극적으로	-4034
품질	-4035
▁연습	-4036
지난	-4037
▁작년	-4038
▁유아	-4039
▁비행	-4040
▁야외	-4041
세기	-4042
▁다루	-4043
▁법적	-4044
리스트	-4045
▁텐	-4046
▁힐	-4047
▁쌍	-4048
가와	-4049
▁미세	-4050
.05	-4051
▁약간	-4052
.09	-4053
▁갖춘	-4054
▁국회의	-4055
▁채팅	-4056
▁못했다	-4057
▁때마다	-4058
▁옛	-4059
▁II	-4060
▁발언	-4061
▁분리	-4062
▁문재인	-4063
▁아니면	-4064
인데요	-4065
▁발급	-4066
▁con	-4067
▁내에	-4068
OP	-4069
▁규칙	-4070
▁대답	-4071
▁끌어	-4072
▁메모	-4073
▁대회	-4074
▁배포	-4075
▁먹을	-4076
▁있음을	-4077
소는	-4078
포트	-4079
▁독특	-4080
기기	-4081
진흥	-4082
법에	-4083
▁포함되어	-4084
▁방법으로	-4085
▁공감	-4086
-19	-4087
▁쿠폰	-4088
▁덕분에	-4089
부산	-4090
▁패턴	-4091
▁인간의	-4092
스티	-4093
▁방침	-4094
▁놓고	-4095
하이	-4096
▁증거	-4097
럭시	-4098
▁명확	-4099
▁봉사	-4100
▁페이스북	-4101
▁2,	-4102
▁발굴	-4103
법인	-4104
▁마이	-4105
▁응용	-4106
▁통하여	-4107
AI	-4108
?"	-4109
▁벨	-4110
▁목적으로	-4111
ater	-4112
▁다소	-4113
터를	-4114
▁반품	-4115
무를	-4116
▁엑	-4117
▁6.	-4118
전략	-4119
▁교체	-4120
▁것이라는	-4121
표를	-4122
▁시작한	-4123
▁평소	-4124
▁예비	-4125
▁갔	-4126
▁혜택을	-4127
ans	-4128
지어	-4129
▁Sh	-4130
▁노인	-4131
▁수원	-4132
▁다녀	-4133
▁임신	-4134
ie	-4135
▁곳에	-4136
▁그것이	-4137
▁덧붙였다	-4138
국이	-4139
▁없다고	-4140
▁취약	-4141
▁울산	-4142
▁비타민	-4143
▁내에서	-4144
▁아쉬	-4145
▁최초로	-4146
역을	-4147
ied	-4148
베이	-4149
▁살고	-4150
공항	-4151
진은	-4152
▁류	-4153
드에	-4154
▁파이	-4155
안이	-4156
▁이재	-4157
면에	-4158
화의	-4159
었을	-4160
▁짧은	-4161
▁사람들을	-4162
.04	-4163
코스	-4164
▁복용	-4165
면서도	-4166
▁생각하는	-4167
비는	-4168
시켰	-4169
▁로봇	-4170
▁뷰	-4171
▁어플	-4172
▁상징	-4173
.07	-4174
▁^^	-4175
▁가격이	-4176
시의	-4177
▁선언	-4178
▁맞이	-4179
.03	-4180
▁했지만	-4181
▁집에	-4182
▁냄	-4183
▁일은	-4184
▁as	-4185
▁형태로	-4186
ace	-4187
▁Cl	-4188
▁관람	-4189
▁간단한	-4190
▁넘는	-4191
▁말하는	-4192
보자	-4193
▁두려	-4194
목을	-4195
구에	-4196
▁KT	-4197
▁자원	-4198
▁성경	-4199
▁WiFi	-4200
자격	-4201
거든요	-4202
그레이	-4203
▁곳이	-4204
▁PDF	-4205
▁청와	-4206
▁can	-4207
▁투입	-4208
놓고	-4209
▁수립	-4210
물관	-4211
▁from	-4212
▁제공됩니다	-4213
▁트립	-4214
▁방법이	-4215
ave	-4216
▁자율	-4217
용품	-4218
▁부탁드립니다	-4219
▁198	-4220
▁벗어나	-4221
.08	-4222
▁않게	-4223
▁책임을	-4224
▁본인	-4225
국은	-4226
업소	-4227
금지	-4228
.06	-4229
▁외교	-4230
und	-4231
▁무엇을	-4232
일본	-4233
토토	-4234
▁수용	-4235
na	-4236
-01	-4237
▁상처	-4238
선의	-4239
▁환영	-4240
미디어	-4241
▁별도	-4242
▁통화	-4243
▁세탁	-4244
▁부분이	-4245
자들에게	-4246
자산	-4247
상공	-4248
▁곤	-4249
리학	-4250
▁잠재	-4251
혁명	-4252
▁가서	-4253
학년	-4254
▁적은	-4255
▁j	-4256
ime	-4257
▁노력을	-4258
ge	-4259
▁주관	-4260
ress	-4261
포인트	-4262
들어	-4263
▁뛰어난	-4264
(1	-4265
▁연장	-4266
▁사유	-4267
per	-4268
▁상상	-4269
어드바이	-4270
친구	-4271
시대	-4272
▁09	-4273
▁아울	-4274
▁맛집	-4275
▁이용한	-4276
2021	-4277
▁호흡	-4278
력의	-4279
▁가이드	-4280
출장만남	-4281
▁잡아	-4282
▁대규모	-4283
▁심각한	-4284
▁ch	-4285
▁이때	-4286
▁숲	-4287
권의	-4288
▁집에서	-4289
주로	-4290
인가요	-4291
▁Exam	-4292
-12	-4293
rou	-4294
▁2)	-4295
▁늘어	-4296
▁모여	-4297
▁널	-4298
▁시장에	-4299
▁환경을	-4300
▁메인	-4301
ence	-4302
▁비중	-4303
▁목표로	-4304
▁he	-4305
▁통계	-4306
▁만난	-4307
▁소셜	-4308
▁스트레	-4309
키는	-4310
자금	-4311
부와	-4312
예약	-4313
가에	-4314
남도	-4315
▁현황	-4316
ck	-4317
▁식당	-4318
▁가게	-4319
▁통일	-4320
▁플레이어	-4321
▁IP	-4322
▁평생	-4323
하시기	-4324
▁대표적인	-4325
▁까지	-4326
▁맞추	-4327
▁마감	-4328
▁지배	-4329
▁기후	-4330
▁고객이	-4331
▁기존의	-4332
드릴	-4333
했어요	-4334
율은	-4335
▁띄	-4336
▁내용이	-4337
▁않으	-4338
▁대기	-4339
▁세상을	-4340
▁알려졌다	-4341
▁굉장히	-4342
인터넷	-4343
▁Windows	-4344
▁융	-4345
▁캡	-4346
력은	-4347
▁과연	-4348
것도	-4349
▁신호	-4350
▁or	-4351
제한	-4352
▁마지막으로	-4353
질환	-4354
▁합격	-4355
▁무역	-4356
▁스피	-4357
▁받지	-4358
▁모르는	-4359
▁준수	-4360
도우	-4361
▁2009	-4362
▁드리	-4363
▁하나로	-4364
▁교수는	-4365
▁교육을	-4366
▁능력을	-4367
▁혹시	-4368
대책	-4369
▁임상	-4370
erved	-4371
▁깔끔	-4372
▁신선	-4373
▁2008	-4374
▁our	-4375
▁남겨	-4376
▁전송	-4377
▁늘어나	-4378
▁le	-4379
호텔	-4380
▁식물	-4381
▁보수	-4382
에너지	-4383
▁자전거	-4384
▁스페	-4385
▁승리	-4386
량의	-4387
▁Copyright	-4388
▁나왔다	-4389
▁상관	-4390
문학	-4391
▁며	-4392
군의	-4393
▁안에서	-4394
gle	-4395
.01	-4396
▁샌	-4397
▁등급	-4398
ian	-4399
간다	-4400
▁시원	-4401
▁유니	-4402
▁클라우드	-4403
▁주거	-4404
▁하실	-4405
▁획득	-4406
전이	-4407
확인	-4408
▁긴급	-4409
▁단순히	-4410
!!!	-4411
▁관련해	-4412
▁시장에서	-4413
▁경우는	-4414
금리	-4415
▁알려져	-4416
▁모아	-4417
▁좋아요	-4418
▁장면	-4419
▁일어	-4420
▁어려움을	-4421
▁점이	-4422
ertif	-4423
▁유저	-4424
▁코드	-4425
▁계획을	-4426
▁우수한	-4427
방을	-4428
트리	-4429
들께	-4430
▁물을	-4431
2017	-4432
▁협의	-4433
▁아니고	-4434
▁파일을	-4435
▁사항은	-4436
북도	-4437
▁탄생	-4438
▁sit	-4439
▁이미지를	-4440
▁지원하는	-4441
AD	-4442
▁사용하고	-4443
▁신문	-4444
▁AP	-4445
’(	-4446
▁1000	-4447
▁x	-4448
▁승인	-4449
사무	-4450
▁이것이	-4451
▁스타트	-4452
▁어깨	-4453
▁우주	-4454
▁회사는	-4455
▁제어	-4456
▁규모의	-4457
▁면역	-4458
.02	-4459
▁클럽	-4460
▁보여주	-4461
▁청구	-4462
▁미치는	-4463
▁전년	-4464
자원	-4465
비아	-4466
▁수준의	-4467
▁소화	-4468
량은	-4469
▁어떠한	-4470
▁애니	-4471
텔레	-4472
▁경우에	-4473
ET	-4474
다니	-4475
-11	-4476
펙트	-4477
▁전공	-4478
하셨	-4479
▁(1	-4480
▁있을까	-4481
되어야	-4482
▁벌어	-4483
▁담아	-4484
▁간의	-4485
):	-4486
▁Ad	-4487
계의	-4488
▁무게	-4489
▁오류	-4490
▁의미를	-4491
러리	-4492
▁쏟아	-4493
ated	-4494
duct	-4495
▁창조	-4496
▁초대	-4497
▁해소	-4498
▁나갈	-4499
▁화려	-4500
▁군사	-4501
▁데뷔	-4502
▁나아가	-4503
▁저도	-4504
게요	-4505
▁알려진	-4506
률을	-4507
보건	-4508
lay	-4509
프레	-4510
▁담은	-4511
▁세종	-4512
▁증권	-4513
보장	-4514
▁관객	-4515
▁인공지능	-4516
▁포토	-4517
▁쓰고	-4518
▁심사	-4519
바로	-4520
▁사용하면	-4521
▁트립어드바이	-4522
국가	-4523
▁에이	-4524
르지	-4525
▁나선	-4526
▁00	-4527
▁셔	-4528
▁롤	-4529
약품	-4530
▁싶어	-4531
▁Qu	-4532
▁부분을	-4533
ood	-4534
▁묵	-4535
▁이용하여	-4536
;;	-4537
산물	-4538
▁찾고	-4539
스에서	-4540
▁선택할	-4541
ey	-4542
▁트레이	-4543
서가	-4544
년의	-4545
로우	-4546
오피	-4547
▁점에서	-4548
▁피해를	-4549
▁뛰어	-4550
문이	-4551
▁소요	-4552
회담	-4553
▁충족	-4554
▁인기를	-4555
ach	-4556
▁진실	-4557
▁그러한	-4558
보드	-4559
연구소	-4560
▁이용하실	-4561
▁유기	-4562
어버	-4563
함에	-4564
2,	-4565
ef	-4566
▁훌륭한	-4567
연을	-4568
웨이	-4569
▁보상	-4570
▁즐거	-4571
보를	-4572
▁포스팅	-4573
▁날짜	-4574
▁밴	-4575
시티	-4576
▁곳에서	-4577
향을	-4578
▁청소	-4579
▁남은	-4580
▁휴가	-4581
까지는	-4582
▁마련되어	-4583
▁있는데요	-4584
▁중복	-4585
었어요	-4586
▁높이	-4587
▁아울러	-4588
직원	-4589
군은	-4590
▁길이	-4591
오늘	-4592
화와	-4593
▁분야에서	-4594
▁오늘날	-4595
▁명이	-4596
▁Mic	-4597
▁Sp	-4598
봉사	-4599
▁보이고	-4600
form	-4601
AL	-4602
▁시기	-4603
협력	-4604
▁이스	-4605
시피	-4606
▁접종	-4607
식의	-4608
▁디스	-4609
나가	-4610
63	-4611
▁열고	-4612
케어	-4613
▁넣어	-4614
▁고개를	-4615
▁인지	-4616
▁넷	-4617
식은	-4618
▁트위	-4619
▁오른쪽	-4620
▁행복한	-4621
프로그램	-4622
▁하드	-4623
▁출판	-4624
▁낭	-4625
▁하나는	-4626
▁ᄒᄒ	-4627
인으로	-4628
▁추정	-4629
당이	-4630
리케이션	-4631
▁인권	-4632
대구	-4633
상태	-4634
sh	-4635
▁치료를	-4636
▁열어	-4637
▁마찬가지로	-4638
▁비상	-4639
더라구요	-4640
▁관절	-4641
▁지속적인	-4642
▁투표	-4643
▁방안	-4644
-09	-4645
▁활발	-4646
▁조작	-4647
내기	-4648
▁제품의	-4649
........	-4650
▁33	-4651
▁국토	-4652
직한	-4653
받아	-4654
▁여행을	-4655
▁왼쪽	-4656
일로	-4657
▁비밀번호	-4658
▁아무리	-4659
▁귀하의	-4660
▁이유가	-4661
하면서도	-4662
▁목사	-4663
▁홍콩	-4664
▁장관	-4665
센터를	-4666
미터	-4667
▁일자리	-4668
▁집단	-4669
디아	-4670
▁반려	-4671
▁앨범	-4672
emap	-4673
▁케이블	-4674
▁인스타	-4675
관에서	-4676
48	-4677
▁테마	-4678
▁화재	-4679
▁조언	-4680
▁복합	-4681
▁공무원	-4682
최고	-4683
▁종류의	-4684
현지	-4685
▁쌀	-4686
편집	-4687
책임	-4688
하시고	-4689
▁덮	-4690
▁보이지	-4691
▁●	-4692
여성	-4693
oogle	-4694
자들을	-4695
▁나온다	-4696
▁털	-4697
▁핫	-4698
▁중국의	-4699
차가	-4700
공동	-4701
▁엄청난	-4702
▁자금	-4703
ok	-4704
▁등은	-4705
▁올리	-4706
▁맞춤형	-4707
▁추구	-4708
75	-4709
▁음식을	-4710
▁펜	-4711
신이	-4712
▁전개	-4713
▁맞게	-4714
▁핸드	-4715
▁적립	-4716
▁입을	-4717
PC	-4718
상과	-4719
ical	-4720
▁배터리	-4721
▁칠	-4722
행정	-4723
▁물어	-4724
한의	-4725
▁하시	-4726
해주는	-4727
신고	-4728
▁시간에	-4729
부장	-4730
▁45	-4731
▁파티	-4732
▁별도의	-4733
▁sitemap	-4734
▁눌	-4735
적이다	-4736
▁기회가	-4737
▁워크	-4738
▁쉽지	-4739
계가	-4740
▁문을	-4741
▁애완	-4742
▁창의	-4743
▁감정	-4744
▁소녀	-4745
대전	-4746
지에서	-4747
▁있나요	-4748
MS	-4749
▁인프라	-4750
▁그려	-4751
▁해양	-4752
▁호텔을	-4753
▁대변	-4754
▁만한	-4755
향이	-4756
▁콘텐츠를	-4757
▁갤럭시	-4758
▁그렇다면	-4759
▁파괴	-4760
▁크기	-4761
▁가까이	-4762
▁들었다	-4763
▁앤	-4764
질이	-4765
▁나올	-4766
▁초과	-4767
?)	-4768
▁소방	-4769
▁소송	-4770
▁가치가	-4771
▁관찰	-4772
▁운영하는	-4773
▁입고	-4774
▁이탈리아	-4775
년생	-4776
▁전부	-4777
66	-4778
▁자체가	-4779
라서	-4780
▁일본의	-4781
▁감각	-4782
▁브라우	-4783
▁수영장	-4784
rosoft	-4785
▁별로	-4786
▁흔들	-4787
PG	-4788
▁동기	-4789
▁위기	-4790
▁추가로	-4791
af	-4792
▁아들	-4793
▁Exp	-4794
위원장	-4795
▁축하	-4796
브리	-4797
제공	-4798
▁한글	-4799
PS	-4800
▁그렇지	-4801
▁캐나다	-4802
▁재산	-4803
▁풀어	-4804
성장	-4805
▁등록된	-4806
▁지연	-4807
▁사항을	-4808
▁기독교	-4809
(5	-4810
▁셈	-4811
▁생긴	-4812
▁Ar	-4813
▁실질	-4814
▁면접	-4815
가스	-4816
자들	-4817
▁You	-4818
▁엉	-4819
OU	-4820
▁발표했다	-4821
▁딜	-4822
ary	-4823
▁동료	-4824
49	-4825
▁바이오	-4826
▁어디서	-4827
▁트립어드바이저는	-4828
신의	-4829
대에서	-4830
▁진입	-4831
▁시작으로	-4832
▁기능이	-4833
▁전력	-4834
~3	-4835
스턴	-4836
-05	-4837
▁국방	-4838
▁대처	-4839
▁그에	-4840
-03	-4841
▁집행	-4842
ech	-4843
을까	-4844
코인	-4845
사이	-4846
▁수강	-4847
활동을	-4848
▁낸	-4849
▁그게	-4850
▁칭	-4851
▁가격은	-4852
일의	-4853
▁힘이	-4854
신용	-4855
테인	-4856
감독	-4857
▁대선	-4858
▁공지	-4859
미국	-4860
▁천연	-4861
▁제공한다	-4862
서에	-4863
▁익숙	-4864
▁나머지	-4865
▁팁	-4866
▁휴대폰	-4867
▁판결	-4868
-08	-4869
▁입장을	-4870
▁하였다	-4871
CC	-4872
이니	-4873
otel	-4874
소의	-4875
▁리그	-4876
▁32	-4877
▁거짓	-4878
▁냉장	-4879
▁임시	-4880
▁느낌이	-4881
▁독특한	-4882
▁문자	-4883
결제	-4884
EL	-4885
-9	-4886
ale	-4887
만으로	-4888
▁확실히	-4889
▁이른	-4890
마켓	-4891
판을	-4892
▁공간을	-4893
▁정도의	-4894
▁한정	-4895
▁구성된	-4896
구매	-4897
관에	-4898
▁흰	-4899
▁동작	-4900
▁경우도	-4901
▁호주	-4902
▁중고	-4903
▁나은	-4904
▁활용한	-4905
▁반도체	-4906
▁국정	-4907
▁스파	-4908
▁이로	-4909
▁사장	-4910
▁라이프	-4911
겠죠	-4912
▁찾기	-4913
▁읽어	-4914
▁경남	-4915
조를	-4916
,,	-4917
▁장점	-4918
▁떠올	-4919
▁매월	-4920
ance	-4921
▁언제나	-4922
▁김영	-4923
▁아빠	-4924
▁버튼을	-4925
리게	-4926
▁조용	-4927
▁주최	-4928
증이	-4929
▁분들은	-4930
라엘	-4931
▁배달	-4932
68	-4933
-04	-4934
회원	-4935
▁손상	-4936
▁사용자가	-4937
서의	-4938
▁들여	-4939
▁등과	-4940
▁앞으로도	-4941
▁시장은	-4942
▁회장은	-4943
▁넓은	-4944
▁전면	-4945
▁뜨거운	-4946
렸습니다	-4947
화로	-4948
▁will	-4949
▁기록했다	-4950
▁말했습니다	-4951
▁제공할	-4952
▁성과를	-4953
▁생각해	-4954
고기	-4955
고는	-4956
▁생존	-4957
▁무시	-4958
기지	-4959
있습니다	-4960
▁분위기	-4961
▁좁	-4962
▁양성	-4963
▁증명	-4964
어플	-4965
▁Res	-4966
납니다	-4967
▁이게	-4968
▁고객의	-4969
-02	-4970
▁약물	-4971
3)	-4972
▁말에	-4973
치의	-4974
▁화학	-4975
세포	-4976
▁내놓	-4977
▁단백	-4978
말로	-4979
요금	-4980
설팅	-4981
▁둘째	-4982
▁핀	-4983
카이	-4984
▁투어	-4985
▁올바른	-4986
▁조각	-4987
▁변동	-4988
▁충격	-4989
▁구속	-4990
▁발송	-4991
▁말이다	-4992
▁최소화	-4993
▁단독	-4994
▁al	-4995
▁끊임	-4996
▁부품	-4997
▁행위	-4998
▁가로	-4999
▁붉	-5000
▁계좌	-5001
▁팩	-5002
▁탑재	-5003
▁못할	-5004
효과	-5005
html	-5006
▁있습니까	-5007
▁not	-5008
▁즐거운	-5009
▁사실상	-5010
화는	-5011
▁영상을	-5012
▁안타	-5013
중국	-5014
▁라는	-5015
년에는	-5016
▁수백	-5017
▁한국경제	-5018
▁멀티	-5019
▁즐겨	-5020
▁경북	-5021
작성	-5022
로의	-5023
▁걸어	-5024
▁추억	-5025
인들의	-5026
az	-5027
-07	-5028
▁쾌	-5029
일간	-5030
▁심지어	-5031
미나	-5032
▁정당	-5033
▁연간	-5034
▁측은	-5035
패스	-5036
기구	-5037
▁선도	-5038
리라	-5039
▁장착	-5040
▁sh	-5041
▁한반	-5042
와는	-5043
▁그럴	-5044
tr	-5045
▁개봉	-5046
▁게이	-5047
▁기분	-5048
기획	-5049
공개	-5050
▁룸	-5051
▁앉아	-5052
▁여러분의	-5053
▁가볍	-5054
카페	-5055
내가	-5056
▁대통령의	-5057
▁야구	-5058
▁조심	-5059
▁충분한	-5060
▁풍부한	-5061
▁음료	-5062
체험	-5063
▁섞	-5064
▁셋	-5065
▁통제	-5066
▁전북	-5067
대화	-5068
▁적합한	-5069
▁지침	-5070
▁36	-5071
▁사랑하는	-5072
▁당연히	-5073
▁아버지	-5074
▁거듭	-5075
▁꼼	-5076
ish	-5077
▁많습니다	-5078
own	-5079
진의	-5080
건축	-5081
통합	-5082
▁회사의	-5083
US	-5084
▁모임	-5085
해보세요	-5086
▁일시	-5087
▁나눔	-5088
▁항공편	-5089
오고	-5090
▁방안을	-5091
▁부작용	-5092
학습	-5093
듭니다	-5094
▁개설	-5095
▁날씨	-5096
▁처벌	-5097
▁종목	-5098
어져	-5099
▁선사	-5100
▁폭발	-5101
▁스페셜	-5102
▁평가를	-5103
▁tr	-5104
▁지역에	-5105
▁인구	-5106
▁인테	-5107
▁튀	-5108
▁입금	-5109
권이	-5110
배를	-5111
▁사상	-5112
▁포트	-5113
튜디오	-5114
▁사용되는	-5115
드려	-5116
▁돌려	-5117
더라고	-5118
▁비대	-5119
▁등에서	-5120
검사	-5121
▁너무나	-5122
▁그러면	-5123
▁당사	-5124
▁보너	-5125
▁열리는	-5126
▁가수	-5127
▁대단	-5128
▁분야의	-5129
소한	-5130
▁그러면서	-5131
▁오랫	-5132
▁절반	-5133
▁법무	-5134
▁깊이	-5135
▁끝에	-5136
-06	-5137
▁셀프	-5138
▁유도	-5139
▁라고	-5140
다리	-5141
▁진정한	-5142
▁시장을	-5143
건의	-5144
주소	-5145
상황	-5146
▁Un	-5147
청소년	-5148
심이	-5149
▁세트	-5150
▁말할	-5151
▁대로	-5152
▁전주	-5153
요소	-5154
▁공기	-5155
▁나중에	-5156
▁다행	-5157
히고	-5158
목록	-5159
▁KB	-5160
영업	-5161
이미	-5162
▁선교	-5163
억원을	-5164
가로	-5165
구역	-5166
▁관광객	-5167
것이	-5168
1,	-5169
▁바로가기	-5170
자이너	-5171
▁이건	-5172
▁미래를	-5173
현대	-5174
▁범위	-5175
▁스타트업	-5176
연구원	-5177
79	-5178
군이	-5179
▁Kore	-5180
생을	-5181
▁맛있는	-5182
동의	-5183
함과	-5184
▁곳곳	-5185
▁사용해	-5186
▁38	-5187
지며	-5188
드와	-5189
▁새벽	-5190
▁2007	-5191
크라	-5192
****	-5193
▁특허	-5194
IA	-5195
간에	-5196
았고	-5197
▁않았습니다	-5198
▁유의	-5199
▁◆	-5200
▁꿈을	-5201
▁침해	-5202
▁작품을	-5203
린이	-5204
바카라	-5205
▁가능성을	-5206
하겠다는	-5207
▁점은	-5208
▁조치를	-5209
▁것인가	-5210
▁단일	-5211
림을	-5212
▁있었고	-5213
지구	-5214
ens	-5215
▁해요	-5216
▁화이트	-5217
석을	-5218
▁ᆞ	-5219
▁경제적	-5220
▁응원	-5221
▁연령	-5222
64	-5223
▁we	-5224
▁경고	-5225
당은	-5226
▁서류	-5227
▁기업이	-5228
ri	-5229
소에서	-5230
▁본다	-5231
하기에	-5232
▁연락처	-5233
▁그저	-5234
▁성분	-5235
ox	-5236
르신	-5237
log	-5238
▁보험료	-5239
▁이달	-5240
▁중요하다	-5241
▁냄새	-5242
오프	-5243
▁더불어민주당	-5244
▁축제	-5245
▁실적	-5246
▁이들이	-5247
▁적극적인	-5248
▁감상	-5249
▁An	-5250
▁썼	-5251
▁그만큼	-5252
▁않지만	-5253
실에	-5254
▁살짝	-5255
▁사이트를	-5256
▁마주	-5257
▁다르게	-5258
▁성장을	-5259
▁안전하게	-5260
▁정규	-5261
▁재무	-5262
리즘	-5263
하여야	-5264
▁재활	-5265
▁쇼핑몰	-5266
전의	-5267
▁가구	-5268
========	-5269
▁챔	-5270
▁꿀	-5271
▁가능성	-5272
▁너희	-5273
드리겠습니다	-5274
▁신발	-5275
▁그래픽	-5276
▁버스	-5277
적으로는	-5278
▁원활	-5279
▁프로모	-5280
▁게다가	-5281
▁150	-5282
라스틱	-5283
그러	-5284
▁정체	-5285
▁고속	-5286
▁촉진	-5287
▁떠오	-5288
▁사업자	-5289
▁함유	-5290
식에	-5291
할수	-5292
2022	-5293
ual	-5294
쪽으로	-5295
더군요	-5296
▁좋지	-5297
ph	-5298
▁없지만	-5299
▁채택	-5300
제작	-5301
▁적응	-5302
▁발표한	-5303
▁주장했다	-5304
▁모니터링	-5305
시즌	-5306
▁상대로	-5307
▁행사를	-5308
▁보유하고	-5309
▁우리에게	-5310
▁일주	-5311
테인먼트	-5312
▁나도	-5313
레이션	-5314
▁10%	-5315
▁이끌어	-5316
▁득	-5317
자체	-5318
▁진행하고	-5319
▁멘	-5320
▁전기차	-5321
제주	-5322
TM	-5323
수에	-5324
▁개혁	-5325
십니다	-5326
te	-5327
▁7.	-5328
▁KBS	-5329
▁유일한	-5330
▁위의	-5331
추가	-5332
▁끄	-5333
▁거기	-5334
▁Con	-5335
▁가고	-5336
▁노하우	-5337
▁this	-5338
▁간호	-5339
▁컨텐츠	-5340
78	-5341
봐야	-5342
▁보입니다	-5343
플러스	-5344
ome	-5345
▁결과가	-5346
▁접촉	-5347
수와	-5348
▁인재	-5349
당을	-5350
▁끈	-5351
▁올림픽	-5352
▁육성	-5353
▁진료	-5354
.[	-5355
로스	-5356
▁외에	-5357
▁수수료	-5358
▁여론	-5359
▁잡고	-5360
▁지적했다	-5361
▁말씀을	-5362
술을	-5363
피언	-5364
▁근데	-5365
▁들려	-5366
▁어쩌	-5367
▁느낌을	-5368
▁놀라운	-5369
▁당선	-5370
▁뮤지	-5371
▁층	-5372
▁이스라엘	-5373
'(	-5374
법이	-5375
력에	-5376
▁추적	-5377
력으로	-5378
▁인류	-5379
석이	-5380
파일	-5381
정치	-5382
▁메이저	-5383
▁뜻을	-5384
▁연말	-5385
▁이중	-5386
▁베스트	-5387
심으로	-5388
▁유효	-5389
▁정책을	-5390
▁브라우저	-5391
▁인쇄	-5392
▁결코	-5393
쇼핑	-5394
▁앱을	-5395
▁사람에게	-5396
▁사이의	-5397
법은	-5398
▁의존	-5399
▁택배	-5400
,9	-5401
▁촉구	-5402
▁국무	-5403
▁이처럼	-5404
▁개인회생	-5405
▁헤어	-5406
역시	-5407
▁오랫동안	-5408
정상	-5409
▁검은	-5410
▁요금이	-5411
단지	-5412
▁경험이	-5413
클럽	-5414
▁방법에	-5415
▁별도로	-5416
▁쳐	-5417
▁음성	-5418
▁가벼	-5419
▁업그레이	-5420
▁해당하는	-5421
▁예약을	-5422
▁뒤에	-5423
▁첫째	-5424
oud	-5425
▁죽음	-5426
▁형태의	-5427
중인	-5428
▁심장	-5429
▁신앙	-5430
▁처방	-5431
OT	-5432
▁아직도	-5433
▁않아도	-5434
▁08	-5435
▁낳	-5436
▁스케	-5437
▁흘러	-5438
산화	-5439
해져	-5440
▁전남	-5441
는가	-5442
▁대학생	-5443
▁뚜	-5444
▁폰	-5445
▁생각하고	-5446
▁아래의	-5447
메이션	-5448
▁계열	-5449
당의	-5450
▁상장	-5451
▁몽	-5452
▁당뇨	-5453
▁노트북	-5454
▁전략을	-5455
:30	-5456
실이	-5457
▁합리	-5458
대와	-5459
▁세월	-5460
▁공사	-5461
▁화장품	-5462
(4	-5463
▁계절	-5464
▁전망이다	-5465
아리	-5466
▁이전에	-5467
▁문제에	-5468
▁브라	-5469
▁즐기는	-5470
▁멀리	-5471
▁점차	-5472
포르	-5473
▁상위	-5474
▁지역사회	-5475
▁부분은	-5476
미술	-5477
워서	-5478
▁성적	-5479
▁빚	-5480
▁]	-5481
▁활용해	-5482
▁콩	-5483
:1	-5484
수수	-5485
▁받게	-5486
▁모텔	-5487
▁데스크	-5488
▁소중한	-5489
▁학생들이	-5490
▁Am	-5491
조직	-5492
https	-5493
▁상태를	-5494
▁right	-5495
트에	-5496
바이오	-5497
아버	-5498
였고	-5499
▁부터	-5500
▁기사를	-5501
▁비용을	-5502
▁역대	-5503
▁50%	-5504
▁분위기를	-5505
▁엔진	-5506
▁선생님	-5507
▁연주	-5508
▁이들의	-5509
▁운영하고	-5510
마스	-5511
▁변환	-5512
여서	-5513
▁씨는	-5514
▁한마	-5515
▁발휘	-5516
▁www	-5517
▁때도	-5518
보증	-5519
질의	-5520
ich	-5521
▁보여주는	-5522
▁어제	-5523
▁이용하는	-5524
▁깜	-5525
▁탓	-5526
▁오르	-5527
▁인스타그램	-5528
▁나눠	-5529
▁실무	-5530
근혜	-5531
▁부족한	-5532
▁프린	-5533
▁불리는	-5534
▁업무를	-5535
일치	-5536
▁판매자	-5537
▁사회복지	-5538
▁예고	-5539
▁무기	-5540
▁물류	-5541
▁돌파	-5542
망을	-5543
▁수단	-5544
yst	-5545
▁근본	-5546
▁재난	-5547
의원	-5548
▁최우	-5549
소리	-5550
▁돌아가	-5551
▁당부	-5552
38	-5553
▁빵	-5554
사업자	-5555
▁계속해서	-5556
▁매매	-5557
고객	-5558
▁돋	-5559
리면	-5560
▁34	-5561
▁르	-5562
▁가능하며	-5563
▁자연스럽게	-5564
ram	-5565
▁전세계	-5566
시길	-5567
명에	-5568
▁되기	-5569
pe	-5570
▁구체적인	-5571
▁않을까	-5572
인에	-5573
고가	-5574
▁훼손	-5575
▁공통	-5576
▁의미가	-5577
▁목표를	-5578
▁성남	-5579
▁국내외	-5580
▁ID	-5581
▁것이고	-5582
▁Re	-5583
▁체육	-5584
▁질문에	-5585
▁비난	-5586
GB	-5587
디자인	-5588
님께서는	-5589
▁현장에서	-5590
▁서비스가	-5591
▁@	-5592
▁것이며	-5593
▁속도	-5594
나게	-5595
▁암호화폐	-5596
▁지역에서	-5597
▁맛있	-5598
▁부드럽	-5599
ug	-5600
▁핑	-5601
▁닭	-5602
▁과도	-5603
▁수익을	-5604
▁계정	-5605
해서는	-5606
▁도쿄	-5607
▁정치적	-5608
▁전날	-5609
▁개요	-5610
▁매장	-5611
▁방식을	-5612
▁것인지	-5613
만원을	-5614
잖아요	-5615
▁혐의로	-5616
▁생겨	-5617
소비	-5618
▁아프리카	-5619
▁도달	-5620
▁개인의	-5621
▁장난	-5622
▁뭔가	-5623
생산	-5624
▁개방	-5625
▁초반	-5626
시로	-5627
▁주방	-5628
▁효과적인	-5629
음악	-5630
ata	-5631
▁제주도	-5632
▁때가	-5633
▁살펴보	-5634
▁움직임	-5635
▁마이크로	-5636
월까지	-5637
▁정보가	-5638
▁증상	-5639
39	-5640
▁공용	-5641
▁작성일	-5642
아의	-5643
▁?	-5644
하였고	-5645
▁뼈	-5646
여자	-5647
▁초청	-5648
▁말합니다	-5649
▁와서	-5650
▁cont	-5651
ne	-5652
터테인먼트	-5653
▁조기	-5654
▁아르	-5655
▁캘	-5656
▁방해	-5657
▁온도	-5658
▁후반	-5659
▁스트레스	-5660
▁이행	-5661
▁정확히	-5662
▁추세	-5663
▁잭	-5664
ax	-5665
▁얼굴을	-5666
▁상업	-5667
anc	-5668
▁문학	-5669
▁투자를	-5670
▁하자	-5671
률은	-5672
민의	-5673
▁나쁜	-5674
옵니다	-5675
란드	-5676
르몬	-5677
ber	-5678
▁읽고	-5679
▁역사를	-5680
▁대리	-5681
300	-5682
사업을	-5683
▁사용한	-5684
주기	-5685
▁손해	-5686
2016	-5687
연금	-5688
▁부르	-5689
전쟁	-5690
▁사기	-5691
▁제약	-5692
▁오염	-5693
ink	-5694
▁출입	-5695
▁하나가	-5696
트롤	-5697
▁머물	-5698
-00	-5699
▁심리	-5700
▁디스플레이	-5701
▁이내에	-5702
등을	-5703
▁요약	-5704
▁Google	-5705
▁★	-5706
ics	-5707
▁보존	-5708
▁듯한	-5709
▁김정	-5710
바이러스	-5711
현재	-5712
▁세금	-5713
▁우울	-5714
월드	-5715
▁거예요	-5716
▁변화가	-5717
▁동네	-5718
씨의	-5719
▁쓰레	-5720
▁IS	-5721
▁담긴	-5722
WS	-5723
연합뉴스	-5724
▁집을	-5725
▁당첨	-5726
▁싶습니다	-5727
▁샘플	-5728
▁북한의	-5729
뱅크	-5730
▁교사	-5731
▁직무	-5732
▁ᄏᄏ	-5733
ication	-5734
▁가공	-5735
▁아름다	-5736
속에	-5737
제에	-5738
▁정보는	-5739
범죄	-5740
페이스	-5741
ath	-5742
▁씻	-5743
▁최초의	-5744
자유	-5745
▁기본적으로	-5746
▁내고	-5747
▁떨어져	-5748
▁만날	-5749
렀다	-5750
책을	-5751
▁세대	-5752
▁공장	-5753
▁여부를	-5754
▁계신	-5755
▁캠페인	-5756
▁당일	-5757
aw	-5758
▁친절	-5759
▁춘	-5760
▁쉽고	-5761
하므로	-5762
▁무엇이	-5763
더라고요	-5764
▁대기업	-5765
▁넣고	-5766
▁아이들이	-5767
회견	-5768
▁픽	-5769
락을	-5770
fer	-5771
▁안마	-5772
▁풍경	-5773
▁입학	-5774
▁손에	-5775
▁삽	-5776
물로	-5777
▁좋고	-5778
▁Microsoft	-5779
개가	-5780
마크	-5781
안은	-5782
▁말은	-5783
▁박사	-5784
▁벌써	-5785
▁그랬	-5786
▁널리	-5787
▁세계에서	-5788
차례	-5789
▁수소	-5790
▁장르	-5791
▁!	-5792
▁저작권자	-5793
주년	-5794
▁공포	-5795
▁텍스트	-5796
선수	-5797
▁all	-5798
▁SS	-5799
생명	-5800
ank	-5801
▁했고	-5802
▁운동을	-5803
▁긴장	-5804
▁단어	-5805
▁수도권	-5806
물에	-5807
▁편안한	-5808
▁끓	-5809
▁다리	-5810
▁충남	-5811
▁유연	-5812
▁협업	-5813
인천	-5814
69	-5815
▁흉	-5816
미를	-5817
에서만	-5818
▁믿음	-5819
▁전원	-5820
par	-5821
▁분노	-5822
(0	-5823
▁눌러	-5824
▁맹	-5825
▁있으나	-5826
있을	-5827
▁반응을	-5828
▁MBC	-5829
▁알레	-5830
▁거리에	-5831
▁출범	-5832
세의	-5833
청은	-5834
▁누리	-5835
▁증상이	-5836
▁곳은	-5837
▁그곳	-5838
무료	-5839
▁We	-5840
▁선택한	-5841
▁회원가입	-5842
▁게재	-5843
edia	-5844
34	-5845
좋은	-5846
▁일에	-5847
▁저항	-5848
조정	-5849
코드	-5850
▁37	-5851
▁연합뉴스	-5852
▁보완	-5853
법의	-5854
▁희생	-5855
▁수학	-5856
▁보일	-5857
▁주기	-5858
▁메시지를	-5859
▁낼	-5860
▁몸에	-5861
▁점심	-5862
▁환자의	-5863
라이언	-5864
▁믿고	-5865
800	-5866
식과	-5867
전에서	-5868
▁활용할	-5869
인에게	-5870
(19	-5871
▁가끔	-5872
▁→	-5873
▁정비	-5874
▁SAP	-5875
▁눈이	-5876
▁정확하게	-5877
광고	-5878
▁다를	-5879
▁추출	-5880
ix	-5881
▁소식을	-5882
▁이상이	-5883
▁언제든지	-5884
▁매니	-5885
▁조금씩	-5886
▁투명	-5887
▁부드러운	-5888
▁디자이너	-5889
▁되도록	-5890
체계	-5891
▁절차를	-5892
▁않기	-5893
▁맺고	-5894
▁바꿔	-5895
▁유료	-5896
▁그만	-5897
았는데	-5898
▁나섰다	-5899
▁사실이	-5900
▁발전을	-5901
▁명예훼손	-5902
UM	-5903
준비	-5904
▁보급	-5905
▁묶	-5906
▁사용하지	-5907
투데이	-5908
▁릴	-5909
▁쥐	-5910
▁랜	-5911
▁신설	-5912
▁매주	-5913
▁만들어진	-5914
▁나타난	-5915
되었으며	-5916
▁교류	-5917
▁헤드	-5918
▁애플리케이션	-5919
마저	-5920
으신	-5921
▁천안	-5922
▁LED	-5923
CP	-5924
▁가야	-5925
▁배팅	-5926
▁영광	-5927
▁에너	-5928
▁원을	-5929
▁우리를	-5930
▁밸	-5931
▁법인	-5932
▁ES	-5933
▁상태에서	-5934
공단	-5935
ake	-5936
▁잘못된	-5937
ys	-5938
왔습니다	-5939
▁그럼에도	-5940
CS	-5941
국에	-5942
▁높다	-5943
계층	-5944
온라인	-5945
마자	-5946
aterial	-5947
TH	-5948
시부터	-5949
선에	-5950
ond	-5951
▁분명히	-5952
ode	-5953
▁종이	-5954
▁지표	-5955
▁상태로	-5956
▁Hotel	-5957
조트	-5958
▁수치	-5959
▁향한	-5960
ll	-5961
장애인	-5962
조의	-5963
▁수면	-5964
▁취임	-5965
▁무엇입니까	-5966
▁여성의	-5967
▁바라보	-5968
호가	-5969
전한	-5970
▁논문	-5971
▁있었는데	-5972
▁취급	-5973
격한	-5974
▁생기	-5975
lect	-5976
▁게시판	-5977
▁윈도우	-5978
했기	-5979
▁순수	-5980
▁복사	-5981
▁당장	-5982
(2	-5983
▁이민	-5984
▁스티	-5985
▁상반기	-5986
▁포항	-5987
▁금리	-5988
▁복잡한	-5989
▁프로필	-5990
▁자가	-5991
37	-5992
▁계약을	-5993
▁나아	-5994
▁함께하는	-5995
했으나	-5996
▁진정	-5997
▁20%	-5998
주얼	-5999
협의	-6000
▁수령	-6001
드로이드	-6002
▁입증	-6003
▁EU	-6004
▁참석한	-6005
국을	-6006
▁대화를	-6007
▁상대적으로	-6008
▁누적	-6009
▁have	-6010
감과	-6011
▁관련한	-6012
▁맘	-6013
▁녹색	-6014
▁시사	-6015
▁수십	-6016
▁3)	-6017
▁기름	-6018
▁고양이	-6019
치게	-6020
▁강제	-6021
▁샤워	-6022
▁혼란	-6023
▁받아들	-6024
▁들어서	-6025
.|	-6026
봤다	-6027
▁이르	-6028
▁낚	-6029
▁나에게	-6030
▁코리아	-6031
▁영원	-6032
▁오프라인	-6033
이었습니다	-6034
▁점유	-6035
▁듀	-6036
마토	-6037
▁부상	-6038
양의	-6039
해드립니다	-6040
▁트위터	-6041
▁독자	-6042
즈를	-6043
캠퍼	-6044
라운드	-6045
▁조명	-6046
▁해상	-6047
개혁	-6048
▁상품의	-6049
32	-6050
교환	-6051
▁이래	-6052
(?)	-6053
▁FA	-6054
▁즐겁	-6055
▁구역	-6056
최근	-6057
▁플래	-6058
▁48	-6059
▁어려워	-6060
▁혼합	-6061
▁다이어트	-6062
▁나름	-6063
하겠다고	-6064
나의	-6065
성한	-6066
▁떡	-6067
▁갖추고	-6068
▁무조건	-6069
▁없어서	-6070
▁꼼꼼	-6071
▁명시	-6072
▁블록체인	-6073
▁아기	-6074
▁연관	-6075
적입니다	-6076
겠습니까	-6077
TA	-6078
▁물건	-6079
해지는	-6080
▁다섯	-6081
▁경기를	-6082
▁마음으로	-6083
▁방향으로	-6084
프리	-6085
▁시작된	-6086
▁데이	-6087
냅니다	-6088
미래	-6089
▁않으며	-6090
......	-6091
▁학술	-6092
▁가스	-6093
▁마침	-6094
▁압박	-6095
▁엘리	-6096
▁하니	-6097
소프트	-6098
▁만들었다	-6099
▁아웃	-6100
▁무엇인가	-6101
OL	-6102
▁기자회견	-6103
▁39	-6104
▁줄어들	-6105
님과	-6106
▁말해	-6107
▁세워	-6108
▁prov	-6109
arket	-6110
마이	-6111
종을	-6112
하우스	-6113
▁변호사	-6114
▁챔피언	-6115
ition	-6116
▁타입	-6117
▁감안	-6118
하다가	-6119
재생	-6120
▁정원	-6121
▁체중	-6122
쪽에	-6123
▁사이에서	-6124
▁북미	-6125
▁2006	-6126
리한	-6127
▁안정적인	-6128
▁무릎	-6129
▁제품이	-6130
이프	-6131
▁젖	-6132
▁멜	-6133
▁커버	-6134
▁어르신	-6135
▁예전	-6136
▁up	-6137
FC	-6138
▁아닌가	-6139
▁미만	-6140
▁안심하고	-6141
로도	-6142
▁거야	-6143
▁400	-6144
▁월드컵	-6145
산의	-6146
▁주어	-6147
드리고	-6148
지사	-6149
IG	-6150
▁종사	-6151
▁흡수	-6152
▁자유롭게	-6153
▁맑	-6154
▁떨어진	-6155
▁물리	-6156
▁스토리	-6157
액을	-6158
완료	-6159
▁준다	-6160
위치	-6161
▁액세스	-6162
ick	-6163
▁신분	-6164
▁편하게	-6165
▁어렵다	-6166
천시	-6167
▁겪고	-6168
▁05	-6169
일과	-6170
ount	-6171
▁운용	-6172
요한	-6173
전체	-6174
▁연구를	-6175
▁플라스틱	-6176
▁신한	-6177
▁할머니	-6178
▁찌	-6179
▁대법	-6180
EM	-6181
▁과제	-6182
▁사로	-6183
▁붕	-6184
차는	-6185
▁닿	-6186
▁유행	-6187
▁관련하여	-6188
▁큐	-6189
▁교과	-6190
CD	-6191
▁아마도	-6192
▁만화	-6193
.,	-6194
▁소상공	-6195
비의	-6196
▁(1)	-6197
연이	-6198
▁손가락	-6199
▁로마	-6200
▁크림	-6201
▁잉	-6202
사례	-6203
▁확인하고	-6204
일반	-6205
▁아우	-6206
▁기쁨	-6207
화학	-6208
▁생활을	-6209
나마	-6210
▁균형	-6211
▁2005	-6212
ents	-6213
▁결과는	-6214
▁시간은	-6215
▁복귀	-6216
▁순위	-6217
▁중독	-6218
▁참여한	-6219
▁사용하기	-6220
▁커플	-6221
▁자아	-6222
▁놀라	-6223
쉽게	-6224
▁인테리어	-6225
▁건강을	-6226
구니	-6227
낸다	-6228
▁타임	-6229
심의	-6230
pl	-6231
▁세계를	-6232
동에	-6233
▁de	-6234
▁포함된	-6235
났습니다	-6236
▁◇	-6237
4)	-6238
36	-6239
▁몬	-6240
▁옆에	-6241
▁진행된	-6242
▁거대한	-6243
▁이정	-6244
▁세상에	-6245
▁소리를	-6246
▁민감	-6247
▁냉장고	-6248
▁관리자	-6249
금의	-6250
▁오래된	-6251
IM	-6252
선은	-6253
▁흔히	-6254
인들은	-6255
▁가속	-6256
화점	-6257
▁어른	-6258
▁Or	-6259
▁하반기	-6260
설명	-6261
-21	-6262
▁선고	-6263
▁이거	-6264
▁허리	-6265
계에	-6266
▁상당한	-6267
▁보지	-6268
▁것보다	-6269
▁부착	-6270
▁나오고	-6271
PU	-6272
순위	-6273
▁치열	-6274
▁잎	-6275
연히	-6276
NA	-6277
쁘게	-6278
▁아니지만	-6279
▁55	-6280
으니까	-6281
▁청와대	-6282
▁숙소	-6283
▁없었	-6284
▁비교적	-6285
▁지닌	-6286
▁예정입니다	-6287
▁룰	-6288
▁결정을	-6289
기념	-6290
▁된다는	-6291
▁생물	-6292
▁장식	-6293
성급	-6294
담보	-6295
▁머리를	-6296
아니	-6297
카데	-6298
나이	-6299
▁아무런	-6300
▁티켓	-6301
▁더보기	-6302
▁멸	-6303
학회	-6304
▁기재	-6305
▁설명과	-6306
▁책은	-6307
▁재배	-6308
▁넥	-6309
▁패스	-6310
석은	-6311
안의	-6312
▁정식	-6313
정과	-6314
▁옮겨	-6315
▁was	-6316
사이즈	-6317
▁대사	-6318
▁탄소	-6319
▁입주	-6320
폭력	-6321
▁일자	-6322
▁아이콘	-6323
▁주행	-6324
성으로	-6325
▁유형의	-6326
▁아이가	-6327
▁프레임	-6328
리핀	-6329
▁원격	-6330
▁And	-6331
권에	-6332
겠어요	-6333
▁대해서도	-6334
고속	-6335
▁이야기가	-6336
▁유엔	-6337
인사	-6338
부문	-6339
▁것만	-6340
old	-6341
▁아티	-6342
▁인기가	-6343
St	-6344
여야	-6345
▁가면	-6346
팀은	-6347
▁오늘의	-6348
▁절약	-6349
▁어찌	-6350
▁컨설팅	-6351
체에	-6352
▁배당	-6353
▁미세먼	-6354
▁직후	-6355
▁연방	-6356
전은	-6357
해지고	-6358
▁아래와	-6359
관과	-6360
▁문제로	-6361
▁레벨	-6362
▁120	-6363
▁끝까지	-6364
스토리	-6365
▁자리에	-6366
동이	-6367
▁그녀가	-6368
▁오토	-6369
▁미사	-6370
▁입은	-6371
▁보며	-6372
▁시상	-6373
것은	-6374
오류	-6375
▁im	-6376
▁합병	-6377
모를	-6378
CT	-6379
시키기	-6380
▁제품에	-6381
▁검사를	-6382
▁발매	-6383
▁남녀	-6384
▁같아	-6385
▁용인	-6386
하기를	-6387
구청	-6388
▁HD	-6389
▁기술이	-6390
렉션	-6391
ock	-6392
▁에디	-6393
▁기본적인	-6394
축제	-6395
▁일치	-6396
아는	-6397
▁폐기	-6398
체는	-6399
부로	-6400
BA	-6401
서로	-6402
▁청약	-6403
양을	-6404
▁자리에서	-6405
▁곁	-6406
축구	-6407
▁농촌	-6408
▁가질	-6409
▁내내	-6410
▁첨단	-6411
하였으며	-6412
ool	-6413
▁창원	-6414
세트	-6415
▁06	-6416
▁ad	-6417
▁심한	-6418
▁지하철	-6419
ous	-6420
ystem	-6421
십니까	-6422
▁받기	-6423
▁당신을	-6424
배우	-6425
스피	-6426
▁만성	-6427
▁많고	-6428
라의	-6429
래도	-6430
▁적절	-6431
▁끊임없이	-6432
cr	-6433
▁충돌	-6434
▁레드	-6435
▁맛이	-6436
3.	-6437
▁분이	-6438
▁불교	-6439
주시면	-6440
▁제외한	-6441
▁얻은	-6442
▁위에서	-6443
스포	-6444
2.	-6445
▁내는	-6446
▁머신	-6447
▁악화	-6448
▁봅니다	-6449
RE	-6450
▁학부모	-6451
▁이유를	-6452
갑니다	-6453
권은	-6454
현지시간	-6455
액은	-6456
검색	-6457
▁스페인	-6458
▁일찍	-6459
시까지	-6460
▁취재	-6461
▁치매	-6462
▁국회의원	-6463
▁안보	-6464
올림픽	-6465
▁이벤트를	-6466
▁긍정적인	-6467
▁팝	-6468
▁시공	-6469
▁이승	-6470
▁대학교	-6471
▁론	-6472
▁외환	-6473
▁신용카드	-6474
▁이상을	-6475
▁권리	-6476
▁유출	-6477
소개팅	-6478
산시	-6479
크라이나	-6480
▁추석	-6481
▁곳을	-6482
~2	-6483
▁스크린	-6484
▁상환	-6485
▁시범	-6486
르크	-6487
▁목차	-6488
▁창작	-6489
▁첨부	-6490
ational	-6491
olog	-6492
석열	-6493
▁CEO	-6494
박스	-6495
▁코인	-6496
지않	-6497
▁스튜디오	-6498
이죠	-6499
67	-6500
▁드는	-6501
▁출산	-6502
▁으로	-6503
▁해피	-6504
▁부분에	-6505
시험대비	-6506
▁04	-6507
연의	-6508
▁무너	-6509
▁예상된다	-6510
▁질문을	-6511
▁회사가	-6512
려서	-6513
orld	-6514
주에	-6515
OC	-6516
▁선진	-6517
▁가방	-6518
말을	-6519
▁곳으로	-6520
▁금지되어	-6521
▁솔직	-6522
▁붉은	-6523
▁모색	-6524
▁영화를	-6525
서트	-6526
▁사이버	-6527
▁크다	-6528
▁고객을	-6529
▁여부	-6530
▁안드로이드	-6531
85	-6532
▁춤	-6533
▁en	-6534
▁캔	-6535
▁지혜	-6536
▁원내	-6537
방향	-6538
기록	-6539
기한	-6540
▁느낀	-6541
유를	-6542
▁pr	-6543
▁후에는	-6544
▁빙	-6545
ash	-6546
▁07	-6547
께서는	-6548
▁행동을	-6549
▁그러므로	-6550
▁한국어	-6551
▁눈길을	-6552
▁옵션을	-6553
▁예능	-6554
▁무엇인지	-6555
▁세계적인	-6556
▁귀여	-6557
▁화려한	-6558
▁49	-6559
▁업그레이드	-6560
미가	-6561
▁방문해	-6562
▁놀이	-6563
▁사용됩니다	-6564
으므로	-6565
▁시장이	-6566
▁Man	-6567
▁lo	-6568
▁간주	-6569
▁밝은	-6570
▁해변	-6571
▁들이	-6572
▁금속	-6573
▁타이틀	-6574
▁한다면	-6575
셔도	-6576
복을	-6577
▁경로	-6578
▁방어	-6579
졌고	-6580
▁선임	-6581
▁주신	-6582
ccess	-6583
▁진행할	-6584
▁기원	-6585
시켰다	-6586
▁박근혜	-6587
▁불법적	-6588
창업	-6589
사인	-6590
▁느꼈	-6591
협의회	-6592
▁SBS	-6593
VD	-6594
▁못해	-6595
▁3,	-6596
▁내용에	-6597
▁인력	-6598
▁사용을	-6599
▁알아야	-6600
OD	-6601
▁프로모션	-6602
..."	-6603
누리	-6604
셨다	-6605
대문	-6606
▁고유	-6607
해질	-6608
▁ab	-6609
▁건너	-6610
▁For	-6611
▁—	-6612
▁reserved	-6613
▁준비를	-6614
▁부인	-6615
가루	-6616
▁철학	-6617
▁횡	-6618
▁급여	-6619
▁억제	-6620
선으로	-6621
▁모으	-6622
▁목소리를	-6623
▁오브	-6624
▁무려	-6625
▁이혼	-6626
▁불일치	-6627
▁거래를	-6628
▁평범	-6629
▁경상	-6630
▁보면서	-6631
▁컨트롤	-6632
▁단순한	-6633
었다고	-6634
TE	-6635
▁정착	-6636
▁한인	-6637
▁하나입니다	-6638
▁포커	-6639
▁65	-6640
▁무한	-6641
토리	-6642
▁현재의	-6643
▁염증	-6644
▁현재까지	-6645
다음	-6646
벤처	-6647
▁얇	-6648
▁충북	-6649
▁해보	-6650
▁서서	-6651
▁Pr	-6652
ung	-6653
▁진화	-6654
2015	-6655
▁입찰	-6656
용으로	-6657
합니까	-6658
▁뒤로	-6659
▁도심	-6660
▁오직	-6661
▁시내	-6662
▁메타	-6663
▁떼	-6664
▁올해는	-6665
▁협약	-6666
▁국가의	-6667
▁일이다	-6668
▁8.	-6669
▁신종	-6670
름이	-6671
▁구성되어	-6672
▁개막	-6673
▁장학	-6674
▁몸이	-6675
▁밝힌	-6676
▁사로잡	-6677
길이	-6678
▁맛을	-6679
▁부활	-6680
▁카카오톡	-6681
▁헬스	-6682
▁활약	-6683
농업	-6684
▁제공해	-6685
▁매각	-6686
▁스웨	-6687
▁이익을	-6688
▁없애	-6689
▁30%	-6690
▁고등학교	-6691
시한	-6692
▁역량	-6693
▁얻고	-6694
물질	-6695
▁시대에	-6696
▁쏘	-6697
서와	-6698
실한	-6699
▁형사	-6700
▁멈추	-6701
▁차를	-6702
cl	-6703
▁분들	-6704
84	-6705
능력	-6706
인치	-6707
▁보유한	-6708
▁시작하는	-6709
▁없으며	-6710
▁지식을	-6711
PE	-6712
▁화성	-6713
업무	-6714
▁일환	-6715
▁곰	-6716
점과	-6717
줘야	-6718
져야	-6719
▁아름답	-6720
▁rights	-6721
▁대여	-6722
▁알아보기	-6723
▁법정	-6724
▁필요로	-6725
▁고령	-6726
▁칸	-6727
▁01	-6728
산이	-6729
▁비가	-6730
▁해제	-6731
▁뭘	-6732
▁아예	-6733
▁개편	-6734
▁며칠	-6735
하는지	-6736
▁이름이	-6737
있어	-6738
▁있었지만	-6739
절을	-6740
▁의뢰	-6741
▁에어컨	-6742
▁주지	-6743
가구	-6744
BM	-6745
▁되는데	-6746
▁틈	-6747
▁부부	-6748
▁옷을	-6749
언론	-6750
▁포함하여	-6751
본다	-6752
▁조리	-6753
자도	-6754
▁매달	-6755
▁아시	-6756
▁감독은	-6757
▁이름으로	-6758
천만	-6759
▁문화를	-6760
▁패키지	-6761
0-10	-6762
▁성능을	-6763
명과	-6764
▁지출	-6765
▁느끼는	-6766
▁비율	-6767
▁의하여	-6768
▁동참	-6769
▁지자체	-6770
어의	-6771
95	-6772
줬다	-6773
esign	-6774
이한	-6775
▁애니메이션	-6776
▁논란이	-6777
스키	-6778
▁은혜	-6779
▁색상	-6780
워드	-6781
74	-6782
The	-6783
very	-6784
타운	-6785
evel	-6786
▁기기	-6787
▁발견시	-6788
▁모델을	-6789
▁납부	-6790
음에도	-6791
▁강아	-6792
▁초등	-6793
▁삼성전자	-6794
▁소개해	-6795
▁힐링	-6796
FA	-6797
검증	-6798
▁호르몬	-6799
▁존중	-6800
되었고	-6801
메이	-6802
udy	-6803
대생	-6804
▁예쁜	-6805
▁자세히보기	-6806
▁발생합니다	-6807
▁김종	-6808
삼성	-6809
성인	-6810
행사	-6811
erm	-6812
▁플라	-6813
▁부채	-6814
▁단백질	-6815
les	-6816
▁크고	-6817
▁진행되는	-6818
▁표면	-6819
스마트	-6820
아트	-6821
▁아닐까	-6822
▁진행하는	-6823
▁유전	-6824
▁CJ	-6825
▁스프	-6826
배포는	-6827
하지는	-6828
▁켜	-6829
공업	-6830
▁것이라	-6831
▁고백	-6832
▁방침이다	-6833
▁재밌	-6834
▁한화	-6835
개로	-6836
▁분쟁요소	-6837
▁보실	-6838
▁적어도	-6839
▁마스터	-6840
▁탁월	-6841
1000	-6842
▁하루에	-6843
▁그들을	-6844
▁운행	-6845
▁설문	-6846
천히	-6847
▁영업이익	-6848
▁진보	-6849
▁비용이	-6850
▁손으로	-6851
▁출장마사지	-6852
TC	-6853
집을	-6854
▁오디오	-6855
▁고위	-6856
▁이수	-6857
다시	-6858
▁사랑의	-6859
▁본격적인	-6860
▁주간	-6861
ru	-6862
▁땀	-6863
것을	-6864
발을	-6865
▁무언	-6866
▁관리를	-6867
▁구간	-6868
▁지금도	-6869
▁손실	-6870
▁Certif	-6871
▁휠	-6872
▁녀	-6873
지금	-6874
.5%	-6875
자료를	-6876
▁투쟁	-6877
재배포	-6878
.25	-6879
▁줍니다	-6880
주행	-6881
tern	-6882
작업	-6883
▁유용한	-6884
네시아	-6885
sp	-6886
밀한	-6887
▁상황이다	-6888
▁식사를	-6889
▁44	-6890
▁싱가	-6891
▁대만	-6892
ower	-6893
▁회계	-6894
ound	-6895
▁세계적으로	-6896
해온	-6897
와서	-6898
▁측면에서	-6899
▁없기	-6900
____	-6901
MC	-6902
▁개발을	-6903
국내	-6904
▁특성을	-6905
▁전파	-6906
카데미	-6907
▁복구	-6908
학원	-6909
▁분석을	-6910
▁전세	-6911
▁전형	-6912
롭고	-6913
런스	-6914
데일리	-6915
수술	-6916
▁어두	-6917
글로벌	-6918
제와	-6919
▁단기	-6920
line	-6921
▁가벼운	-6922
▁유사한	-6923
▁넘치는	-6924
ject	-6925
▁약간의	-6926
가능한	-6927
▁정책에	-6928
▁훈	-6929
▁손님	-6930
!!!!	-6931
▁세련	-6932
▁이번에는	-6933
무역	-6934
▁패널	-6935
우기	-6936
▁더해	-6937
▁출력	-6938
▁영혼	-6939
▁사람들과	-6940
▁예배	-6941
아파트	-6942
▁태국	-6943
PL	-6944
▁개발한	-6945
이로	-6946
▁솔루션을	-6947
▁순환	-6948
소재	-6949
개국	-6950
▁김성	-6951
참여	-6952
▁들어간	-6953
▁토요일	-6954
수원	-6955
▁나타나는	-6956
▁세계의	-6957
▁제정	-6958
▁중심의	-6959
gh	-6960
▁지상	-6961
▁럭	-6962
▁호소	-6963
▁진행한다	-6964
▁카드를	-6965
매매	-6966
▁Ap	-6967
▁모듈	-6968
▁연애	-6969
▁기분이	-6970
▁Questions	-6971
▁Wh	-6972
▁포르	-6973
▁개입	-6974
▁부처	-6975
▁가격을	-6976
ade	-6977
▁위험이	-6978
리다	-6979
▁경주	-6980
▁참여하는	-6981
▁그걸	-6982
▁대장	-6983
▁포스트	-6984
▁체크아웃	-6985
▁도메	-6986
▁링크를	-6987
▁간이	-6988
▁사람과	-6989
▁이틀	-6990
▁잊지	-6991
▁사회의	-6992
▁참여할	-6993
▁확인해	-6994
▁사용합니다	-6995
끼리	-6996
▁방사	-6997
▁대표가	-6998
킵니다	-6999
개선	-7000
▁sp	-7001
▁국민의힘	-7002
▁다들	-7003
▁조사를	-7004
▁쿠키	-7005
▁필요할	-7006
▁천천히	-7007
전시	-7008
려야	-7009
평양	-7010
!”	-7011
론을	-7012
ext	-7013
▁낯	-7014
▁AS	-7015
▁신청을	-7016
▁하나를	-7017
▁시작할	-7018
▁아이를	-7019
동안마	-7020
▁사무실	-7021
▁하던	-7022
▁효능	-7023
▁격려	-7024
▁같은데	-7025
oy	-7026
2023	-7027
▁프로젝트를	-7028
▁주가	-7029
▁한미	-7030
eth	-7031
▁선배	-7032
3,	-7033
조회	-7034
일자	-7035
▁깨달	-7036
리포	-7037
▁아트	-7038
▁최적화	-7039
▁와인	-7040
▁위치를	-7041
러스트	-7042
▁발사	-7043
▁받아야	-7044
▁시선을	-7045
▁탭	-7046
▁비치	-7047
▁동생	-7048
▁전부터	-7049
서비스를	-7050
있고	-7051
▁경계	-7052
▁역량을	-7053
▁폴더	-7054
▁속도를	-7055
▁끝난	-7056
▁간담	-7057
▁굿	-7058
피해	-7059
결을	-7060
된다면	-7061
로서의	-7062
바닥	-7063
▁USB	-7064
.15	-7065
▁questions	-7066
▁임금	-7067
ement	-7068
프를	-7069
▁폐쇄	-7070
▁고객에게	-7071
▁그리스도	-7072
▁No	-7073
때문에	-7074
▁때에는	-7075
비교	-7076
eed	-7077
▁돈이	-7078
▁소매	-7079
▁하더라도	-7080
조에	-7081
된다는	-7082
▁닦	-7083
▁단단	-7084
▁치유	-7085
전기	-7086
▁높이고	-7087
▁받아들이	-7088
▁현상	-7089
▁소리가	-7090
▁프로그램은	-7091
▁관심과	-7092
▁갖는	-7093
▁욕실	-7094
▁원자	-7095
▁초등학교	-7096
▁우크라이나	-7097
▁경력	-7098
▁실시간으로	-7099
터가	-7100
▁청주	-7101
▁가졌다	-7102
▁줄어	-7103
▁2004	-7104
▁수리	-7105
▁인용	-7106
놀이	-7107
▁담고	-7108
▁과일	-7109
▁비대면	-7110
▁최근에는	-7111
호를	-7112
▁저자	-7113
▁생각보다	-7114
▁여러가지	-7115
▁시계	-7116
▁일하는	-7117
▁출전	-7118
▁빗	-7119
▁아니었다	-7120
경이	-7121
▁가려	-7122
oint	-7123
▁채워	-7124
냐고	-7125
▁높이는	-7126
▁결과에	-7127
▁반대로	-7128
티비	-7129
▁It	-7130
▁채권	-7131
마를	-7132
▁오피	-7133
투어	-7134
시코	-7135
재료	-7136
▁영웅	-7137
▁하였	-7138
심한	-7139
▁위험을	-7140
▁재능	-7141
▁고성	-7142
▁낮아	-7143
▁사건을	-7144
▁셈이다	-7145
▁성령	-7146
▁받는다	-7147
되거나	-7148
의도	-7149
▁효과적으로	-7150
▁올랐다	-7151
▁무대	-7152
▁섬유	-7153
▁사전에	-7154
▁매입	-7155
▁것이었다	-7156
▁말로	-7157
▁출간	-7158
▁하나님이	-7159
공학	-7160
▁보낼	-7161
▁서비스는	-7162
▁찰	-7163
ons	-7164
DA	-7165
▁동원	-7166
▁게임의	-7167
방침	-7168
▁캠핑	-7169
▁올린	-7170
지수	-7171
▁스탠	-7172
▁유입	-7173
모임	-7174
공연	-7175
▁이것을	-7176
▁들어가는	-7177
▁생생	-7178
▁||	-7179
▁드라이브	-7180
▁Pre	-7181
▁모른다	-7182
enc	-7183
▁칼럼	-7184
▁연극	-7185
▁축소	-7186
▁쫓	-7187
▁한반도	-7188
구성	-7189
RL	-7190
선택	-7191
▁광범	-7192
▁필리핀	-7193
트와	-7194
▁수요가	-7195
▁가죽	-7196
▁Ph	-7197
▁고향	-7198
순환	-7199
▁차가	-7200
▁본격적으로	-7201
▁오퍼	-7202
▁싱글	-7203
▁박물관	-7204
▁한국에서	-7205
인권	-7206
In	-7207
▁SC	-7208
미니	-7209
▁급증	-7210
▁꿈꾸	-7211
▁의식	-7212
▁생겼	-7213
▁이자	-7214
▁자격증	-7215
iss	-7216
광역시	-7217
▁된다고	-7218
▁디자인을	-7219
▁터치	-7220
▁갱	-7221
▁메일	-7222
▁전화를	-7223
호는	-7224
▁미국에서	-7225
▁업로드	-7226
igh	-7227
▁런던	-7228
▁강원도	-7229
▁클래식	-7230
▁노력하고	-7231
보가	-7232
ital	-7233
▁파일오류	-7234
주신	-7235
.18	-7236
▁시나	-7237
▁응급	-7238
사장	-7239
▁App	-7240
▁이해할	-7241
▁마치고	-7242
▁상품은	-7243
▁공개했다	-7244
▁실제내용	-7245
▁본문내용	-7246
▁무관	-7247
▁미친	-7248
▁경쟁력	-7249
ah	-7250
조원	-7251
▁1/	-7252
▁시대의	-7253
형이	-7254
▁개인적으로	-7255
▁고객센터의	-7256
pro	-7257
▁주력	-7258
▁성공적으로	-7259
▁:)	-7260
▁제공하기	-7261
OV	-7262
우리는	-7263
비에	-7264
▁대안	-7265
위기	-7266
▁내게	-7267
▁진행된다	-7268
▁가리	-7269
▁본인의	-7270
겨진	-7271
▁지향	-7272
▁중복자료	-7273
놓은	-7274
▁보내는	-7275
~!	-7276
중계	-7277
ise	-7278
▁왔습니다	-7279
▁의원이	-7280
▁있을까요	-7281
치기	-7282
▁사우	-7283
▁음악을	-7284
들에게는	-7285
승을	-7286
▁징역	-7287
▁신고센터를	-7288
고한	-7289
운용	-7290
직을	-7291
▁치아	-7292
▁뮤지컬	-7293
▁un	-7294
▁바른	-7295
▁공원	-7296
목적	-7297
주차	-7298
▁엠	-7299
▁의미합니다	-7300
점의	-7301
ann	-7302
▁product	-7303
▁이해하고	-7304
▁공인	-7305
겠지	-7306
ors	-7307
▁부서	-7308
▁이르기	-7309
▁머리카	-7310
▁싶다면	-7311
▁우려가	-7312
▁사이트에	-7313
테일	-7314
▁공공기관	-7315
▁밟	-7316
▁아무도	-7317
▁어려울	-7318
to	-7319
▁쟁	-7320
▁건립	-7321
▁라디오	-7322
▁사람도	-7323
장기	-7324
▁없었던	-7325
다이	-7326
▁캠페	-7327
ional	-7328
▁개인정보를	-7329
양이	-7330
▁앞장	-7331
▁이기	-7332
지니어	-7333
싱턴	-7334
▁위대한	-7335
▁자치	-7336
▁김포	-7337
정보를	-7338
▁부담을	-7339
경쟁	-7340
▁마십시오	-7341
▁학생들의	-7342
▁어떨	-7343
▁지분	-7344
▁material	-7345
▁되며	-7346
▁당뇨병	-7347
▁때부터	-7348
▁것들이	-7349
▁유지하고	-7350
▁진행했다	-7351
▁보고서는	-7352
▁보자	-7353
▁가볍게	-7354
▁민주주의	-7355
원장	-7356
우가	-7357
▁Pl	-7358
▁왜냐	-7359
▁사업에	-7360
▁SU	-7361
▁그중	-7362
▁사이트에서	-7363
▁상대방	-7364
예산	-7365
▁이성	-7366
▁마세요	-7367
숨을	-7368
▁삼성전	-7369
▁보낸	-7370
etw	-7371
▁한층	-7372
▁빠르고	-7373
▁아이디	-7374
▁내세	-7375
▁제품으로	-7376
주식	-7377
져서	-7378
▁피로	-7379
▁하겠다	-7380
▁운송	-7381
▁댄	-7382
스티벌	-7383
▁사진이	-7384
자연	-7385
▁모드	-7386
크를	-7387
영은	-7388
▁산책	-7389
▁이란	-7390
번에	-7391
▁소형	-7392
SS	-7393
ings	-7394
▁매수	-7395
▁다음은	-7396
감사	-7397
▁있죠	-7398
▁식으로	-7399
▁선박	-7400
▁얻는	-7401
▁트리	-7402
▁좋겠다	-7403
▁로맨	-7404
▁높여	-7405
▁로드	-7406
▁가격으로	-7407
▁애완동물	-7408
▁햇살론	-7409
▁탐색	-7410
▁컵	-7411
드라마	-7412
▁액션	-7413
▁위치에	-7414
지자	-7415
▁챙겨	-7416
광주	-7417
신은	-7418
바람	-7419
▁김정은	-7420
▁끌고	-7421
▁프라이	-7422
일에는	-7423
에서부터	-7424
▁뿌리	-7425
▁초점을	-7426
▁토대로	-7427
▁현재는	-7428
▁재미있는	-7429
▁굳이	-7430
▁me	-7431
▁포함해	-7432
▁방향을	-7433
이었던	-7434
▁스킨	-7435
600	-7436
▁한달	-7437
이게	-7438
적한	-7439
EST	-7440
▁지휘	-7441
61	-7442
▁헌법	-7443
go	-7444
▁Bl	-7445
▁행사는	-7446
축은행	-7447
▁출장샵	-7448
▁배려	-7449
국인	-7450
▁비록	-7451
▁오피스	-7452
▁장관은	-7453
▁찾으	-7454
▁기다리고	-7455
▁En	-7456
▁그건	-7457
▁임원	-7458
naver	-7459
로지	-7460
▁임명	-7461
led	-7462
▁드릴	-7463
▁ᅲᅲ	-7464
▁회전	-7465
▁할지	-7466
▁가깝	-7467
▁한마디	-7468
생활을	-7469
▁수준으로	-7470
▁대폭	-7471
감은	-7472
미널	-7473
▁증가하고	-7474
▁오버	-7475
▁수석	-7476
머스	-7477
▁신선한	-7478
▁600	-7479
▁닮	-7480
▁선택하는	-7481
▁특별히	-7482
▁고등	-7483
예방	-7484
▁고대	-7485
▁가격에	-7486
▁비트코인	-7487
▁아티스트	-7488
~4	-7489
ild	-7490
▁사용이	-7491
▁단축	-7492
▁적어	-7493
▁제외하고	-7494
타워	-7495
▁안전을	-7496
▁최적의	-7497
▁드디어	-7498
모든	-7499
▁피트	-7500
▁활동에	-7501
▁아무래도	-7502
▁복원	-7503
▁수록	-7504
▁매력적인	-7505
▁그에게	-7506
▁김태	-7507
따라	-7508
▁실용	-7509
▁세미나	-7510
▁묻는	-7511
셔츠	-7512
▁받았습니다	-7513
ervice	-7514
▁관련이	-7515
MA	-7516
세로	-7517
았어요	-7518
▁그날	-7519
FT	-7520
▁스키	-7521
▁각각의	-7522
임금	-7523
▁깨닫	-7524
▁봐야	-7525
▁신입	-7526
▁비전	-7527
다란	-7528
▁이슬	-7529
기본	-7530
름을	-7531
된다고	-7532
oney	-7533
▁담겨	-7534
▁Sc	-7535
89	-7536
▁MS	-7537
▁처음에는	-7538
▁앙	-7539
미는	-7540
▁압축	-7541
▁요구하는	-7542
등의	-7543
재산	-7544
종이	-7545
▁낮추	-7546
▁본인이	-7547
▁계시	-7548
▁물이	-7549
▁제재	-7550
▁특유의	-7551
▁융합	-7552
사실	-7553
건이	-7554
▁완벽하게	-7555
▁레시피	-7556
▁덩	-7557
▁독서	-7558
ins	-7559
▁식별	-7560
잖아	-7561
콘텐츠	-7562
▁열었다	-7563
란히	-7564
▁아무것도	-7565
▁젤	-7566
▁플러스	-7567
았을	-7568
베이스	-7569
▁들을	-7570
▁핏	-7571
대체	-7572
강의	-7573
주간	-7574
▁감지	-7575
▁분야에	-7576
▁리얼	-7577
▁빨간	-7578
▁한경	-7579
▁마친	-7580
▁더블	-7581
▁즉각	-7582
▁감정을	-7583
▁등도	-7584
▁대표하는	-7585
▁모자	-7586
예정	-7587
▁인사를	-7588
EX	-7589
▁마사	-7590
▁알림	-7591
▁게임은	-7592
쾌한	-7593
▁필터	-7594
혈압	-7595
주년을	-7596
▁부정적인	-7597
▁1,000	-7598
올해	-7599
▁차원에서	-7600
▁CC	-7601
▁피드	-7602
▁하우스	-7603
이와	-7604
미팅	-7605
▁골드	-7606
▁조례	-7607
▁가기	-7608
▁허가	-7609
▁(2)	-7610
▁되돌	-7611
▁연휴	-7612
▁몇몇	-7613
▁iP	-7614
위원회는	-7615
",	-7616
▁플러	-7617
▁해결할	-7618
▁만나는	-7619
▁위탁	-7620
사항을	-7621
▁게스트	-7622
▁자신에게	-7623
▁목소리가	-7624
▁유동	-7625
드려요	-7626
▁공간이	-7627
▁노후	-7628
▁댓글이	-7629
정신	-7630
만족	-7631
▁최근에	-7632
▁무서	-7633
▁10.	-7634
▁들어오	-7635
▁때로는	-7636
▁▷	-7637
▁재개	-7638
▁극대화	-7639
조가	-7640
▁합류	-7641
▁전화번호	-7642
▁파리	-7643
평균	-7644
▁이르기까지	-7645
담을	-7646
▁하거나	-7647
▁그렇다고	-7648
▁셰	-7649
news	-7650
▁지역을	-7651
.1%	-7652
▁플랫폼을	-7653
▁2003	-7654
▁돋보	-7655
즈는	-7656
▁시대를	-7657
▁이어질	-7658
▁날이	-7659
▁절감	-7660
▁집계	-7661
치에	-7662
담보대출	-7663
▁밝히	-7664
▁가격대	-7665
▁사실은	-7666
▁올라가	-7667
▁온라인으로	-7668
▁칭찬	-7669
▁위생	-7670
reat	-7671
어린이	-7672
▁거기에	-7673
▁리더십	-7674
▁Book	-7675
▁겉	-7676
▁소스	-7677
설을	-7678
부터는	-7679
▁내리	-7680
▁얻어	-7681
들과의	-7682
냐는	-7683
▁에스	-7684
팀이	-7685
▁펴	-7686
ve	-7687
▁아마존	-7688
▁환경에서	-7689
▁코로나바이러스	-7690
▁이어지는	-7691
▁조회수	-7692
▁활용하여	-7693
▁75	-7694
▁유해	-7695
▁테크	-7696
▁차세대	-7697
▁템	-7698
▁생길	-7699
▁신중	-7700
▁감동	-7701
▁철저히	-7702
▁뚫	-7703
▁Dumps	-7704
해양	-7705
▁물에	-7706
▁덤프공부	-7707
▁넘게	-7708
▁가시	-7709
런트	-7710
클리	-7711
▁명품	-7712
할인	-7713
호의	-7714
TF	-7715
유럽	-7716
소서	-7717
▁대량	-7718
할지	-7719
▁03	-7720
▁저지	-7721
▁언니	-7722
▁지니	-7723
온다	-7724
oh	-7725
▁su	-7726
▁초래	-7727
▁폐지	-7728
▁포함됩니다	-7729
▁웰	-7730
담당	-7731
any	-7732
▁농협	-7733
▁섹션	-7734
▁매력을	-7735
▁새해	-7736
”,	-7737
▁관측	-7738
억원으로	-7739
사들이	-7740
▁여수	-7741
ther	-7742
▁스킬	-7743
선물	-7744
▁선택을	-7745
▁하시는	-7746
▁기준을	-7747
멕시코	-7748
▁get	-7749
▁정지	-7750
▁다수의	-7751
투스	-7752
▁브로	-7753
기만	-7754
놀이터	-7755
교수	-7756
▁빅데이터	-7757
ike	-7758
▁고려해	-7759
경은	-7760
▁금액을	-7761
렬한	-7762
비와	-7763
▁99	-7764
▁9.	-7765
▁뿐이다	-7766
야구	-7767
차로	-7768
▁능력이	-7769
▁가득한	-7770
하에	-7771
▁말한	-7772
▁직장인	-7773
▁햇	-7774
▁보도했다	-7775
무는	-7776
세이	-7777
▁종로	-7778
브라	-7779
oci	-7780
연맹	-7781
▁그림을	-7782
▁유익	-7783
▁소장	-7784
▁유지하는	-7785
▁오일	-7786
▁의학	-7787
PN	-7788
아동	-7789
▁지금의	-7790
▁일어난	-7791
레인	-7792
——	-7793
row	-7794
▁공개된	-7795
형의	-7796
잡고	-7797
바다	-7798
▁지원하고	-7799
▁이주	-7800
▁계기로	-7801
▁호텔에서	-7802
▁고품질	-7803
76	-7804
▁예외	-7805
▁창립	-7806
▁기록을	-7807
▁출장안마	-7808
근로	-7809
▁동남	-7810
▁본질	-7811
▁자살	-7812
load	-7813
▁구매할	-7814
피아	-7815
▁관내	-7816
▁환경에	-7817
▁구체적으로	-7818
▁갖게	-7819
▁밝혔습니다	-7820
심사	-7821
았지만	-7822
▁어려움	-7823
-15	-7824
화하는	-7825
월의	-7826
▁원인이	-7827
▁윤석열	-7828
급여	-7829
기계	-7830
▁경찰은	-7831
▁친구가	-7832
비로	-7833
▁다음에	-7834
액이	-7835
방안	-7836
크로	-7837
▁품목	-7838
느라	-7839
72	-7840
▁리조트	-7841
디지털	-7842
행위	-7843
▁책임은	-7844
▁인도네시아	-7845
▁놈	-7846
▁토지	-7847
▁말하고	-7848
▁토토사이트	-7849
▁시는	-7850
▁적당한	-7851
▁AD	-7852
▁저의	-7853
▁듣는	-7854
소와	-7855
▁마법	-7856
▁의도	-7857
▁간단하게	-7858
)|	-7859
▁스트리	-7860
▁2024	-7861
씨를	-7862
▁산림	-7863
▁죽은	-7864
군을	-7865
▁싫어	-7866
▁설명을	-7867
▁살아가는	-7868
▁알고리즘	-7869
▁신제품	-7870
연은	-7871
▁상담을	-7872
▁Cont	-7873
통을	-7874
▁이곳은	-7875
▁사용자의	-7876
▁수준을	-7877
▁250	-7878
▁다르다	-7879
▁가동	-7880
▁64	-7881
▁코드를	-7882
▁사항이	-7883
▁갔다	-7884
▁모습으로	-7885
ware	-7886
▁롱	-7887
▁AM	-7888
▁리스트	-7889
▁싱가포르	-7890
▁내일	-7891
▁우유	-7892
▁OS	-7893
▁가난	-7894
▁”	-7895
▁연구는	-7896
▁{	-7897
▁읽기	-7898
백을	-7899
▁2002	-7900
▁괜찮은	-7901
센터에서	-7902
▁제공되는	-7903
▁자꾸	-7904
수사	-7905
▁내린	-7906
▁말도	-7907
land	-7908
▁시간과	-7909
▁뷰티	-7910
▁미래에	-7911
▁기대한다	-7912
▁수능	-7913
감으로	-7914
또는	-7915
ric	-7916
▁일요일	-7917
▁꺼내	-7918
색을	-7919
연대	-7920
까지도	-7921
코올	-7922
▁일환으로	-7923
.2%	-7924
★★	-7925
시와	-7926
대통령	-7927
▁출근	-7928
웠던	-7929
▁쇠	-7930
수산	-7931
RA	-7932
▁황금	-7933
▁응시	-7934
해왔다	-7935
▁과도한	-7936
▁맞은	-7937
점검	-7938
▁마시	-7939
하셔야	-7940
▁기대된다	-7941
▁하나님을	-7942
▁_	-7943
▁건강에	-7944
7%	-7945
물과	-7946
북한	-7947
▁돕는	-7948
▁족	-7949
amp	-7950
▁vs	-7951
기반	-7952
▁피부에	-7953
트라	-7954
소로	-7955
▁내장	-7956
ize	-7957
▁DB	-7958
민이	-7959
▁선출	-7960
▁보다는	-7961
짜리	-7962
▁직면	-7963
▁동아	-7964
혔다	-7965
▁있는가	-7966
▁합리적인	-7967
페이지를	-7968
릭스	-7969
▁일관	-7970
▁적당	-7971
▁낫	-7972
▁상생	-7973
▁포럼	-7974
블릿	-7975
▁후보는	-7976
뉴시스	-7977
▁수신	-7978
▁전반적인	-7979
▁먹어	-7980
▁보여주고	-7981
일까요	-7982
▁’	-7983
후보	-7984
▁압도	-7985
▁월요일	-7986
진과	-7987
700	-7988
진단	-7989
▁김동	-7990
▁주변에	-7991
▁다채	-7992
▁설득	-7993
▁충청	-7994
▁사례를	-7995
장치	-7996
▁평택	-7997
소방	-7998
▁미국과	-7999
▁나가는	-8000
▁보인	-8001
▁라이트	-8002
▁이른바	-8003
앵커	-8004
▁막기	-8005
roid	-8006
관계를	-8007
인도	-8008
▁레이저	-8009
거리는	-8010
▁비싸	-8011
▁비싼	-8012
▁으	-8013
▁무척	-8014
▁자궁	-8015
이거나	-8016
▁카운	-8017
▁기반의	-8018
▁조건을	-8019
NG	-8020
▁윌	-8021
▁믿을	-8022
▁봐도	-8023
▁콜라	-8024
▁대우	-8025
▁자는	-8026
퍼펙트	-8027
마케팅	-8028
협약	-8029
▁LA	-8030
▁떨어지는	-8031
▁다수	-8032
▁인터넷을	-8033
▁달콤	-8034
▁했다고	-8035
▁전역	-8036
46	-8037
▁작성한	-8038
▁그들	-8039
됐습니다	-8040
▁물러	-8041
▁주문이	-8042
▁기소	-8043
▁쿨	-8044
세는	-8045
▁한국에	-8046
▁성공적인	-8047
▁최신버전	-8048
▁찾은	-8049
▁합성	-8050
교육청	-8051
▁구경	-8052
▁은퇴	-8053
▁거친	-8054
▁이명	-8055
▁확실한	-8056
▁않는다는	-8057
▁불어	-8058
~5	-8059
▁트래	-8060
높은	-8061
▁보내고	-8062
8%	-8063
DP	-8064
▁여기에서	-8065
▁붙여	-8066
니까요	-8067
-30	-8068
▁마리	-8069
현장	-8070
▁공직	-8071
해외	-8072
▁He	-8073
▁시기에	-8074
저히	-8075
호와	-8076
▁톤	-8077
▁명칭	-8078
▁리스크	-8079
▁일제	-8080
이던	-8081
▁대북	-8082
▁턱	-8083
▁미칠	-8084
▁반환	-8085
▁크루	-8086
이슈	-8087
▁포괄	-8088
▁관점에서	-8089
▁취향	-8090
▁텔레	-8091
▁42	-8092
▁구멍	-8093
▁태그	-8094
ights	-8095
▁GS	-8096
][	-8097
인트를	-8098
▁업종	-8099
▁잠깐	-8100
박물관	-8101
▁이후에	-8102
포럼	-8103
▁수여	-8104
청년	-8105
▁운영을	-8106
▁여행자들이	-8107
▁강하게	-8108
터는	-8109
재로	-8110
월에는	-8111
역사	-8112
내에	-8113
.’	-8114
▁대상이	-8115
▁올렸다	-8116
▁승리를	-8117
▁와이	-8118
▁저작	-8119
▁과정이	-8120
▁고전	-8121
▁공략	-8122
▁신뢰할	-8123
▁없으면	-8124
▁|[	-8125
공급	-8126
하기가	-8127
규칙	-8128
▁인하	-8129
수익	-8130
인당	-8131
▁치과	-8132
▁comp	-8133
▁편리한	-8134
러진	-8135
▁스피커	-8136
ull	-8137
▁구미	-8138
▁않았지만	-8139
▁밖으로	-8140
▁연료	-8141
▁증가한	-8142
▁진행됐다	-8143
▁보게	-8144
▁현대차	-8145
▁다양하게	-8146
키스	-8147
판이	-8148
IV	-8149
방에	-8150
▁전통적인	-8151
화하고	-8152
▁채무	-8153
제보	-8154
▁북한이	-8155
▁배터	-8156
▁설탕	-8157
▁되면서	-8158
▁수급	-8159
▁오리	-8160
AG	-8161
▁gu	-8162
▁마켓	-8163
공장	-8164
▁소외	-8165
교육을	-8166
나고	-8167
링을	-8168
▁확인하는	-8169
▁율	-8170
▁크리스마스	-8171
에이	-8172
부에서	-8173
▁Korea	-8174
산은	-8175
▁후속	-8176
버린	-8177
르트	-8178
▁여겨	-8179
Ch	-8180
▁산업의	-8181
▁다릅니다	-8182
▁요소를	-8183
86	-8184
펀드	-8185
▁탑승	-8186
적이며	-8187
▁위험한	-8188
겠네요	-8189
▁보충	-8190
에게도	-8191
▁점이다	-8192
▁파워볼	-8193
▁래	-8194
▁출고	-8195
민족	-8196
방지	-8197
eo	-8198
▁붓	-8199
▁금요일	-8200
▁김민	-8201
▁읽는	-8202
달라고	-8203
▁이상으로	-8204
▁서울대	-8205
▁칩	-8206
출처	-8207
▁가맹	-8208
▁허브	-8209
이므로	-8210
▁사업은	-8211
!"	-8212
주문	-8213
▁컬렉션	-8214
상에서	-8215
▁메시지	-8216
▁어쩔	-8217
▁객관	-8218
▁옳	-8219
▁랭	-8220
▁여러분이	-8221
▁많았다	-8222
▁판촉	-8223
▁경쟁력을	-8224
안녕하세요	-8225
정규	-8226
합격	-8227
▁바디	-8228
3%	-8229
▁time	-8230
▁작가의	-8231
▁벤처	-8232
▁관계가	-8233
▁색깔	-8234
▁보너스	-8235
▁전설	-8236
▁하는지	-8237
▁아래에	-8238
▁고생	-8239
▁드래	-8240
▁prepar	-8241
▁날아	-8242
▁프로그래	-8243
자들과	-8244
▁척추	-8245
▁되었고	-8246
▁네가	-8247
▁등등	-8248
렉스	-8249
로마	-8250
▁사건이	-8251
▁작성자	-8252
▁커다란	-8253
▁퀄	-8254
나와	-8255
▁공화	-8256
▁당황	-8257
해졌다	-8258
▁공고	-8259
▁배울	-8260
콜걸후기	-8261
ivers	-8262
가며	-8263
▁김현	-8264
세에	-8265
차별	-8266
▁지능	-8267
▁추진하고	-8268
실로	-8269
모텔	-8270
할까	-8271
▁고기	-8272
▁반발	-8273
▁합법	-8274
▁과학기술	-8275
▁닥	-8276
▁횟	-8277
매일	-8278
▁부과될	-8279
▁연봉	-8280
▁포도	-8281
▁단위	-8282
▁보편	-8283
▁확신	-8284
환불	-8285
▁김해	-8286
▁해주는	-8287
운전	-8288
품이	-8289
▁마라	-8290
▁신축	-8291
▁und	-8292
▁간편하게	-8293
▁개발에	-8294
bal	-8295
▁웅	-8296
전환	-8297
폴리오	-8298
EA	-8299
▁준비하고	-8300
▁per	-8301
▁메모리	-8302
만명	-8303
▁팀이	-8304
▁피부를	-8305
▁기상	-8306
▁달하는	-8307
▁인하여	-8308
토록	-8309
체로	-8310
▁안전하고	-8311
작성자	-8312
▁워낙	-8313
▁주사	-8314
▁트랙	-8315
▁원내대표	-8316
로가	-8317
▁내외	-8318
부동산	-8319
▁존재하는	-8320
▁효율적인	-8321
▁모험	-8322
일러	-8323
색이	-8324
▁수의	-8325
▁부천	-8326
▁소년	-8327
▁준비가	-8328
▁처음부터	-8329
설계	-8330
▁이지	-8331
▁제조업체	-8332
▁경향이	-8333
▁계기가	-8334
강남	-8335
▁민원	-8336
▁옛날	-8337
▁고객님	-8338
▁시술	-8339
IL	-8340
▁최상의	-8341
▁동영	-8342
▁열매	-8343
▁없었습니다	-8344
▁메이크	-8345
▁서비스에	-8346
▁좌우	-8347
▁상태가	-8348
▁이용자	-8349
71	-8350
▁기아	-8351
▁결승	-8352
▁빠진	-8353
SC	-8354
▁말라	-8355
2014	-8356
행복	-8357
▁거제	-8358
루션	-8359
▁중에서도	-8360
▁형식	-8361
▁서비스의	-8362
▁변형	-8363
사전	-8364
▁알지	-8365
프는	-8366
▁에피	-8367
▁제보	-8368
▁뻔	-8369
을때	-8370
▁둥	-8371
▁전염	-8372
▁데려	-8373
▁물건을	-8374
6%	-8375
▁파라	-8376
▁강릉	-8377
▁몰랐	-8378
▁철도	-8379
게시	-8380
▁하였습니다	-8381
▁공연을	-8382
▁방법입니다	-8383
민은	-8384
이든	-8385
조는	-8386
채널	-8387
편의	-8388
ION	-8389
▁시점	-8390
▁아파	-8391
▁생기는	-8392
▁왜냐하면	-8393
▁곱	-8394
유산	-8395
▁변화에	-8396
▁하셨	-8397
▁Br	-8398
▁기대를	-8399
렸던	-8400
받지	-8401
▁맡은	-8402
▁배제	-8403
하더라도	-8404
ha	-8405
▁태어나	-8406
▁동해	-8407
▁구조를	-8408
특히	-8409
▁권리를	-8410
▁찍어	-8411
▁양산	-8412
▁원장	-8413
▁프로그램이	-8414
▁소금	-8415
라이트	-8416
▁것들을	-8417
▁사설	-8418
단과	-8419
▁뭉	-8420
▁활성화를	-8421
▁요인	-8422
야말로	-8423
재가	-8424
평화	-8425
▁핸드폰	-8426
치며	-8427
▁Eng	-8428
▁명절	-8429
분간	-8430
▁막을	-8431
▁Se	-8432
▁경험과	-8433
▁회원님께서는	-8434
공정	-8435
사회의	-8436
ube	-8437
0-	-8438
▁부대	-8439
59	-8440
400	-8441
▁않아서	-8442
▁진심으로	-8443
출장업소	-8444
실험	-8445
▁분산	-8446
천만원	-8447
하라고	-8448
▁높일	-8449
▁부르는	-8450
▁유산	-8451
▁Inst	-8452
작가	-8453
까지의	-8454
▁환자가	-8455
▁완전한	-8456
▁한국인	-8457
련의	-8458
▁브리	-8459
됐고	-8460
▁독점	-8461
▁지시	-8462
▁겹	-8463
▁프로토	-8464
▁기간이	-8465
지원센터	-8466
버그	-8467
▁자라	-8468
▁하나인	-8469
▁전후	-8470
화이트	-8471
▁부담이	-8472
바지	-8473
▁복음	-8474
▁1:1	-8475
▁입원	-8476
법으로	-8477
▁이상한	-8478
메달	-8479
수준	-8480
▁총괄	-8481
▁게임이	-8482
ump	-8483
▁이름은	-8484
▁시험대비	-8485
▁조달	-8486
▁쏠	-8487
▁있거나	-8488
▁하신	-8489
▁전문의	-8490
▁참고로	-8491
소설	-8492
임대	-8493
▁부적	-8494
▁한계	-8495
선에서	-8496
시킵니다	-8497
끄러	-8498
▁늘어난	-8499
pen	-8500
▁트레	-8501
▁하드웨어	-8502
유통	-8503
들이다	-8504
터의	-8505
▁모래	-8506
▁재발	-8507
▁나타납니다	-8508
7)	-8509
▁펌	-8510
사건	-8511
▁Mar	-8512
▁갖춰	-8513
▁pl	-8514
등포	-8515
▁사내	-8516
▁수업을	-8517
▁시험을	-8518
▁사이트는	-8519
아직	-8520
▁물었다	-8521
▁참여해	-8522
MW	-8523
하셔서	-8524
포먼	-8525
▁동향	-8526
▁팽	-8527
▁자금을	-8528
▁사진은	-8529
하가	-8530
▁공약	-8531
LA	-8532
▁건의	-8533
서류	-8534
▁한해	-8535
▁동시	-8536
▁지방자치	-8537
use	-8538
▁폴리	-8539
▁생각할	-8540
▁실습	-8541
II	-8542
박한	-8543
스런	-8544
▁법령	-8545
▁탄탄	-8546
▁시키	-8547
시간이	-8548
▁없다면	-8549
73	-8550
하셨습니다	-8551
학의	-8552
▁뒤집	-8553
람회	-8554
▁씨가	-8555
▁심의	-8556
▁여드	-8557
▁치킨	-8558
▁줄이고	-8559
OO	-8560
드리는	-8561
그런	-8562
ays	-8563
브랜드	-8564
농협	-8565
▁아이들의	-8566
▁멕시코	-8567
▁옹	-8568
▁공시	-8569
min	-8570
▁단속	-8571
서도	-8572
▁빛을	-8573
▁주주	-8574
▁문제의	-8575
▁그러니까	-8576
▁통보	-8577
evelop	-8578
▁체포	-8579
che	-8580
oth	-8581
▁때에	-8582
▁최저가와	-8583
▁음식점	-8584
▁Cloud	-8585
▁목포	-8586
▁일러스트	-8587
▁정상적인	-8588
▁이르는	-8589
▁기능은	-8590
▁번에	-8591
▁안양	-8592
▁아메	-8593
키로	-8594
해지	-8595
▁혈관	-8596
▁아이디어를	-8597
공을	-8598
▁금연	-8599
▁연동	-8600
▁주시	-8601
▁나라의	-8602
▁출장시에	-8603
움과	-8604
▁의지	-8605
▁태양광	-8606
.....	-8607
면의	-8608
red	-8609
▁ST	-8610
희는	-8611
▁시티	-8612
▁분위기가	-8613
▁박정	-8614
▁이하의	-8615
▁진주	-8616
▁교육과	-8617
▁【	-8618
▁삽입	-8619
▁이렇	-8620
▁플로	-8621
▁평범한	-8622
그라	-8623
셔널	-8624
▁역사적	-8625
달라	-8626
▁허위	-8627
시설을	-8628
.3%	-8629
만은	-8630
▁고발	-8631
▁악성	-8632
양주	-8633
▁모르고	-8634
▁공부를	-8635
▁설정을	-8636
MB	-8637
▁브라질	-8638
하나요	-8639
▁수를	-8640
▁푸른	-8641
▁시설을	-8642
▁당부했다	-8643
▁탱	-8644
▁어쩌면	-8645
▁국내에서	-8646
▁트랜	-8647
▁아이돌	-8648
▁180	-8649
▁more	-8650
▁ᄋ	-8651
.21	-8652
▁보호를	-8653
▁시작합니다	-8654
▁없게	-8655
▁참여를	-8656
ᄏᄏᄏᄏᄏᄏᄏᄏ	-8657
스카	-8658
▁고마	-8659
▁의류	-8660
▁상관없이	-8661
bo	-8662
▁오늘도	-8663
메뉴	-8664
즈의	-8665
▁그간	-8666
▁이외에도	-8667
받았다	-8668
▁나누어	-8669
▁흥미로운	-8670
데모	-8671
▁하느	-8672
▁5000	-8673
▁쓰레기	-8674
하루	-8675
▁기록한	-8676
▁아이들	-8677
HD	-8678
▁학생들은	-8679
▁답답	-8680
원하는	-8681
됐으며	-8682
▁않았던	-8683
자로서	-8684
▁협력을	-8685
▁댓글목록	-8686
PT	-8687
▁워싱턴	-8688
▁인텔	-8689
▁전라	-8690
▁맥주	-8691
▁기술과	-8692
▁같았다	-8693
▁뮤직	-8694
▁권고	-8695
▁양의	-8696
마리	-8697
▁시켜	-8698
▁깜짝	-8699
▁해결하기	-8700
노트	-8701
비트	-8702
▁기온	-8703
▁드론	-8704
▁몰아	-8705
▁임직원	-8706
▁선두	-8707
로에	-8708
할때	-8709
▁출석	-8710
▁흐름을	-8711
▁살펴보면	-8712
▁편안하게	-8713
▁어우	-8714
▁자문	-8715
▁전문가들은	-8716
됨에	-8717
ife	-8718
▁데일리	-8719
▁굽	-8720
푸드	-8721
라이브	-8722
▁용산	-8723
선과	-8724
atch	-8725
▁장점이	-8726
상거래	-8727
소통	-8728
▁마약	-8729
▁준비하는	-8730
▁컸	-8731
▁양도	-8732
라가	-8733
성도	-8734
▁저희가	-8735
타이마사지	-8736
▁가성	-8737
▁철저한	-8738
▁다음날	-8739
▁드라이버	-8740
이랑	-8741
학기	-8742
시간을	-8743
▁디스크	-8744
되도록	-8745
▁일종의	-8746
▁한국은	-8747
▁보건복지	-8748
▁아니라는	-8749
▁차이를	-8750
허가	-8751
으로서의	-8752
단으로	-8753
장인	-8754
자본	-8755
ility	-8756
도서관	-8757
▁주셔서	-8758
루미	-8759
▁상임	-8760
▁폭력	-8761
▁의지를	-8762
▁기운	-8763
여명이	-8764
▁탁월한	-8765
면적	-8766
▁바르	-8767
됐다고	-8768
▁덤프자료	-8769
▁목소리	-8770
▁시나리오	-8771
mer	-8772
▁축적	-8773
ations	-8774
▁튼	-8775
▁육아	-8776
▁신속하게	-8777
▁편리하게	-8778
▁협상	-8779
▁델	-8780
파워	-8781
▁가라	-8782
▁사업의	-8783
.16	-8784
▁Be	-8785
▁토큰	-8786
▁스트리밍	-8787
재는	-8788
▁배우는	-8789
▁웹툰	-8790
▁사법	-8791
▁강사	-8792
▁밀어	-8793
▁느끼고	-8794
왔던	-8795
▁줄일	-8796
▁직전	-8797
▁카톡	-8798
앞으로도	-8799
▁과정에	-8800
▁이들을	-8801
결정	-8802
▁현행	-8803
하자면	-8804
전지	-8805
ery	-8806
▁유대	-8807
▁52	-8808
2011	-8809
그리고	-8810
▁덤프문제	-8811
영어	-8812
▁담보	-8813
▁영입	-8814
ience	-8815
▁일주일	-8816
교사	-8817
▁미용	-8818
▁모습은	-8819
구로	-8820
들기	-8821
▁미래의	-8822
대학원	-8823
▁과정은	-8824
▁이해를	-8825
각을	-8826
▁서민	-8827
▁경우에도	-8828
리콘	-8829
▁원인을	-8830
장관	-8831
▁발의	-8832
였는데	-8833
▁신장	-8834
▁휴식	-8835
▁개인적인	-8836
스타빗	-8837
▁일어나는	-8838
▁감시	-8839
등록번호	-8840
▁환자는	-8841
▁탈출	-8842
내며	-8843
특별시	-8844
▁선수가	-8845
▁나면	-8846
▁노래를	-8847
법과	-8848
세한	-8849
▁소개합니다	-8850
▁서초	-8851
작은	-8852
오니	-8853
62	-8854
▁형제	-8855
▁아나	-8856
▁일일	-8857
▁진행한	-8858
시장의	-8859
▁포털	-8860
▁전체를	-8861
▁4,	-8862
▁발음	-8863
▁저를	-8864
▁랩	-8865
현실	-8866
▁1.5	-8867
▁사이트의	-8868
▁킹	-8869
였지만	-8870
함으로	-8871
▁유지할	-8872
▁핑크	-8873
▁깨끗한	-8874
제약	-8875
▁증정	-8876
▁광고를	-8877
▁미국은	-8878
국장	-8879
▁거리두	-8880
▁선정된	-8881
▁알레르기	-8882
▁호환	-8883
▁알코올	-8884
echn	-8885
▁작곡	-8886
▁지갑	-8887
▁59	-8888
시험을	-8889
당에서	-8890
▁기존에	-8891
▁〈	-8892
MP	-8893
▁멘토	-8894
▁무리	-8895
▁개최했다	-8896
▁피고	-8897
리뷰	-8898
▁테러	-8899
▁Ass	-8900
▁없어요	-8901
▁환영합니다	-8902
▁겪는	-8903
▁매체	-8904
소송	-8905
▁CD	-8906
악의	-8907
▁김치	-8908
▁미안	-8909
▁매니저	-8910
-18	-8911
▁현상이	-8912
4%	-8913
▁포트폴리오	-8914
▁고소	-8915
▁통상	-8916
▁선별	-8917
▁판매하는	-8918
▁실망	-8919
ould	-8920
▁고통을	-8921
▁정말로	-8922
▁고도	-8923
▁분할	-8924
ipt	-8925
▁셋째	-8926
으시면	-8927
골프	-8928
스레	-8929
▁3000	-8930
마가	-8931
▁당초	-8932
▁고객님의	-8933
▁짝	-8934
일랜드	-8935
,900	-8936
▁소중	-8937
▁기업은	-8938
▁군산	-8939
▁클리	-8940
▁귀여운	-8941
면으로	-8942
roup	-8943
▁1990	-8944
▁거절	-8945
대사	-8946
▁app	-8947
▁(2	-8948
▁죄송	-8949
▁As	-8950
▁Co	-8951
41	-8952
조사를	-8953
▁얼굴이	-8954
▁도덕	-8955
▁의미한다	-8956
▁기술의	-8957
보험료	-8958
▁Ser	-8959
▁썰	-8960
▁할까	-8961
▁미세먼지	-8962
▁do	-8963
pg	-8964
분은	-8965
평을	-8966
▁지원할	-8967
▁솔로	-8968
▁대략	-8969
▁수동	-8970
ient	-8971
▁하네요	-8972
▁Gu	-8973
▁아이의	-8974
▁고민을	-8975
공무원	-8976
▁개선을	-8977
고자	-8978
▁수비	-8979
hone	-8980
밀리	-8981
ina	-8982
▁딜러	-8983
▁합동	-8984
이도	-8985
▁급격	-8986
▁상속	-8987
▁피트니스	-8988
▁뚜렷	-8989
▁혁명	-8990
low	-8991
▁달아	-8992
▁계정을	-8993
▁메이커	-8994
▁제고	-8995
▁사례가	-8996
▁움직이는	-8997
▁□	-8998
▁골목	-8999
감에	-9000
-22	-9001
▁석유	-9002
▁경우를	-9003
뉴얼	-9004
장비	-9005
패드	-9006
▁들어갈	-9007
▁케이스	-9008
▁상용	-9009
▁URL	-9010
▁일으키	-9011
중의	-9012
▁파견	-9013
▁홈페이지를	-9014
로워	-9015
▁수확	-9016
▁자발	-9017
▁다짐	-9018
▁조립	-9019
▁규모가	-9020
▁치즈	-9021
▁소재로	-9022
▁지어	-9023
금으로	-9024
▁어디에	-9025
▁카테고리	-9026
?’	-9027
▁증상을	-9028
층의	-9029
▁집으로	-9030
권도	-9031
enter	-9032
여름	-9033
▁창을	-9034
▁물품	-9035
▁비교해	-9036
ari	-9037
▁학원	-9038
▁태블릿	-9039
▁갤러리	-9040
▁퍼포먼	-9041
▁공동체	-9042
▁정한	-9043
▁한참	-9044
6)	-9045
등이	-9046
당에	-9047
소스	-9048
▁인간이	-9049
▁드리겠습니다	-9050
▁했을	-9051
▁시험덤프	-9052
▁2001	-9053
눈에	-9054
장한	-9055
▁Col	-9056
▁떠난	-9057
▁도서관	-9058
yn	-9059
▁계란	-9060
▁▼	-9061
ier	-9062
▁Ag	-9063
라이프	-9064
숙한	-9065
▁질의	-9066
영의	-9067
▁모음	-9068
▁아끼	-9069
▁문화예술	-9070
▁발을	-9071
▁용량	-9072
▁시작해	-9073
▁재활용	-9074
▁에너지를	-9075
주지	-9076
▁출생	-9077
토론	-9078
▁1~2	-9079
▁궁극	-9080
▁어려움이	-9081
▁코너	-9082
▁손쉽게	-9083
▁홀로	-9084
절차	-9085
▁AR	-9086
▁인민	-9087
▁웃음을	-9088
▁->	-9089
▁개척	-9090
.19	-9091
▁퇴직	-9092
연한	-9093
▁마크	-9094
▁바라는	-9095
▁얘기를	-9096
▁오랜만에	-9097
회계	-9098
경북	-9099
▁콜걸	-9100
▁감독이	-9101
▁기술은	-9102
진한	-9103
▁서명	-9104
▁즐겁게	-9105
▁궁금한	-9106
▁가족이	-9107
에게서	-9108
천원	-9109
라리	-9110
▁my	-9111
▁럭셔	-9112
▁둘러싼	-9113
▁시스템이	-9114
▁감독의	-9115
▁그녀를	-9116
신한	-9117
▁열렸다	-9118
5)	-9119
기업의	-9120
▁두려워	-9121
▁설치된	-9122
▁주변의	-9123
ality	-9124
ownload	-9125
란색	-9126
▁과목	-9127
▁행위를	-9128
▁벼	-9129
▁혁신적인	-9130
58	-9131
▁하위	-9132
군에	-9133
▁도모	-9134
▁경기에서	-9135
그림	-9136
차량	-9137
▁이끄	-9138
리포니아	-9139
▁이태	-9140
다보니	-9141
▁강좌	-9142
▁관해	-9143
▁이영	-9144
국에서	-9145
머리	-9146
▁알리	-9147
▁정성	-9148
하네요	-9149
▁주제에	-9150
▁지원한다	-9151
모가	-9152
플릿	-9153
ates	-9154
▁눈으로	-9155
스닷컴	-9156
▁이해하기	-9157
▁소규모	-9158
▁삶에	-9159
▁클라이언	-9160
계좌	-9161
▁|▲	-9162
▁흰색	-9163
▁거죠	-9164
▁쿠팡	-9165
▁두께	-9166
▁어울리는	-9167
▁법을	-9168
▁싶지	-9169
▁키워드	-9170
▁중계	-9171
▁평창	-9172
오기	-9173
▁신임	-9174
센스	-9175
▁감염증	-9176
▁누군가	-9177
판에	-9178
▁못한다	-9179
▁안되는	-9180
과장	-9181
▁미국이	-9182
4,	-9183
▁인터뷰에서	-9184
▁성공을	-9185
형으로	-9186
티지	-9187
▁목적을	-9188
▁시스템의	-9189
▁5%	-9190
보안	-9191
크림	-9192
▁들은	-9193
▁세무	-9194
▁정신을	-9195
인력	-9196
▁손흥	-9197
▁아가	-9198
▁양식	-9199
▁VR	-9200
▁공산	-9201
▁나이가	-9202
렌트	-9203
▁않으니	-9204
▁야생	-9205
▁룰렛	-9206
▁일도	-9207
스토어	-9208
▁입장에서	-9209
▁마음의	-9210
lobal	-9211
▁진행되고	-9212
▁43	-9213
▁맞지	-9214
▁저소득	-9215
스트라	-9216
▁멍	-9217
▁거두	-9218
▁넷플	-9219
▁피해자	-9220
너무	-9221
노인	-9222
드린다	-9223
▁위원장은	-9224
▁궤	-9225
▁휴식을	-9226
▁입사	-9227
중심	-9228
▁게임에	-9229
▁우리나라의	-9230
▁김경	-9231
▁인증시험	-9232
▁번의	-9233
▁추구하는	-9234
파산	-9235
▁커뮤니케이션	-9236
ai	-9237
▁진지	-9238
▁같아서	-9239
▁만든다	-9240
▁입국	-9241
▁구성원	-9242
▁수행하는	-9243
▁선택합니다	-9244
▁On	-9245
ices	-9246
▁API	-9247
▁열린다	-9248
야합니다	-9249
▁그와	-9250
액의	-9251
TT	-9252
▁터키	-9253
▁대다	-9254
▁PR	-9255
면에서	-9256
개인회생	-9257
irect	-9258
▁첫번째	-9259
····	-9260
▁거리를	-9261
▁상태에	-9262
▁희망을	-9263
▁마우스	-9264
▁증가했다	-9265
▁많지	-9266
테이너	-9267
▁린	-9268
▁길게	-9269
▁경과	-9270
▁보드	-9271
▁초보	-9272
▁2~3	-9273
팩트	-9274
▁이다	-9275
▁쪽으로	-9276
▁공부자료	-9277
▁겨우	-9278
▁전체적으로	-9279
43	-9280
sw	-9281
경의	-9282
▁통증이	-9283
▁study	-9284
arn	-9285
▁안동	-9286
oT	-9287
쿠폰	-9288
▁알파	-9289
▁생각했다	-9290
▁툴	-9291
▁여성이	-9292
ology	-9293
HE	-9294
▁정도가	-9295
▁병행	-9296
▁술을	-9297
▁위안	-9298
▁의견이	-9299
▁앓	-9300
▁톡	-9301
치로	-9302
▁Comp	-9303
▁내지	-9304
타를	-9305
▁간단히	-9306
▁화가	-9307
▁마시고	-9308
▁콘서트	-9309
▁태풍	-9310
▁이루어진	-9311
▁강연	-9312
▁볼륨	-9313
▁번째로	-9314
▁시원한	-9315
위원회의	-9316
01	-9317
▁클래스	-9318
▁has	-9319
▁정기적으로	-9320
▁효율적으로	-9321
LE	-9322
클래	-9323
모바일	-9324
▁공을	-9325
이제	-9326
▁pass	-9327
.4%	-9328
▁NH	-9329
베이터	-9330
▁농구	-9331
▁관리하는	-9332
▁분은	-9333
▁프로그램에	-9334
▁상품이	-9335
이론	-9336
▁가해	-9337
▁시작했습니다	-9338
▁의하면	-9339
▁회사에	-9340
▁보았다	-9341
▁아픈	-9342
▁la	-9343
▁시가	-9344
▁대출을	-9345
현은	-9346
고등학교	-9347
▁있을지	-9348
▁만듭니다	-9349
진에	-9350
▁머니	-9351
arant	-9352
층에	-9353
하기는	-9354
▁성취	-9355
▁질병의	-9356
회복	-9357
인드	-9358
나갈	-9359
▁인턴	-9360
▁구매한	-9361
▁아니라고	-9362
▁보여줍니다	-9363
▁깃	-9364
▁붕괴	-9365
권과	-9366
▁오빠	-9367
▁되어야	-9368
▁교통사고	-9369
활성	-9370
▁위성	-9371
▁재고	-9372
▁41	-9373
▁김진	-9374
주면	-9375
▁노력이	-9376
저널	-9377
한데	-9378
회와	-9379
afe	-9380
▁호기	-9381
▁생명을	-9382
▁에피소	-9383
프라이	-9384
▁sc	-9385
▁싸움	-9386
▁의약품	-9387
▁껍	-9388
▁일부는	-9389
▁회장이	-9390
2-	-9391
▁플러그	-9392
증과	-9393
▁믿는	-9394
▁높게	-9395
▁생일	-9396
선생	-9397
rap	-9398
▁저희는	-9399
▁보냈	-9400
▁하는데요	-9401
▁화상	-9402
▁dumps	-9403
실히	-9404
▁Mac	-9405
▁나타날	-9406
수정	-9407
레이크	-9408
마의	-9409
▁MC	-9410
>,	-9411
▁이겨	-9412
▁소상공인	-9413
▁정상회담	-9414
되는데	-9415
▁퀴	-9416
지인	-9417
▁포켓	-9418
▁감성	-9419
▁바라보는	-9420
▁MB	-9421
었다는	-9422
▁지원합니다	-9423
▁결의	-9424
▁고구	-9425
▁시작한다	-9426
렉트	-9427
▁패러	-9428
▁전까지	-9429
▁대행	-9430
▁배우고	-9431
ustom	-9432
경우	-9433
변화	-9434
▁불확	-9435
▁cl	-9436
▁점도	-9437
▁표기	-9438
되지만	-9439
▁등이다	-9440
▁특성상	-9441
itt	-9442
한국당	-9443
▁좋겠습니다	-9444
버리	-9445
하죠	-9446
▁관계자	-9447
▁긍정적	-9448
개정	-9449
총장	-9450
▁땐	-9451
▁#[	-9452
생물	-9453
철도	-9454
▁이종	-9455
▁김대	-9456
▁정밀	-9457
선언	-9458
함은	-9459
▁음주	-9460
▁그것도	-9461
▁호텔스닷컴	-9462
▁그릇	-9463
▁기사가	-9464
동구	-9465
.14	-9466
▁고맙	-9467
▁박스	-9468
▁일정을	-9469
▁네이	-9470
▁놓은	-9471
▁유로	-9472
▁뛰어나	-9473
바구니	-9474
▁ᅵ	-9475
령을	-9476
▁이해가	-9477
▁Booking	-9478
빌딩	-9479
▁안산	-9480
▁똑같은	-9481
▁활동이	-9482
▁컨셉	-9483
▁팀을	-9484
▁다루는	-9485
▁전략적	-9486
▁보아	-9487
석의	-9488
수입	-9489
▁남부	-9490
.20	-9491
▁나쁘	-9492
되게	-9493
▁80%	-9494
▁많아서	-9495
시장에서	-9496
복합	-9497
▁사회에	-9498
▁김재	-9499
리얼	-9500
▁의결	-9501
이야기	-9502
▁된다면	-9503
▁PS	-9504
시리즈	-9505
▁46	-9506
▁줄여	-9507
▁저하	-9508
????	-9509
▁설교	-9510
▁70%	-9511
-14	-9512
▁기억이	-9513
▁하이브리	-9514
▁일부를	-9515
산업의	-9516
▁관계없이	-9517
수량	-9518
▁so	-9519
디션	-9520
실의	-9521
▁실업	-9522
▁필요하다고	-9523
▁글은	-9524
▁얻기	-9525
▁어두운	-9526
▁전문적인	-9527
아래	-9528
ator	-9529
나눔	-9530
▁공중	-9531
억원의	-9532
화한	-9533
▁배가	-9534
레이트	-9535
▁4)	-9536
▁실질적인	-9537
▁휩	-9538
▁곧바로	-9539
▁마늘	-9540
▁먹으면	-9541
NT	-9542
view	-9543
▁피해가	-9544
▁기술적	-9545
▁발병	-9546
▁성도	-9547
▁편성	-9548
.17	-9549
▁적지	-9550
졌던	-9551
mg	-9552
▁유선	-9553
돼야	-9554
속에서	-9555
▁차지하는	-9556
힌다	-9557
▁보여준다	-9558
▁수분	-9559
▁근처에	-9560
▁세계에	-9561
▁우편	-9562
▁이걸	-9563
캠퍼스는	-9564
▁웃음	-9565
▁붙어	-9566
▁개발자	-9567
▁드림	-9568
▁화물	-9569
▁SUV	-9570
▁선포	-9571
기부	-9572
▁중에는	-9573
▁우아	-9574
▁태어난	-9575
▁살해	-9576
▁원료	-9577
THR	-9578
▁확인하세요	-9579
cel	-9580
▁뒤를	-9581
▁원천	-9582
▁해안	-9583
입력	-9584
▁반려동물	-9585
DS	-9586
▁차트	-9587
▁구별	-9588
▁도망	-9589
▁any	-9590
▁곽	-9591
▁아래로	-9592
▁정부와	-9593
▁크리에	-9594
형은	-9595
센터는	-9596
▁2,000	-9597
▁공격을	-9598
▁속도가	-9599
▁아침에	-9600
책임자	-9601
▁넉	-9602
▁갑작	-9603
▁This	-9604
19)	-9605
▁제로	-9606
▁답변을	-9607
▁두번째	-9608
▁한경닷컴	-9609
▁실태	-9610
▁방치	-9611
▁여의도	-9612
eat	-9613
▁장소에서	-9614
▁도구를	-9615
▁수백만	-9616
ino	-9617
음식	-9618
패를	-9619
-16	-9620
▁if	-9621
▁엉덩	-9622
▁신기	-9623
▁곳이다	-9624
▁tv	-9625
분들이	-9626
▁이어지고	-9627
▁택시	-9628
▁싶어요	-9629
▁800	-9630
▁주어진	-9631
▁느껴지는	-9632
▁구원	-9633
▁링	-9634
▁왜곡	-9635
▁국토교통	-9636
수요	-9637
▁부드럽게	-9638
보도	-9639
▁포스코	-9640
빌리티	-9641
자마자	-9642
47	-9643
고도	-9644
▁모터	-9645
▁내용과	-9646
되기도	-9647
회의를	-9648
▁불량	-9649
▁자원봉사	-9650
탄을	-9651
▁담배	-9652
▁곤란	-9653
▁바꿀	-9654
▁플랜	-9655
▁확진자	-9656
▁노무	-9657
▁부회	-9658
▁지내	-9659
▁사용자는	-9660
렸고	-9661
▁47	-9662
▁기간을	-9663
▁광명	-9664
acle	-9665
▁협조	-9666
▁고혈압	-9667
▁기반을	-9668
자고	-9669
▁그러니	-9670
▁00:00	-9671
제조	-9672
arch	-9673
▁다행히	-9674
받침	-9675
망이	-9676
▁소독	-9677
98	-9678
ux	-9679
실은	-9680
▁갈수록	-9681
▁입법	-9682
맛집	-9683
▁그나마	-9684
▁정서	-9685
▁동부	-9686
▁아까	-9687
비보험	-9688
▁New	-9689
▁감사의	-9690
악한	-9691
uc	-9692
▁흙	-9693
▁쓰기	-9694
▁추후	-9695
▁화폐	-9696
▁다니는	-9697
bs	-9698
▁생각은	-9699
▁쿼	-9700
블랙	-9701
비전	-9702
▁조항	-9703
▁팀의	-9704
▁수천	-9705
▁덴	-9706
▁상단	-9707
▁전신	-9708
ange	-9709
▁Play	-9710
▁숫자	-9711
했는지	-9712
.29	-9713
▁강의를	-9714
▁맡고	-9715
대리	-9716
(10	-9717
▁쌓아	-9718
▁슬라이	-9719
▁못했던	-9720
▁기업들이	-9721
▁안타까	-9722
출장서비스	-9723
.7%	-9724
▁이같이	-9725
▁불필	-9726
▁자랑하는	-9727
▁중반	-9728
▁가짜	-9729
디언	-9730
톨릭	-9731
▁but	-9732
▁세련된	-9733
화장	-9734
▁iOS	-9735
▁주소를	-9736
▁야간	-9737
▁어쨌	-9738
▁샀	-9739
▁찍은	-9740
▁태어	-9741
▁높이기	-9742
▁연금	-9743
센트	-9744
▁만드	-9745
PA	-9746
▁부지	-9747
▁가지는	-9748
-23	-9749
▁고무	-9750
▁쉐	-9751
▁권력	-9752
▁높습니다	-9753
방문	-9754
▁간다	-9755
▁발간	-9756
▁전담	-9757
▁발전에	-9758
▁사장은	-9759
▁펀드	-9760
▁불가능한	-9761
▁엔지니어	-9762
▁머리카락	-9763
▁진행될	-9764
▁목욕	-9765
.9%	-9766
▁웨딩	-9767
▁화합	-9768
마일	-9769
믹스	-9770
▁오해	-9771
ND	-9772
▁마침내	-9773
▁에코	-9774
주의를	-9775
42	-9776
디스	-9777
오염	-9778
친다	-9779
▁크레	-9780
안보	-9781
▁털어	-9782
▁시스템은	-9783
국어	-9784
ium	-9785
▁진로	-9786
▁준비한	-9787
▁꺾	-9788
▁김용	-9789
so	-9790
▁캘리포니아	-9791
me	-9792
▁1999	-9793
위해	-9794
▁속으로	-9795
iness	-9796
▁노동자	-9797
▁중개	-9798
▁사업이	-9799
▁유전자	-9800
-17	-9801
▁발효	-9802
formation	-9803
▁몰입	-9804
▁바람이	-9805
발표	-9806
시장은	-9807
텔레콤	-9808
검찰	-9809
분들	-9810
▁이끄는	-9811
셀러	-9812
▁개월	-9813
▁정보통신	-9814
▁살아남	-9815
▁포스터	-9816
▁인원	-9817
▁짚	-9818
공공	-9819
.28	-9820
▁불리	-9821
▁타이어	-9822
▁찾아가	-9823
PD	-9824
▁공익	-9825
거리를	-9826
▁범위를	-9827
▁다채로운	-9828
▁났	-9829
▁기업을	-9830
▁제공하여	-9831
▁스트레스를	-9832
▁괴롭	-9833
▁셔츠	-9834
▁정도는	-9835
cript	-9836
CE	-9837
▁낚시	-9838
▁방송된	-9839
영이	-9840
▁한쪽	-9841
▁열람	-9842
▁재해	-9843
걸이	-9844
upport	-9845
TBC	-9846
▁일정한	-9847
▁생각하면	-9848
▁환상	-9849
▁인생을	-9850
▁연구개발	-9851
▁중구	-9852
▁사고가	-9853
프의	-9854
▁위기를	-9855
-25	-9856
▁올랐	-9857
▁못하게	-9858
▁끝내	-9859
▁나오지	-9860
ᅮᅮ	-9861
▁중동	-9862
전문가	-9863
시험패스	-9864
▁피아	-9865
▁걸려	-9866
▁다름	-9867
▁그렇지만	-9868
uk	-9869
▁용어	-9870
▁통과율	-9871
▁공동으로	-9872
팅을	-9873
▁맡아	-9874
▁빌딩	-9875
샐러	-9876
▁몰려	-9877
ern	-9878
게도	-9879
류의	-9880
도에서	-9881
▁어렵습니다	-9882
lp	-9883
노조	-9884
▁한강	-9885
마는	-9886
▁동양	-9887
2013	-9888
▁없도록	-9889
스텔	-9890
.22	-9891
▁연구에	-9892
음에	-9893
▁남긴	-9894
.26	-9895
▁눈빛	-9896
▁중지	-9897
▁든든	-9898
기에서	-9899
▁문서를	-9900
▁랜드	-9901
▁막아	-9902
▁포지	-9903
elf	-9904
▁최상	-9905
▁참석했다	-9906
▁과감	-9907
▁스포	-9908
▁활용하는	-9909
차게	-9910
▁웨이	-9911
대한민국	-9912
▁이은	-9913
▁상태다	-9914
▁않다는	-9915
▁NS	-9916
히며	-9917
▁묘사	-9918
행동	-9919
ype	-9920
▁논쟁	-9921
▁자동화	-9922
▁현장을	-9923
데믹	-9924
▁살려	-9925
isco	-9926
▁정작	-9927
했었다	-9928
▁회의를	-9929
▁나타내는	-9930
재판	-9931
▁글이	-9932
▁값을	-9933
▁줄이는	-9934
▁대표이사	-9935
pr	-9936
▁아이들을	-9937
▁엔터테인먼트	-9938
▁오지	-9939
▁원활한	-9940
주와	-9941
▁가족의	-9942
▁체인	-9943
▁않았고	-9944
변경	-9945
▁잡은	-9946
▁이같은	-9947
▁이모	-9948
▁차지했다	-9949
82	-9950
▁생각에	-9951
▁작업이	-9952
▁헌신	-9953
▁회사를	-9954
▁km	-9955
▁칼로	-9956
▁사운드	-9957
됐던	-9958
▁통찰	-9959
▁ro	-9960
▁적용됩니다	-9961
다보	-9962
.27	-9963
▁배운	-9964
▁콤	-9965
년째	-9966
▁일대	-9967
09	-9968
NC	-9969
스틱	-9970
▁밴드	-9971
▁빼앗	-9972
▁성별	-9973
전용	-9974
▁때의	-9975
▁조지	-9976
보다도	-9977
평등	-9978
주인	-9979
▁광역	-9980
▁톱	-9981
티즌	-9982
▁로고	-9983
▁시급	-9984
스럽고	-9985
▁장기간	-9986
가치	-9987
하라는	-9988
대응	-9989
▁프라	-9990
▁경기가	-9991
▁유아용	-9992
▁am	-9993
▁급속	-9994
▁서양	-9995
▁오리지	-9996
목이	-9997
시청	-9998
이런	-9999
▁세션	-10000
▁갈아	-10001
▁살인	-10002
▁호응	-10003
▁돌입	-10004
▁강화를	-10005
▁한때	-10006
막을	-10007
ts	-10008
▁예산을	-10009
재의	-10010
졌다고	-10011
었으며	-10012
.13	-10013
건으로	-10014
▁선호하는	-10015
▁뻗	-10016
▁원인은	-10017
▁강요	-10018
▁자신들의	-10019
고용	-10020
과도	-10021
커뮤니	-10022
▁슬로	-10023
▁쓰지	-10024
▁40%	-10025
ven	-10026
했다면	-10027
▁특징이다	-10028
▁사역	-10029
▁아쉽	-10030
▁앞둔	-10031
▁평점	-10032
인간	-10033
플란	-10034
▁출마	-10035
▁자율주행	-10036
▁극단	-10037
▁김지	-10038
▁해운	-10039
▁교정	-10040
▁케어	-10041
▁다하겠다	-10042
가정	-10043
함께	-10044
▁퀄리티	-10045
▁심화	-10046
▁III	-10047
▁작품은	-10048
▁해피캠퍼스는	-10049
립을	-10050
▁선택하고	-10051
▁하나님께서	-10052
커스	-10053
▁경매	-10054
▁대외	-10055
▁서구	-10056
커피	-10057
iel	-10058
▁고지	-10059
▁속의	-10060
▁시뮬	-10061
해주고	-10062
베스트	-10063
▁일방	-10064
▁할아버	-10065
▁촛	-10066
urch	-10067
.24	-10068
▁해킹	-10069
RI	-10070
▁열기	-10071
▁구리	-10072
켰다	-10073
▁여행객	-10074
퍼런스	-10075
투표	-10076
▁음반	-10077
▁투여	-10078
olut	-10079
▁적용된	-10080
▁읽을	-10081
시킨다	-10082
▁2.5	-10083
▁반응이	-10084
▁트렌드	-10085
▁제도를	-10086
여러	-10087
▁이해하는	-10088
▁HP	-10089
이라서	-10090
.6%	-10091
▁열정	-10092
?!	-10093
나를	-10094
▁페이지를	-10095
▁걸린	-10096
▁커지고	-10097
례를	-10098
▁조직의	-10099
▁시민들의	-10100
210	-10101
▁매트	-10102
▁용이	-10103
▁답을	-10104
공헌	-10105
▁생애	-10106
▁표현을	-10107
▁바깥	-10108
▁개념을	-10109
▁모를	-10110
▁이젠	-10111
▁놓치지	-10112
▁정해진	-10113
▁하다가	-10114
증명	-10115
▁추첨	-10116
▁호텔의	-10117
재해	-10118
▁연수	-10119
▁풀이	-10120
▁드리고	-10121
▁자신만의	-10122
▁로컬	-10123
▁받으며	-10124
▁실리콘	-10125
▁강화하고	-10126
변호	-10127
▁프런트	-10128
▁그레이	-10129
▁노력하겠다	-10130
▁엿	-10131
머신	-10132
▁제공하며	-10133
▁누락	-10134
렸을	-10135
▁고수	-10136
▁야채	-10137
ily	-10138
▁돼지	-10139
▁상의	-10140
5000	-10141
▁마시기	-10142
▁플레이어가	-10143
세탁	-10144
▁했어요	-10145
▁포인트를	-10146
▁정권	-10147
▁고려하여	-10148
▁인상을	-10149
▁회원이	-10150
우드	-10151
▁바쁜	-10152
▁원작	-10153
▁녹음	-10154
▁보라	-10155
천안	-10156
▁십자가	-10157
▁성명	-10158
▁유래	-10159
▁들면	-10160
▁퓨	-10161
▁냉동	-10162
▁그런지	-10163
피탈	-10164
NUM	-10165
▁간에	-10166
▁되길	-10167
▁행운	-10168
프가	-10169
▁도메인	-10170
▁거론	-10171
▁부딪	-10172
▁스캔	-10173
▁포착	-10174
▁이곳에서	-10175
▁가족과	-10176
포스트	-10177
감염	-10178
견을	-10179
▁인기있는	-10180
▁SM	-10181
▁동성	-10182
우의	-10183
5,	-10184
▁Im	-10185
▁그렇다	-10186
▁든다	-10187
▁오고	-10188
▁처럼	-10189
.8%	-10190
fir	-10191
pd	-10192
위와	-10193
▁늦게	-10194
▁Web	-10195
최신버전	-10196
QL	-10197
▁Manag	-10198
▁사각	-10199
▁자부	-10200
어지는	-10201
▁셔틀	-10202
▁성공한	-10203
거진	-10204
▁분들께	-10205
▁후보가	-10206
▁백업	-10207
▁이사회	-10208
now	-10209
▁명을	-10210
▁중의	-10211
▁거다	-10212
▁재현	-10213
▁폼	-10214
호선	-10215
▁장치를	-10216
▁가만	-10217
▁땅에	-10218
▁시달	-10219
▁페스티벌	-10220
색의	-10221
▁매도	-10222
▁Act	-10223
▁방문한	-10224
▁한번에	-10225
▁양파	-10226
▁누릴	-10227
▁인적	-10228
▁교수가	-10229
▁있으신	-10230
▁하나하나	-10231
▁사양	-10232
▁여야	-10233
▁바이든	-10234
▁보육	-10235
▁이야기는	-10236
▁대학원	-10237
▁알리는	-10238
들로부터	-10239
▁해지	-10240
식에서	-10241
▁이슬람	-10242
▁₩	-10243
▁샴	-10244
전주	-10245
▁요리를	-10246
쓰기	-10247
하늘	-10248
▁test	-10249
▁인생의	-10250
콜릿	-10251
uth	-10252
▁주체	-10253
▁직원이	-10254
▁나옵니다	-10255
미의	-10256
▁대륙	-10257
웠습니다	-10258
▁늘고	-10259
▁신세계	-10260
▁Android	-10261
종은	-10262
▁현장에	-10263
▁분당	-10264
▁팀은	-10265
ms	-10266
▁각자	-10267
▁집안	-10268
▁불편한	-10269
▁갚	-10270
▁볶	-10271
요청	-10272
▁언젠	-10273
▁진술	-10274
ton	-10275
▁생리	-10276
테스트	-10277
▁분들도	-10278
네트워크	-10279
▁700	-10280
▁베이징	-10281
문자	-10282
tect	-10283
출을	-10284
하러	-10285
▁적발	-10286
▁하나씩	-10287
안정	-10288
▁춘천	-10289
와이	-10290
~~~	-10291
▁Fr	-10292
▁당신에게	-10293
닉스	-10294
▁평양	-10295
▁확충	-10296
▁금방	-10297
사회복지	-10298
▁후회	-10299
▁두드	-10300
▁조국	-10301
연합회	-10302
▁보고서를	-10303
▁거라고	-10304
유치	-10305
탄소	-10306
표준	-10307
조치	-10308
LG	-10309
6,	-10310
증의	-10311
▁장을	-10312
▁기간은	-10313
역에서	-10314
▁ESG	-10315
▁솔직히	-10316
Tr	-10317
▁높고	-10318
▁관여	-10319
▁테스트를	-10320
▁심플	-10321
고의	-10322
▁감당	-10323
았다고	-10324
NUMX	-10325
▁사회를	-10326
▁재미를	-10327
▁목표는	-10328
Hz	-10329
▁있어도	-10330
▁개성	-10331
▁분해	-10332
▁안녕	-10333
▁전도	-10334
▁싶었다	-10335
▁징후	-10336
▁해가	-10337
찾기	-10338
차이즈	-10339
▁주목을	-10340
▁일상생활	-10341
초에	-10342
Cl	-10343
▁윤리	-10344
▁하얀	-10345
▁올리고	-10346
▁흠	-10347
ING	-10348
▁존경	-10349
▁목회	-10350
사업에	-10351
▁서울특별시	-10352
▁하려고	-10353
▁소아	-10354
▁파는	-10355
동조합	-10356
▁불가피	-10357
▁디렉	-10358
▁무인	-10359
▁패배	-10360
스타일	-10361
▁잃어버	-10362
▁De	-10363
▁많을	-10364
▁상실	-10365
문은	-10366
보수	-10367
이동	-10368
해진다	-10369
▁올리는	-10370
즈가	-10371
본을	-10372
▁추측	-10373
▁중점을	-10374
정원	-10375
사도	-10376
▁사냥	-10377
질랜드	-10378
▁보시면	-10379
엔터테인먼트	-10380
ose	-10381
▁배워	-10382
출장대행	-10383
▁비용은	-10384
▁영주	-10385
근무	-10386
우며	-10387
▁견적	-10388
▁갓	-10389
▁습관	-10390
▁돌아온	-10391
▁문제와	-10392
▁네덜	-10393
-13	-10394
▁할수	-10395
▁입술	-10396
해주신	-10397
출판	-10398
▁확인하십시오	-10399
멘트	-10400
▁있겠	-10401
▁클릭합니다	-10402
미한	-10403
app	-10404
▁세상의	-10405
접한	-10406
▁자사	-10407
▁영구	-10408
▁Reserved	-10409
앞으로	-10410
blog	-10411
▁성장할	-10412
▁네티즌	-10413
▁호텔에	-10414
▁아카데미	-10415
HO	-10416
▁한가	-10417
▁라운	-10418
▁신생	-10419
▁헛	-10420
▁튼튼	-10421
▁확인하기	-10422
SK	-10423
▁안고	-10424
▁양육	-10425
▁스타일을	-10426
▁국산	-10427
▁단점	-10428
▁불행	-10429
▁책상	-10430
업에	-10431
ron	-10432
▁스코	-10433
▁광범위한	-10434
▁수험	-10435
▁한데	-10436
▁답했다	-10437
▁흡연	-10438
bit	-10439
▁피곤	-10440
기관의	-10441
▁내렸다	-10442
▁전해졌다	-10443
▁5,	-10444
▁나라를	-10445
▁허락	-10446
▁플레이어는	-10447
플루	-10448
▁다룬	-10449
▁스틸	-10450
▁넘어가	-10451
1]	-10452
7,	-10453
▁디자인으로	-10454
포를	-10455
▁Expedia	-10456
▁지역은	-10457
ely	-10458
▁영역을	-10459
병을	-10460
▁예쁘	-10461
▁코디	-10462
전국	-10463
fess	-10464
▁적정	-10465
▁생태계	-10466
▁의정부	-10467
▁주시면	-10468
세종	-10469
▁비중이	-10470
정리	-10471
▁공무	-10472
▁주차장	-10473
▁향상을	-10474
▁대결	-10475
▁기업에	-10476
▁램	-10477
ble	-10478
▁손이	-10479
▁11.	-10480
▁프로그래밍	-10481
▁2.0	-10482
▁감사드립니다	-10483
▁왠	-10484
▁각자의	-10485
▁방송을	-10486
▁의사를	-10487
▁다해	-10488
▁근처에서	-10489
ᅳᅳ	-10490
▁Le	-10491
▁해방	-10492
정규직	-10493
lish	-10494
▁깔끔한	-10495
▁한눈에	-10496
▁아이들은	-10497
니라	-10498
▁숭	-10499
▁지원이	-10500
먹는	-10501
▁정품	-10502
▁엽	-10503
강을	-10504
▁젠	-10505
타는	-10506
▁지키는	-10507
반응	-10508
▁도시의	-10509
▁청춘	-10510
▁Sec	-10511
▁알아두	-10512
시지	-10513
풀이	-10514
▁요구를	-10515
▁se	-10516
▁걸릴	-10517
▁외모	-10518
▁차량을	-10519
부스타빗	-10520
임에도	-10521
▁과거의	-10522
▁소감을	-10523
▁순으로	-10524
▁1980	-10525
▁단계에서	-10526
▁양념	-10527
▁확률	-10528
▁위치해	-10529
귀포	-10530
▁속도로	-10531
▁치료가	-10532
▁세척	-10533
||0	-10534
▁이재명	-10535
▁중요성을	-10536
즈니	-10537
▁매번	-10538
▁기대하고	-10539
▁표시됩니다	-10540
81	-10541
사스	-10542
Pro	-10543
▁부합	-10544
▁냈	-10545
구와	-10546
들고	-10547
어링	-10548
열을	-10549
▁수행할	-10550
▁신뢰를	-10551
▁영화는	-10552
화물	-10553
▁트로	-10554
▁인증을	-10555
▁선보였다	-10556
con	-10557
▁실력	-10558
▁규모로	-10559
▁채널을	-10560
▁상영	-10561
▁두산	-10562
▁12.	-10563
▁선물을	-10564
▁블로그를	-10565
침을	-10566
.23	-10567
▁한국과	-10568
초등학교	-10569
생태	-10570
▁그랜드	-10571
▁등장하는	-10572
▁많이보기	-10573
▁운전자	-10574
air	-10575
▁치열한	-10576
기금	-10577
렌지	-10578
프리카	-10579
▁나누는	-10580
▁냈다	-10581
▁free	-10582
▁보러	-10583
▁치명	-10584
▁훈련을	-10585
▁건강보험	-10586
);	-10587
증은	-10588
▁정보와	-10589
▁혐의를	-10590
▁접목	-10591
▁첨가	-10592
▁느끼게	-10593
▁티셔츠	-10594
추진	-10595
▁화장실	-10596
▁마포	-10597
▁착수	-10598
심은	-10599
▁상처를	-10600
▁전반에	-10601
봤습니다	-10602
▁높아지고	-10603
▁돌봄	-10604
▁말하면	-10605
▁수술을	-10606
▁전에는	-10607
파로	-10608
▁트럭	-10609
▁나만의	-10610
▁새끼	-10611
2012	-10612
시마	-10613
.'	-10614
▁모은	-10615
▁어릴	-10616
▁총장	-10617
▁바람에	-10618
▁위기에	-10619
내역	-10620
▁TOP	-10621
베리	-10622
▁거리가	-10623
▁이용이	-10624
▁지정된	-10625
스쿨	-10626
▁사후	-10627
▁원하시는	-10628
▁도내	-10629
은행은	-10630
림이	-10631
서구	-10632
▁영문	-10633
▁거래소	-10634
▁넘어서	-10635
ebook	-10636
▁차별화된	-10637
추어	-10638
▁크로	-10639
▁브랜드를	-10640
끄럽	-10641
▁2030	-10642
▁학생들에게	-10643
▁넉넉	-10644
▁모의	-10645
▁요양	-10646
▁선보인	-10647
▁preparation	-10648
▁Ed	-10649
▁좋게	-10650
루미늄	-10651
azon	-10652
wit	-10653
▁김상	-10654
▁추천합니다	-10655
▁힙	-10656
현황	-10657
인증시험	-10658
복음	-10659
▁그들에게	-10660
▁심판	-10661
▁반짝	-10662
▁010	-10663
▁럭셔리	-10664
▁튜	-10665
축산	-10666
▁대한민국의	-10667
감도	-10668
▁소위	-10669
▁195	-10670
▁잘하는	-10671
▁의사가	-10672
▁만났	-10673
살을	-10674
▁위축	-10675
▁우연히	-10676
몬드	-10677
형태	-10678
▁일어날	-10679
▁사실이다	-10680
효율	-10681
▁도보	-10682
▁벌금	-10683
▁목숨을	-10684
홍보	-10685
▁선제	-10686
(200	-10687
▁안으로	-10688
▁모르겠다	-10689
▁차지하고	-10690
사태	-10691
▁그러다	-10692
▁영국의	-10693
환자	-10694
▁서론	-10695
▁있나	-10696
▁상황은	-10697
▁가능하게	-10698
라피	-10699
▁사모	-10700
▁배송비	-10701
수리	-10702
▁one	-10703
▁면제	-10704
▁하시면	-10705
경에	-10706
▁약을	-10707
킬로	-10708
▁소수	-10709
▁연결된	-10710
▁호스트	-10711
▁제품입니다	-10712
▁걸음	-10713
▁이의	-10714
▁서로의	-10715
▁하이브리드	-10716
▁잦	-10717
▁흐르는	-10718
▁소변	-10719
▁중국은	-10720
▁환급	-10721
▁아쉬운	-10722
▁부가	-10723
방식	-10724
▁최소한	-10725
공유	-10726
▁주식을	-10727
스톤	-10728
▁스웨덴	-10729
인들	-10730
▁결정하는	-10731
▁최우수	-10732
▁있기를	-10733
▁저렴하게	-10734
▁고시	-10735
레이터	-10736
노총	-10737
살이	-10738
체제	-10739
usiness	-10740
▁마르	-10741
▁여백	-10742
강원	-10743
중이	-10744
▁점수를	-10745
▁초고속	-10746
▁Inter	-10747
▁고려해야	-10748
▁모두에게	-10749
▁맞춘	-10750
▁수렴	-10751
▁장비를	-10752
투자증권	-10753
br	-10754
▁워터	-10755
▁당연한	-10756
▁부모님	-10757
▁85	-10758
▁밀려	-10759
▁형식으로	-10760
▁스카	-10761
▁약한	-10762
겨울	-10763
▁out	-10764
▁하나님은	-10765
▁대통령과	-10766
▁생각해보	-10767
▁서비스로	-10768
처를	-10769
▁뭐가	-10770
▁결과적으로	-10771
(6	-10772
▁강아지	-10773
총리	-10774
▁나선다	-10775
▁신체의	-10776
▁공주	-10777
▁임의	-10778
회관	-10779
티켓	-10780
▁Gr	-10781
▁감싸	-10782
▁신부	-10783
▁의장	-10784
▁빛나는	-10785
▁김수	-10786
되었던	-10787
▁CPU	-10788
▁앞장서	-10789
▁있답니다	-10790
▁어둠	-10791
▁프랜	-10792
▁방식의	-10793
▁만일	-10794
하길	-10795
ner	-10796
▁체제	-10797
▁소환	-10798
▁이라	-10799
▁경찰에	-10800
전과	-10801
▁노조	-10802
▁백성	-10803
the	-10804
▁부장	-10805
▁좀더	-10806
▁메뉴를	-10807
▁좋다고	-10808
▁중학교	-10809
LL	-10810
▁밤에	-10811
▁스펙	-10812
▁문제점	-10813
▁방식이	-10814
생각	-10815
▁미성	-10816
▁대책을	-10817
▁고추	-10818
▁내다	-10819
▁모른	-10820
▁수료	-10821
▁프로그램의	-10822
▁비서	-10823
사회적	-10824
▁딥	-10825
타지	-10826
▁알바	-10827
교류	-10828
▁감자	-10829
▁소액	-10830
전으로	-10831
▁바닥에	-10832
▁자회사	-10833
▁비율이	-10834
▁메르	-10835
▁세일	-10836
▁연대	-10837
▁입구	-10838
▁기사는	-10839
▁보여준	-10840
관절	-10841
▁주입	-10842
▁후에도	-10843
▁신혼	-10844
▁단계를	-10845
▁모범	-10846
▁부근	-10847
▁영감을	-10848
87	-10849
▁부각	-10850
▁끌어올	-10851
etwork	-10852
▁후배	-10853
▁주문을	-10854
▁한일	-10855
▁쓰러	-10856
KR	-10857
▁도대체	-10858
외과	-10859
▁김기	-10860
▁첫날	-10861
man	-10862
▁취약계층	-10863
▁Rights	-10864
▁참석해	-10865
aster	-10866
ove	-10867
시간에	-10868
▁요즘은	-10869
지다	-10870
▁자존	-10871
▁텐데	-10872
▁고객은	-10873
▁뷔	-10874
▁바꾸는	-10875
▁어렵게	-10876
▁제공되며	-10877
▁현실을	-10878
DI	-10879
▁파악하고	-10880
▁급성	-10881
▁싶을	-10882
ible	-10883
가게	-10884
▁원리	-10885
면이	-10886
까지만	-10887
▁최선의	-10888
차에	-10889
▁정해	-10890
▁자체를	-10891
alk	-10892
▁동화	-10893
생의	-10894
▁한국을	-10895
▁곳입니다	-10896
TI	-10897
수기	-10898
▁수주	-10899
▁방영	-10900
▁기다려	-10901
▁예금	-10902
▁캠퍼	-10903
셨나요	-10904
오를	-10905
▁카지노사이트	-10906
적은	-10907
▁설비	-10908
▁폭행	-10909
▁석사	-10910
교의	-10911
▁감수	-10912
▁무상	-10913
▁순천	-10914
TX	-10915
▁순서	-10916
▁Cor	-10917
▁영화의	-10918
집에	-10919
▁내리는	-10920
▁얼굴에	-10921
▁1998	-10922
▁다음으로	-10923
▁들어갔다	-10924
차의	-10925
▁--	-10926
▁수련	-10927
▁지점	-10928
▁which	-10929
▁스토어	-10930
earch	-10931
▁분들에게	-10932
랑이	-10933
▁해설	-10934
▁교육의	-10935
▁미사일	-10936
▁아들이	-10937
▁이준	-10938
사업의	-10939
▁소비자의	-10940
▁맞서	-10941
건에	-10942
트넘	-10943
▁USD	-10944
▁고속도로	-10945
레드	-10946
반품	-10947
▁꽉	-10948
mart	-10949
▁제품과	-10950
미사	-10951
▁행복을	-10952
인들에게	-10953
▁소파	-10954
▁유방	-10955
▁CS	-10956
ateg	-10957
▁소식이	-10958
▁했다는	-10959
▁자연스러운	-10960
▁결과로	-10961
▁맵	-10962
▁나눌	-10963
▁눈물	-10964
▁꼴	-10965
깁니다	-10966
구리	-10967
▁기출	-10968
만화	-10969
▁그릴	-10970
위원회가	-10971
연수	-10972
▁하남	-10973
▁생각하지	-10974
해결	-10975
▁죽을	-10976
▁않는다면	-10977
▁특징을	-10978
▁몰라	-10979
▁여드름	-10980
희망	-10981
▁알기	-10982
비즈	-10983
▁저자는	-10984
▁메이크업	-10985
▁캠프	-10986
EV	-10987
▁요소가	-10988
▁연재	-10989
엑스	-10990
▁회수	-10991
생이	-10992
정부의	-10993
▁성형	-10994
위험	-10995
▁선보인다	-10996
urity	-10997
▁유일하게	-10998
▁바닷	-10999
▁전자상거래	-11000
▁provide	-11001
▁미션	-11002
▁이후로	-11003
▁등산	-11004
▁클러	-11005
▁판매를	-11006
▁시스템에	-11007
심에	-11008
유아	-11009
치와	-11010
▁러브	-11011
▁학과	-11012
있었습니다	-11013
LS	-11014
리면서	-11015
드림	-11016
유가	-11017
▁72	-11018
▁온갖	-11019
▁권한을	-11020
고요	-11021
▁My	-11022
▁봤다	-11023
정부가	-11024
▁FAQ	-11025
▁배경으로	-11026
▁스타일의	-11027
▁엘리베이터	-11028
소식	-11029
음파	-11030
▁혈압	-11031
▁격리	-11032
▁탄핵	-11033
▁디바이	-11034
▁위원장	-11035
타르	-11036
퍼니	-11037
희가	-11038
플러	-11039
편을	-11040
▁삶이	-11041
▁혁	-11042
▁승객	-11043
계획을	-11044
▁돕기	-11045
▁혁신을	-11046
▁무엇인가요	-11047
유지	-11048
================	-11049
▁타격	-11050
▁선수들이	-11051
▁위치하고	-11052
ky	-11053
▁오신	-11054
▁오리지널	-11055
▁짙	-11056
정비	-11057
관으로	-11058
스러워	-11059
▁유리한	-11060
▁행사에	-11061
▁도출	-11062
▁왕복	-11063
▁가능할	-11064
▁모르게	-11065
더를	-11066
▁상향	-11067
▁이럴	-11068
▁위주로	-11069
오픈	-11070
졌다는	-11071
▁대부분은	-11072
▁보도자료	-11073
▁띠	-11074
부담	-11075
▁지은	-11076
만으로도	-11077
실장	-11078
▁정교	-11079
▁통영	-11080
▁자영업	-11081
▁회사에서	-11082
hy	-11083
▁무렵	-11084
▁지루	-11085
▁가르쳐	-11086
▁바람직	-11087
▁즐기실	-11088
▁파산	-11089
▁모델로	-11090
▁자기가	-11091
▁준공	-11092
페라	-11093
회의에서	-11094
치아	-11095
▁시골	-11096
▁안성	-11097
▁콘셉	-11098
▁줄이기	-11099
▁go	-11100
근한	-11101
▁컨테이너	-11102
그린	-11103
리안	-11104
▁명백	-11105
▁서부	-11106
▁곳곳에	-11107
▁비트코	-11108
▁확률이	-11109
▁원의	-11110
▁유망	-11111
▁구입할	-11112
▁모두를	-11113
외선	-11114
으시	-11115
▁동맹	-11116
가상	-11117
보상	-11118
▁데이터베이스	-11119
▁다중	-11120
▁사고를	-11121
▁하세요	-11122
경험	-11123
▁신형	-11124
위에서	-11125
▁시민들이	-11126
▁룩	-11127
항에	-11128
▁어쨌든	-11129
▁구름	-11130
▁90%	-11131
▁벗어	-11132
▁관리가	-11133
▁버리고	-11134
▁신속한	-11135
.00	-11136
▁거치	-11137
료는	-11138
▁날카	-11139
나라는	-11140
▁읍	-11141
프레스	-11142
▁크로스	-11143
▁립	-11144
벚꽃	-11145
▁가계	-11146
▁역임	-11147
▁이룬	-11148
83	-11149
두에	-11150
▁대체로	-11151
주셔서	-11152
▁전체적인	-11153
▁수요일	-11154
▁행사가	-11155
▁직접적인	-11156
▁분기	-11157
설정	-11158
▁까다	-11159
▁이어진	-11160
케이션을	-11161
▁비례	-11162
작품	-11163
▁맛있게	-11164
▁help	-11165
▁주민들의	-11166
▁이어졌다	-11167
▁없는데	-11168
▁유혹	-11169
▁초록	-11170
▁늘었다	-11171
후의	-11172
▁1997	-11173
▁미네	-11174
▁연상	-11175
EW	-11176
▁인증덤프	-11177
Ex	-11178
▁110	-11179
인원	-11180
▁하나님께	-11181
arm	-11182
▁속한	-11183
계산	-11184
클릭	-11185
▁물고	-11186
▁크롬	-11187
▁서로를	-11188
▁제거하는	-11189
▁시그	-11190
▁시민의	-11191
▁베팅을	-11192
▁전시회	-11193
asy	-11194
▁매치	-11195
▁환율	-11196
기술을	-11197
▁관하여	-11198
▁미국에	-11199
▁방법과	-11200
▁제작한	-11201
▁투자자	-11202
▁학생이	-11203
▁성폭	-11204
▁국민이	-11205
▁아키	-11206
▁정답	-11207
▁마스크를	-11208
지나	-11209
▁전문가의	-11210
재난	-11211
▁근대	-11212
▁파우	-11213
▁규정에	-11214
▁필요하다는	-11215
▁소음	-11216
▁공지사항	-11217
▁늦은	-11218
▁몸의	-11219
▁세균	-11220
▁드레스	-11221
▁크기가	-11222
▁dis	-11223
▁실시하고	-11224
지역의	-11225
DB	-11226
au	-11227
▁신인	-11228
▁싶어서	-11229
▁영향으로	-11230
▁정부에서	-11231
▁즐거움을	-11232
▁들었습니다	-11233
건은	-11234
▁나뉘	-11235
▁기여할	-11236
▁발생했다	-11237
료가	-11238
립선	-11239
▁1%	-11240
▁SW	-11241
▁맑은	-11242
▁아픔	-11243
▁캡처	-11244
▁이집	-11245
uy	-11246
티드	-11247
▁PM	-11248
▁공유하고	-11249
▁간접	-11250
▁작가는	-11251
▁힘들어	-11252
▁달러를	-11253
▁무거운	-11254
▁JTBC	-11255
▁리뷰를	-11256
대환	-11257
통상	-11258
▁고난	-11259
▁최소한의	-11260
▁시정	-11261
2000	-11262
▁노하우를	-11263
▁기간에	-11264
▁여러분은	-11265
▁감축	-11266
시장에	-11267
한도	-11268
▁샌드	-11269
▁시트	-11270
▁친구들과	-11271
비디오	-11272
▁검찰은	-11273
크는	-11274
▁끝이	-11275
▁비핵	-11276
▁확립	-11277
▁통증을	-11278
▁지나치게	-11279
▁장례	-11280
▁한창	-11281
▁프로세스	-11282
▁서식	-11283
▁양해	-11284
▁실시한	-11285
mun	-11286
▁이더	-11287
다양	-11288
▁도약	-11289
▁변신	-11290
▁브랜드의	-11291
son	-11292
ments	-11293
』,	-11294
▁축복	-11295
없음	-11296
▁신비	-11297
▁증언	-11298
▁소모	-11299
▁좁은	-11300
일로부터	-11301
▁개통	-11302
▁깊게	-11303
▁학문	-11304
▁되게	-11305
▁빌려	-11306
▁개발하고	-11307
▁적용해	-11308
CO	-11309
▁안되	-11310
▁나타냅니다	-11311
▁법칙	-11312
로로	-11313
▁이명박	-11314
학술	-11315
▁무더	-11316
▁신청할	-11317
레이시아	-11318
▁포함하는	-11319
▁exp	-11320
▁관할	-11321
중공업	-11322
▁꾸준한	-11323
▁다문화	-11324
석에	-11325
▁XNUMX	-11326
오일	-11327
fter	-11328
▁기술로	-11329
▁날씨가	-11330
자리에	-11331
▁누구도	-11332
▁활발한	-11333
▁중국에서	-11334
92	-11335
▁바뀐	-11336
▁책의	-11337
▁촛불	-11338
▁있기에	-11339
ecial	-11340
▁늘어나고	-11341
▁시흥	-11342
▁규모는	-11343
▁모델은	-11344
▁신약	-11345
▁잠을	-11346
▁전하는	-11347
▁점유율	-11348
▁위와	-11349
▁자식	-11350
ream	-11351
▁다이아	-11352
▁연락을	-11353
ty	-11354
▁강남구	-11355
.30	-11356
운동을	-11357
▁보냈다	-11358
지대	-11359
▁골라	-11360
▁네트워크를	-11361
장소	-11362
IF	-11363
▁재단	-11364
▁홈런	-11365
배상	-11366
▁Dr	-11367
▁본사	-11368
▁언급한	-11369
사카	-11370
유효	-11371
▁본래	-11372
fessional	-11373
▁주류	-11374
▁몬스터	-11375
▁스티커	-11376
▁평면	-11377
▁게이밍	-11378
▁둘러싸	-11379
tv	-11380
▁다음의	-11381
▁세상이	-11382
▁정상적으로	-11383
▁실력을	-11384
sc	-11385
법률	-11386
국으로	-11387
▁가능성도	-11388
▁올릴	-11389
artic	-11390
acebook	-11391
▁매개	-11392
▁장바구니	-11393
작을	-11394
▁센서	-11395
▁전동	-11396
주의의	-11397
▁싹	-11398
▁상품에	-11399
▁캐시	-11400
하시길	-11401
▁먹튀검증	-11402
▁지역경제	-11403
▁학교에서	-11404
난다	-11405
▁수시로	-11406
▁차기	-11407
▁었	-11408
상선	-11409
▁대면	-11410
▁슬픔	-11411
문제를	-11412
▁who	-11413
▁단위로	-11414
▁햄	-11415
웃음	-11416
▁Korean	-11417
으실	-11418
▁꾸며	-11419
▁방문객	-11420
▁하나도	-11421
▁서면	-11422
때는	-11423
▁산하	-11424
▁확진자가	-11425
심과	-11426
용량	-11427
IGH	-11428
▁피할	-11429
▁소개팅	-11430
사들은	-11431
▁캐주얼	-11432
▁컷	-11433
▁마운	-11434
▁계층	-11435
▁사진과	-11436
보조	-11437
분양	-11438
▁상기	-11439
▁잃은	-11440
▁불확실	-11441
▁메디	-11442
▁되기를	-11443
수업	-11444
▁주장을	-11445
정지	-11446
arg	-11447
▁서브	-11448
▁말아야	-11449
▁의해서	-11450
▁눈앞	-11451
리자	-11452
▁인종	-11453
▁web	-11454
▁근로자	-11455
▁보상을	-11456
▁넘겨	-11457
▁기뻐	-11458
ener	-11459
PM	-11460
ren	-11461
▁이리	-11462
▁대부분이	-11463
▁안정적으로	-11464
▁Certified	-11465
▁과장	-11466
▁해결하는	-11467
화재	-11468
alth	-11469
▁Off	-11470
▁알아보고	-11471
▁열려	-11472
hed	-11473
▁익산	-11474
▁연구원은	-11475
VC	-11476
▁no	-11477
▁실버	-11478
▁관람객	-11479
임이	-11480
▁욕조	-11481
▁초콜릿	-11482
lication	-11483
▁차로	-11484
▁돌아오	-11485
▁불가능합니다	-11486
be	-11487
▁알루미늄	-11488
▁☞	-11489
팀의	-11490
화할	-11491
▁EUR	-11492
▁등록일	-11493
수지	-11494
▁추모	-11495
▁끝나고	-11496
방이	-11497
▁한의	-11498
▁다음달	-11499
▁토마토	-11500
공화	-11501
서리	-11502
▁씨앗	-11503
청이	-11504
▁숨을	-11505
▁조종	-11506
칩니다	-11507
기간이	-11508
▁역사와	-11509
▁사이트가	-11510
▁뽐	-11511
▁치료에	-11512
▁쪼	-11513
차피	-11514
▁템플릿	-11515
”(	-11516
▁자기소개	-11517
백화점	-11518
▁기다리는	-11519
교를	-11520
벤트	-11521
▁재직	-11522
▁여대생	-11523
▁조화	-11524
▁다하고	-11525
이닝	-11526
▁뒷받침	-11527
▁중간에	-11528
이날	-11529
▁(3)	-11530
TN	-11531
▁파기	-11532
▁취미	-11533
▁경험할	-11534
▁싼	-11535
췄다	-11536
▁목적이	-11537
▁System	-11538
에스	-11539
▁참으로	-11540
▁급등	-11541
▁처분	-11542
▁남자가	-11543
▁전체가	-11544
▁주십시오	-11545
▁치고	-11546
94	-11547
ouse	-11548
▁기자회견을	-11549
화문	-11550
let	-11551
하십니까	-11552
▁News	-11553
일정	-11554
행이	-11555
▁서울의	-11556
ides	-11557
▁가중	-11558
▁조성을	-11559
유로	-11560
중고	-11561
▁날을	-11562
▁처음에	-11563
▁록	-11564
부처	-11565
ava	-11566
▁의외	-11567
▁엄마가	-11568
국과	-11569
설치	-11570
없다	-11571
▁가전	-11572
▁증가하는	-11573
군과	-11574
▁금고	-11575
mail	-11576
▁진행해	-11577
▁몫	-11578
▁다리를	-11579
▁영등포	-11580
▁선을	-11581
의약품	-11582
97	-11583
재정	-11584
▁51	-11585
▁54	-11586
▁추진하는	-11587
▁대비해	-11588
▁설립된	-11589
저축은행	-11590
▁인터페이	-11591
▁관세	-11592
▁갈라	-11593
▁시위	-11594
이면서	-11595
▁당한	-11596
▁온천	-11597
▁합쳐	-11598
▁Red	-11599
▁대상을	-11600
▁무사	-11601
▁제네	-11602
▁필름	-11603
▁송파	-11604
▁사건의	-11605
▁전체의	-11606
▁확인을	-11607
▁년에	-11608
▁선착	-11609
▁요구에	-11610
▁마련했다	-11611
▁란	-11612
강화	-11613
수집	-11614
▁상주	-11615
▁이색	-11616
▁사용자에게	-11617
▁업데이트를	-11618
니언	-11619
아주	-11620
어지	-11621
▁백화점	-11622
▁성향	-11623
▁수제	-11624
▁잡는	-11625
▁BMW	-11626
▁뜨겁	-11627
▁실종	-11628
▁가져다	-11629
▁말았다	-11630
▁알아볼	-11631
▁항목을	-11632
▁회담	-11633
▁작품이	-11634
▁부패	-11635
▁거울	-11636
▁나설	-11637
▁대거	-11638
▁메가	-11639
▁학교에	-11640
▁세상에서	-11641
기에는	-11642
이었는데	-11643
▁지역주민	-11644
사상	-11645
▁호텔은	-11646
▁무료배송	-11647
▁지리	-11648
▁집어	-11649
나가는	-11650
컴퓨터	-11651
▁들어갔	-11652
▁미만의	-11653
있던	-11654
▁자제	-11655
제일	-11656
▁인터뷰를	-11657
처분	-11658
:10	-11659
▁상자	-11660
▁지수	-11661
여명의	-11662
텐데	-11663
▁크기의	-11664
공제	-11665
길래	-11666
답게	-11667
씨와	-11668
맛사지	-11669
▁운영에	-11670
놨다	-11671
▁머릿	-11672
▁무지	-11673
▁탓에	-11674
▁구사	-11675
▁침묵	-11676
▁연결하는	-11677
JX	-11678
속의	-11679
ards	-11680
▁뉴질랜드	-11681
▁제조업	-11682
우주	-11683
▁고스	-11684
▁추가적인	-11685
▁걱정이	-11686
ict	-11687
▁기쁘	-11688
▁죽음을	-11689
▁지나면	-11690
어와	-11691
▁귀찮	-11692
▁퀘	-11693
니즘	-11694
-24	-11695
▁적게	-11696
▁중순	-11697
▁키우는	-11698
▁추락	-11699
▁구강	-11700
▁부당	-11701
▁법원	-11702
OW	-11703
▁몸매	-11704
▁그러자	-11705
원들이	-11706
ular	-11707
▁Apple	-11708
당과	-11709
▁대개	-11710
▁모발	-11711
▁발생하고	-11712
▁식사가	-11713
▁회장의	-11714
듯한	-11715
첨단	-11716
▁Su	-11717
▁농민	-11718
▁보여줄	-11719
▁건강하게	-11720
▁웬	-11721
~10	-11722
▁땅을	-11723
▁엄격한	-11724
▁이루는	-11725
▁키보드	-11726
▁확대를	-11727
ym	-11728
▁DS	-11729
▁김제	-11730
▁내의	-11731
▁연중	-11732
▁시설의	-11733
▁피아노	-11734
▁소비자가	-11735
~6	-11736
외국인	-11737
데스	-11738
약관	-11739
코노	-11740
ety	-11741
▁동영상을	-11742
▁이곳에	-11743
▁항공편을	-11744
................	-11745
ei	-11746
사무소	-11747
위원회를	-11748
▁기업으로	-11749
▁사회공헌	-11750
▁속에서도	-11751
체와	-11752
레인지	-11753
만원의	-11754
ited	-11755
피를	-11756
▁시설에	-11757
▁쉴	-11758
드린	-11759
진료	-11760
▁자유로운	-11761
걸음	-11762
결혼	-11763
▁내구	-11764
▁신경을	-11765
공부자료	-11766
▁준비되어	-11767
긴다	-11768
어지고	-11769
▁130	-11770
▁365	-11771
과정에서	-11772
▁이들에게	-11773
▁탈퇴	-11774
▁주었다	-11775
해볼	-11776
▁만료	-11777
▁삼아	-11778
먹고	-11779
▁강도	-11780
▁없던	-11781
▁말입니다	-11782
연애	-11783
▁홈페이지에서	-11784
두는	-11785
▁190	-11786
▁많은데	-11787
▁방문하여	-11788
▁라운드	-11789
▁적용할	-11790
raind	-11791
통제	-11792
되므로	-11793
▁아버지의	-11794
또한	-11795
▁국가대표	-11796
트랙	-11797
▁안됩니다	-11798
챌린	-11799
by	-11800
캠프	-11801
▁불을	-11802
▁계획이	-11803
▁지방자치단체	-11804
▁디저	-11805
▁원주	-11806
거리가	-11807
▁누르면	-11808
▁원정	-11809
과정을	-11810
▁acc	-11811
▁유권	-11812
▁편입	-11813
학년도	-11814
▁면에서	-11815
▁타인의	-11816
라이어	-11817
▁높였다	-11818
▁우승을	-11819
▁그리스도의	-11820
▁점에	-11821
▁이라는	-11822
▁세운	-11823
바이트	-11824
▁Air	-11825
르며	-11826
▁굵	-11827
▁승진	-11828
▁제시한	-11829
▁조금만	-11830
▁최악의	-11831
플랫폼	-11832
리니	-11833
▁목요일	-11834
▁일하고	-11835
▁국회에서	-11836
▁시에	-11837
▁방탄	-11838
▁서서히	-11839
▁공간에	-11840
▁갱신	-11841
▁원본	-11842
▁충격을	-11843
▁푹	-11844
측은	-11845
새로운	-11846
혈관	-11847
진흥원	-11848
▁미소를	-11849
인구	-11850
적이지	-11851
▁화면을	-11852
그는	-11853
▁특화	-11854
▁해수	-11855
▁감소한	-11856
▁참여하고	-11857
포항	-11858
▁배정	-11859
▁추운	-11860
▁캠페인을	-11861
▁호텔에는	-11862
iversity	-11863
▁놀이터	-11864
▁들여다	-11865
▁추진할	-11866
▁출현	-11867
▁IM	-11868
▁분들을	-11869
▁고성능	-11870
산에	-11871
졌지만	-11872
크리에	-11873
▁눈물을	-11874
▁소개했다	-11875
▁SD	-11876
▁구상	-11877
)·	-11878
▁익스	-11879
▁움직임을	-11880
되자	-11881
▁53	-11882
▁가까워	-11883
▁관리에	-11884
▁사항에	-11885
▁룸서비스	-11886
널드	-11887
러닝	-11888
천군	-11889
ism	-11890
▁블로	-11891
▁전액	-11892
▁협회	-11893
▁촉촉	-11894
하를	-11895
▁최대의	-11896
▁주장하는	-11897
▁남는	-11898
▁않아요	-11899
▁이용자의	-11900
▁◎	-11901
맞춤	-11902
블록	-11903
▁나노	-11904
▁입맛	-11905
맥스	-11906
화면	-11907
▁말까지	-11908
▁제작된	-11909
ative	-11910
어질	-11911
▁점수	-11912
▁가족을	-11913
▁스위트	-11914
▁정신적	-11915
▁프랜차이즈	-11916
▁정통	-11917
▁농가	-11918
드리며	-11919
▁버전을	-11920
▁됨	-11921
▁경비	-11922
▁총선	-11923
▁골든	-11924
▁기준이	-11925
▁방식은	-11926
▁쾌적한	-11927
PR	-11928
부대	-11929
.^^	-11930
사들의	-11931
▁교회의	-11932
▁잡을	-11933
▁데리고	-11934
▁여기에는	-11935
블리	-11936
▁눈치	-11937
▁친화	-11938
▁보행	-11939
▁부사	-11940
▁책이	-11941
▁모습에	-11942
골을	-11943
겁니다	-11944
▁무대를	-11945
▁미성년	-11946
감의	-11947
▁써야	-11948
▁모으고	-11949
▁소개하는	-11950
규제	-11951
옵션	-11952
▁개시	-11953
▁명확한	-11954
▁벡	-11955
통일	-11956
▁개인이	-11957
▁공유하는	-11958
▁알아보겠습니다	-11959
습을	-11960
식당	-11961
▁제이	-11962
▁체계적인	-11963
바라	-11964
합의	-11965
▁삶은	-11966
▁대박	-11967
▁about	-11968
중소	-11969
▁이력	-11970
▁가만히	-11971
인기	-11972
▁이길	-11973
▁대표의	-11974
▁결정했다	-11975
▁캄	-11976
▁끄덕	-11977
▁온실	-11978
▁국가에서	-11979
▁비자	-11980
▁유력	-11981
▁착한	-11982
▁ass	-11983
▁기관의	-11984
▁흔한	-11985
▁거짓말	-11986
제목	-11987
▁56	-11988
▁주민들이	-11989
때로	-11990
쓰고	-11991
▁노사	-11992
▁수준에	-11993
▁덤프데모	-11994
▁탕	-11995
▁국가가	-11996
▁단어를	-11997
▁모양의	-11998
▁안타깝	-11999
▁분석했다	-12000
▁찢	-12001
욕을	-12002
▁징계	-12003
▁할당	-12004
cess	-12005
▁같네요	-12006
▁받으면	-12007
▁너는	-12008
▁비공개	-12009
취업	-12010
▁예전에	-12011
▁디자인과	-12012
▁권장합니다	-12013
▁혀	-12014
면허	-12015
버튼	-12016
▁발생하지	-12017
▁their	-12018
EB	-12019
돌이	-12020
수한	-12021
ute	-12022
▁약속을	-12023
▁일으킬	-12024
취를	-12025
▁결심	-12026
동기	-12027
플라	-12028
▁무작	-12029
▁Ind	-12030
▁확인한	-12031
▁들어오는	-12032
둥이	-12033
시작	-12034
▁기호	-12035
▁문화재	-12036
대채팅	-12037
▁뛰어넘	-12038
▁암호화	-12039
▁그로	-12040
▁샐러	-12041
▁평일	-12042
▁성분이	-12043
udio	-12044
접종	-12045
▁시의	-12046
▁스팀	-12047
▁사랑과	-12048
▁inter	-12049
-26	-12050
▁다큐	-12051
▁중국이	-12052
▁서비스와	-12053
/10	-12054
▁상한	-12055
▁자매	-12056
▁총리	-12057
하게도	-12058
▁Int	-12059
▁거주하는	-12060
▁펄	-12061
▁내보	-12062
▁있겠지만	-12063
가장	-12064
▁시행령	-12065
▁알려드립니다	-12066
▁발라	-12067
▁엄격	-12068
▁중대	-12069
▁균형을	-12070
▁상세한	-12071
▁화요일	-12072
▁설명하고	-12073
▁드물	-12074
▁리버	-12075
▁게이머	-12076
▁이어서	-12077
raindumps	-12078
▁sec	-12079
▁gr	-12080
지원금	-12081
딩을	-12082
▁월급	-12083
▁학생들을	-12084
▁글로	-12085
▁얼음	-12086
▁일련의	-12087
▁토끼	-12088
졌으며	-12089
▁의사는	-12090
▁편이다	-12091
▁광양	-12092
▁맞고	-12093
교육의	-12094
▁사물	-12095
▁현상을	-12096
▁부러	-12097
▁파주	-12098
obe	-12099
▁잘라	-12100
▁수직	-12101
만달러	-12102
▁알리고	-12103
마당	-12104
색으로	-12105
▁브리핑	-12106
▁지니고	-12107
firstname	-12108
▁58	-12109
▁위장	-12110
문화를	-12111
아가씨	-12112
▁조언을	-12113
▁책임이	-12114
▁호스팅	-12115
▁비주얼	-12116
▁주제를	-12117
▁꽂	-12118
었기	-12119
억달러	-12120
▁협조를	-12121
더스	-12122
▁효과는	-12123
개월간	-12124
reen	-12125
▁어렵지	-12126
▁선행	-12127
▁매출이	-12128
▁인간은	-12129
▁비판했다	-12130
▁의거	-12131
▁대학의	-12132
▁CF	-12133
▁using	-12134
▁먹기	-12135
▁출혈	-12136
▁대중교통	-12137
▁해를	-12138
▁놓여	-12139
▁시대가	-12140
▁여기는	-12141
계열	-12142
류가	-12143
집이	-12144
▁놀랍	-12145
▁락	-12146
▁iPhone	-12147
동아	-12148
▁팬데믹	-12149
▁일본에서	-12150
▁탄력	-12151
▁피부가	-12152
▁진행됩니다	-12153
메가	-12154
▁바퀴	-12155
▁찬성	-12156
ader	-12157
▁아이들에게	-12158
LC	-12159
▁도중	-12160
▁코트	-12161
만들기	-12162
▁달콤한	-12163
▁그야말로	-12164
▁아래에서	-12165
▁붙잡	-12166
▁주저	-12167
▁철회	-12168
▁마이너	-12169
▁사회에서	-12170
▁복제	-12171
▁창은	-12172
inal	-12173
▁목적은	-12174
▁사용해야	-12175
▁법안	-12176
시절	-12177
이미지	-12178
프로젝	-12179
밀히	-12180
크의	-12181
화성	-12182
▁가성비	-12183
▁직원들이	-12184
▁증진	-12185
화되고	-12186
▁마시는	-12187
▁데이터가	-12188
▁아일랜드	-12189
▁압력	-12190
▁라이선	-12191
방울	-12192
▁윗	-12193
신경	-12194
▁목격	-12195
▁시간의	-12196
리나	-12197
졌을	-12198
▁자유를	-12199
ource	-12200
통화	-12201
Sh	-12202
▁확인됐다	-12203
거야	-12204
▁문장	-12205
▁명령을	-12206
▁작업에	-12207
▁지원해	-12208
법상	-12209
접수	-12210
▁않나요	-12211
▁증후	-12212
ction	-12213
▁가능하고	-12214
▁정하는	-12215
▁주의사항	-12216
▁용도로	-12217
하긴	-12218
▁습득	-12219
pass	-12220
▁공간으로	-12221
▁내달	-12222
▁중증	-12223
···	-12224
▁한도	-12225
▁북한은	-12226
일지	-12227
▁귀를	-12228
▁앰	-12229
▁아산	-12230
▁고려할	-12231
▁떠나는	-12232
현의	-12233
▁나누고	-12234
▁보험사	-12235
▁일자리를	-12236
▁주된	-12237
▁내용으로	-12238
하듯	-12239
▁흥행	-12240
▁등장한	-12241
정기	-12242
▁명소	-12243
▁Top	-12244
▁VPN	-12245
▁실시했다	-12246
2010	-12247
▁결정할	-12248
▁고민이	-12249
▁검출	-12250
vail	-12251
▁재료를	-12252
▁단말	-12253
경기도	-12254
▁기자의	-12255
막이	-12256
▁렌즈	-12257
▁보았습니다	-12258
형에	-12259
▁레몬	-12260
▁꿈꾸는	-12261
▁개최한다	-12262
럴드	-12263
청에	-12264
시장을	-12265
▁것일까	-12266
둑이	-12267
▁갇	-12268
▁알았	-12269
▁기업과	-12270
▁병원에	-12271
▁태평양	-12272
▁일입니다	-12273
철수	-12274
,500	-12275
▁걸리는	-12276
▁그렇기	-12277
▁제안을	-12278
▁부드럽고	-12279
나서	-12280
▁손실을	-12281
▁방문하는	-12282
패션	-12283
ENT	-12284
▁하여금	-12285
로만	-12286
***	-12287
▁소멸	-12288
타임즈	-12289
고에	-12290
▁임산	-12291
▁off	-12292
▁설명이다	-12293
▁col	-12294
▁씨의	-12295
▁즐기고	-12296
▁개인정보의	-12297
▁사도	-12298
▁썼다	-12299
▁듭니다	-12300
▁정보에	-12301
방의	-12302
.......	-12303
언니	-12304
▁테슬	-12305
▁급격히	-12306
전화번호	-12307
예를	-12308
▁나섰	-12309
▁양이	-12310
인지를	-12311
▁하나요	-12312
취급	-12313
▁마디	-12314
▁수납	-12315
시에서	-12316
.]	-12317
관리를	-12318
▁한계가	-12319
▁것이란	-12320
day	-12321
lor	-12322
▁진단을	-12323
▁재미있게	-12324
jpg	-12325
▁민감한	-12326
▁60%	-12327
▁조용히	-12328
정보통신	-12329
▁사람들도	-12330
▁영원히	-12331
▁되겠습니다	-12332
▁마땅	-12333
▁번도	-12334
▁임플란	-12335
urn	-12336
▁협약을	-12337
▁그룹의	-12338
▁출시한	-12339
부지	-12340
Com	-12341
▁뜬	-12342
▁의회	-12343
라인을	-12344
▁수준이	-12345
▁UN	-12346
▁거대	-12347
▁힘입	-12348
▁해결을	-12349
▁확인이	-12350
▁정렬	-12351
▁겨울철	-12352
▁상품명	-12353
개념	-12354
▁베타	-12355
▁아스	-12356
▁비밀번호를	-12357
ternational	-12358
(7	-12359
관리자	-12360
이었지만	-12361
▁결제완료	-12362
▁정보작성자	-12363
량에	-12364
▁키즈	-12365
콜걸샵	-12366
▁스카이	-12367
▁캐릭터를	-12368
(9	-12369
▁대립	-12370
▁예방을	-12371
저기	-12372
▁Rep	-12373
매김	-12374
▁극장	-12375
▁내릴	-12376
▁상무	-12377
▁탐구	-12378
▁퇴근	-12379
▁거래가	-12380
▁이천	-12381
▁똑같이	-12382
▁승인을	-12383
년은	-12384
▁CCTV	-12385
▁오면	-12386
▁이념	-12387
▁들어온	-12388
▁꽃이	-12389
▁종양	-12390
▁건강과	-12391
▁블루투스	-12392
▁자유한국당	-12393
▁상가	-12394
▁어리	-12395
▁디자인이	-12396
?'	-12397
▁죄를	-12398
▁출시된	-12399
신용대출	-12400
▁쭉	-12401
off	-12402
▁품질을	-12403
융합	-12404
▁반찬	-12405
▁전반적으로	-12406
▁뜯	-12407
▁낯선	-12408
▁신학	-12409
▁코어	-12410
▁잡았다	-12411
저가	-12412
▁물리적	-12413
사한	-12414
혜택	-12415
▁선정됐다	-12416
▁가이	-12417
▁싶다는	-12418
▁주님의	-12419
적의	-12420
거를	-12421
▁지는	-12422
▁커피를	-12423
▁기사제보	-12424
▁공존	-12425
▁규정을	-12426
▁드러냈다	-12427
▁동행	-12428
▁반박	-12429
OVID	-12430
▁필요는	-12431
▁산업혁명	-12432
▁z	-12433
자격증	-12434
▁마련해	-12435
▁다가오는	-12436
취소	-12437
▁여섯	-12438
네이버	-12439
▁선택이	-12440
▁사회주의	-12441
▁않는다고	-12442
▁소프트웨어를	-12443
둘러	-12444
▁CN	-12445
▁활동하고	-12446
▁양국	-12447
메일을	-12448
▁DNA	-12449
▁드리는	-12450
▁끔	-12451
▁의의	-12452
▁총회	-12453
▁시점에서	-12454
▁금강	-12455
안타	-12456
gram	-12457
내지	-12458
종목	-12459
▁편의를	-12460
▁스위스	-12461
▁필요하지	-12462
:)	-12463
▁계곡	-12464
▁사퇴	-12465
폴리	-12466
▁남원	-12467
▁보람	-12468
▁클릭하면	-12469
▁말레이시아	-12470
▁업체가	-12471
타입	-12472
정보가	-12473
▁나열	-12474
▁유지하기	-12475
▁식민	-12476
▁클린	-12477
▁되찾	-12478
기간은	-12479
▁저런	-12480
▁자리매김	-12481
편에	-12482
▁간절	-12483
▁사이드	-12484
▁정리해	-12485
전도	-12486
▁득점	-12487
▁전수	-12488
▁항생	-12489
▁확실하게	-12490
▁박지	-12491
▁장점을	-12492
▁파트너십	-12493
▁당당	-12494
인들을	-12495
arantee	-12496
편이	-12497
▁이로써	-12498
▁차이는	-12499
▁남을	-12500
우리가	-12501
▁우측	-12502
▁일산	-12503
▁3.5	-12504
▁양자	-12505
"...	-12506
▁시야	-12507
▁ᄏᄏᄏ	-12508
▁정도를	-12509
목표	-12510
일으	-12511
였다고	-12512
▁삼각	-12513
과학기술	-12514
▁얽	-12515
풍이	-12516
▁산정	-12517
▁연구의	-12518
가야	-12519
우지	-12520
(15	-12521
▁불만	-12522
시각	-12523
▁국세	-12524
▁필요성을	-12525
▁것들	-12526
▁나라가	-12527
▁말하며	-12528
▁익숙한	-12529
슨은	-12530
청소	-12531
티를	-12532
.0%	-12533
rol	-12534
▁디자인의	-12535
▁꼼꼼히	-12536
▁불필요한	-12537
ae	-12538
그러나	-12539
▁강렬한	-12540
▁외면	-12541
▁히트	-12542
▁선보이는	-12543
▁일회	-12544
▁토크	-12545
odel	-12546
▁헐	-12547
파가	-12548
▁Ro	-12549
▁일상을	-12550
▁하려면	-12551
님들	-12552
▁시카	-12553
▁기능과	-12554
▁의미하는	-12555
모의	-12556
으십시오	-12557
▁일으키는	-12558
],	-12559
▁간격	-12560
▁모델이	-12561
▁조건에	-12562
▁이용해서	-12563
▁95	-12564
▁브로커	-12565
▁장소를	-12566
▁항의	-12567
▁감사를	-12568
▁바울	-12569
▁토너	-12570
▁있네요	-12571
▁지명	-12572
▁표창	-12573
▁데이트코스	-12574
미노	-12575
▁예정이며	-12576
▁전달하는	-12577
▁레지	-12578
소비자	-12579
▁first	-12580
▁protect	-12581
러블	-12582
▁걷기	-12583
환경을	-12584
▁끝으로	-12585
▁대변인은	-12586
▁실정	-12587
▁스프링	-12588
▁Market	-12589
▁고교	-12590
▁69	-12591
사업은	-12592
▁할까요	-12593
▁환자를	-12594
▁근본적인	-12595
▁상품으로	-12596
값이	-12597
vent	-12598
▁선택하여	-12599
론의	-12600
▁코팅	-12601
▁140	-12602
▁이용을	-12603
▁댄스	-12604
▁감염병	-12605
▁프로그램으로	-12606
▁밥을	-12607
▁폭넓	-12608
▁또다시	-12609
중입니다	-12610
해주시기	-12611
▁달라질	-12612
DC	-12613
▁사서	-12614
▁송금	-12615
▁안팎	-12616
봅시다	-12617
되었다고	-12618
▁훔	-12619
▁지붕	-12620
레스테	-12621
카카오	-12622
▁Free	-12623
▁가상화폐	-12624
▁중입니다	-12625
▁under	-12626
FI	-12627
UN	-12628
▁험	-12629
주도	-12630
희의	-12631
mat	-12632
▁노선	-12633
계약을	-12634
▁나와서	-12635
▁워크숍	-12636
▁이루고	-12637
이요	-12638
플로	-12639
▁문화적	-12640
▁차원의	-12641
의자	-12642
전력	-12643
▁주가가	-12644
▁잡지	-12645
시장이	-12646
▁댓글을	-12647
▁만나고	-12648
▁온라인카지노	-12649
▁슬림	-12650
▁자연의	-12651
▁닫지	-12652
▁두꺼	-12653
▁달린	-12654
▁만족하는	-12655
▁벚꽃	-12656
▁유학	-12657
▁원장은	-12658
▁초음파	-12659
▁물론이고	-12660
▁산불	-12661
▁기록하며	-12662
모두	-12663
▁57	-12664
▁모인	-12665
▁것이죠	-12666
▁분야를	-12667
▁줄어든	-12668
-28	-12669
▁뽑아	-12670
▁인문	-12671
▁푸드	-12672
▁법무부	-12673
▁지키고	-12674
대장	-12675
▁미소	-12676
있었다	-12677
▁선보일	-12678
▁어린이집	-12679
▁연설	-12680
▁토트넘	-12681
개인정보	-12682
-200	-12683
▁대충	-12684
▁장려	-12685
▁경쟁이	-12686
▁소지	-12687
▁이사장	-12688
▁테니스	-12689
▁비로	-12690
면안마	-12691
▁여름철	-12692
▁연구가	-12693
시스템을	-12694
과제	-12695
▁연기를	-12696
▁성립	-12697
▁기준에	-12698
▁사업으로	-12699
부품	-12700
▁않음	-12701
▁세월호	-12702
-27	-12703
▁기대할	-12704
역이	-12705
중개	-12706
테이션	-12707
fl	-12708
직자	-12709
청구	-12710
▁얇은	-12711
▁오너	-12712
▁요청을	-12713
▁억울	-12714
▁주한	-12715
▁한계를	-12716
방에서	-12717
체계를	-12718
블루	-12719
슈퍼	-12720
▁마다	-12721
▁판정을	-12722
▁제시했다	-12723
산지	-12724
▁로또	-12725
으려고	-12726
ames	-12727
▁일본은	-12728
뒀다	-12729
러시아	-12730
▁절대로	-12731
현이	-12732
▁형태를	-12733
최대	-12734
▁가량	-12735
▁스폰	-12736
▁준비해	-12737
한지	-12738
▁Te	-12739
▁꽃을	-12740
▁가능성은	-12741
▁상호작용	-12742
경남	-12743
단위	-12744
이노	-12745
▁반가	-12746
러가	-12747
▁얻었다	-12748
▁방지하기	-12749
▁Oracle	-12750
불교	-12751
▁THE	-12752
▁버려	-12753
그룹은	-12754
▁미스터	-12755
달아	-12756
▁중도	-12757
정책을	-12758
▁기다리	-12759
▁트래픽	-12760
(8	-12761
CH	-12762
LED	-12763
▁납품	-12764
▁진학	-12765
▁달라고	-12766
cal	-12767
▁구제	-12768
▁집합	-12769
TO	-12770
▁숨겨진	-12771
▁누워	-12772
▁재건축	-12773
리움	-12774
인재	-12775
▁자료에	-12776
했다가	-12777
▁이마트	-12778
▁개를	-12779
신저	-12780
주일	-12781
▁걷는	-12782
▁도민	-12783
▁배를	-12784
▁브라운	-12785
rough	-12786
▁기어	-12787
▁중부	-12788
솔루션	-12789
였으며	-12790
▁쉼	-12791
▁거리두기	-12792
▁수수료를	-12793
리츠	-12794
산동	-12795
▁미드	-12796
istr	-12797
▁편의점	-12798
했는데요	-12799
ident	-12800
여부	-12801
총회	-12802
▁때때로	-12803
▁모습이다	-12804
▁고장	-12805
▁동북	-12806
▁비극	-12807
년만에	-12808
▁사회가	-12809
가량	-12810
▁박성	-12811
test	-12812
▁모르겠	-12813
▁화제가	-12814
▁게임에서	-12815
▁덤	-12816
▁바나	-12817
▁닫으시면	-12818
되었을	-12819
▁AWS	-12820
▁클릭하시면	-12821
모델링	-12822
▁서귀포	-12823
▁지지를	-12824
▁의혹을	-12825
▁정보의	-12826
▁하루를	-12827
▁최저가	-12828
것입니다	-12829
▁work	-12830
▁전달했다	-12831
▁Server	-12832
▁Inc	-12833
▁니트	-12834
으로만	-12835
...)	-12836
▁영상이	-12837
파는	-12838
▁최다	-12839
았다는	-12840
▁분석한	-12841
▁역사의	-12842
▁이내의	-12843
▁줄을	-12844
▁Part	-12845
조리	-12846
▁무용	-12847
▁어딘	-12848
▁표정을	-12849
티스	-12850
▁유기농	-12851
출장마사지샵	-12852
늦게	-12853
전공	-12854
▁우체	-12855
▁high	-12856
전남	-12857
통장	-12858
▁존재하지	-12859
emo	-12860
▁헬스케어	-12861
▁모르겠지만	-12862
▁디즈니	-12863
▁유익한	-12864
▁확인하실	-12865
▁살피	-12866
▁시세	-12867
▁1970	-12868
▁원전	-12869
▁지친	-12870
▁호남	-12871
레스테롤	-12872
▁Amazon	-12873
곳에	-12874
▁63	-12875
▁지역별	-12876
▁추천해	-12877
▁테라스	-12878
oul	-12879
▁네임	-12880
▁오르는	-12881
▁의문	-12882
▁해체	-12883
▁닫히며	-12884
▁홈페이지에	-12885
▁과세	-12886
▁길에	-12887
▁위키	-12888
▁맥락	-12889
▁무의	-12890
▁동의를	-12891
▁무제한	-12892
▁예정인	-12893
▁이후에는	-12894
AA	-12895
캐피탈	-12896
▁클릭하여	-12897
포지	-12898
-29	-12899
▁어우러	-12900
▁어차피	-12901
ased	-12902
▁new	-12903
▁카메라를	-12904
휴일	-12905
▁입체	-12906
▁듯이	-12907
▁수사를	-12908
▁여성은	-12909
▁back	-12910
충전	-12911
▁탈북	-12912
▁권한이	-12913
과목	-12914
▁흩	-12915
▁살펴보고	-12916
▁아버지가	-12917
로써	-12918
▁지난주	-12919
▁입장에서는	-12920
▁샴푸	-12921
▁샘	-12922
팀을	-12923
▁시인	-12924
lick	-12925
협약을	-12926
▁담당자	-12927
디에	-12928
▁마쳤다	-12929
▁생각도	-12930
▁객실에서	-12931
▁내야	-12932
▁역사상	-12933
▁나타나고	-12934
▁먹튀사이트	-12935
▁먹은	-12936
▁모던	-12937
▁하도록	-12938
▁있었어요	-12939
도어	-12940
▁림	-12941
▁두통	-12942
▁빨라	-12943
▁작고	-12944
▁혼자서	-12945
▁겨냥	-12946
▁들지	-12947
▁냄새가	-12948
▁걸고	-12949
플레이션	-12950
▁장벽	-12951
▁언어를	-12952
pare	-12953
▁시설이	-12954
정상회담	-12955
▁현대자동차	-12956
▁안마방	-12957
▁일각	-12958
▁것인데	-12959
▁환경이	-12960
▁참여했다	-12961
▁청소년보호	-12962
▁경찰이	-12963
▁만들었습니다	-12964
▁개그	-12965
▁차분	-12966
▁감동을	-12967
▁money	-12968
수영	-12969
~30	-12970
▁FC	-12971
▁문경	-12972
▁중점	-12973
▁코미	-12974
▁강남안마	-12975
분께	-12976
▁랭킹	-12977
▁애드	-12978
영리	-12979
보고서	-12980
천지	-12981
▁명확하게	-12982
월말	-12983
▁수없는	-12984
방역	-12985
▁66	-12986
만원으로	-12987
▁모두의	-12988
▁만나볼	-12989
▁어렵고	-12990
▁하단	-12991
▁알려주	-12992
▁동일하게	-12993
▁보호하기	-12994
▁평가했다	-12995
)”	-12996
53	-12997
▁찾아볼	-12998
▁공간에서	-12999
해당	-13000
▁사라진	-13001
▁세우고	-13002
▁건전한	-13003
▁노력하는	-13004
▁예상되는	-13005
ures	-13006
베르	-13007
퀘어	-13008
▁카테고리의	-13009
▁자격을	-13010
▁한하여	-13011
▁시작하기	-13012
▁만나보세요	-13013
로봇	-13014
▁기증	-13015
▁문화의	-13016
▁요청한	-13017
간호	-13018
기타	-13019
▁데모	-13020
▁드러나	-13021
▁태도를	-13022
▁심리적	-13023
▁올리브	-13024
균형	-13025
▁기대가	-13026
▁ISO	-13027
▁서울에서	-13028
▁프리미어	-13029
▁머무	-13030
▁비닐	-13031
▁인형	-13032
권으로	-13033
▁Associ	-13034
만여	-13035
▁성적을	-13036
입금	-13037
▁던져	-13038
▁망설	-13039
▁실수	-13040
회로	-13041
▁아메리카	-13042
▁프로토콜	-13043
▁좋았다	-13044
▁출연해	-13045
▁추천하는	-13046
54	-13047
▁국어	-13048
▁#30	-13049
서버	-13050
▁녀석	-13051
▁특가	-13052
▁호출	-13053
rent	-13054
▁360	-13055
▁이번엔	-13056
▁나고	-13057
▁편이	-13058
▁사건에	-13059
▁장면을	-13060
레나	-13061
▁지옥	-13062
▁깔끔하게	-13063
스럽다	-13064
▁못하면	-13065
▁인식을	-13066
▁예수님의	-13067
▁비정규직	-13068
테리아	-13069
▁본부	-13070
▁확대해	-13071
▁의료기관	-13072
▁빛이	-13073
크리트	-13074
▁네덜란드	-13075
▁해주세요	-13076
참고	-13077
▁클로	-13078
▁160	-13079
▁수혜	-13080
▁농산물	-13081
▁저에게	-13082
▁탄탄한	-13083
▁침투	-13084
▁의미로	-13085
▁마련됐다	-13086
▁지원하기	-13087
▁끝날	-13088
▁밖의	-13089
▁분포	-13090
▁신작	-13091
▁한우	-13092
▁로맨틱	-13093
▁목록을	-13094
▁변화는	-13095
▁줌	-13096
▁체감	-13097
▁디테	-13098
▁토양	-13099
방안을	-13100
▁기억에	-13101
▁불러일으	-13102
▁거실	-13103
▁조합원	-13104
▁타당	-13105
▁게이트	-13106
실적	-13107
봤는데	-13108
96	-13109
▁날은	-13110
▁보석	-13111
▁소망	-13112
▁갑니다	-13113
▁경제를	-13114
▁때보다	-13115
▁힘입어	-13116
▁음식점은	-13117
▁구동	-13118
▁젊은이	-13119
▁아이스크	-13120
▁최저임금	-13121
▁아이는	-13122
▁1996	-13123
▁여자친구	-13124
▁ph	-13125
▁장미	-13126
▁대표이	-13127
▁문화가	-13128
해상	-13129
▁어느새	-13130
부부	-13131
▁공제	-13132
▁조직을	-13133
자나	-13134
▁똑똑	-13135
히지	-13136
▁거룩	-13137
▁certif	-13138
번의	-13139
▁84	-13140
▁배상	-13141
▁걸어서	-13142
▁경쟁을	-13143
▁대상은	-13144
▁아니며	-13145
▁운항	-13146
줘서	-13147
▁환전	-13148
목차	-13149
▁장의	-13150
▁투수	-13151
시에는	-13152
▁심층	-13153
▁우대	-13154
쳤습니다	-13155
▁귀국	-13156
▁인디	-13157
eric	-13158
▁치료제	-13159
레는	-13160
▁투기	-13161
▁가난한	-13162
▁무대에	-13163
거라	-13164
▁같고	-13165
▁실적을	-13166
▁Design	-13167
▁늘려	-13168
▁사건은	-13169
▁이용하면	-13170
▁불이	-13171
▁방수	-13172
▁심리학	-13173
▁총리는	-13174
은품	-13175
pre	-13176
▁기록하고	-13177
▁불꽃	-13178
▁한양	-13179
▁영향력을	-13180
보지	-13181
▁도매	-13182
▁예매	-13183
▁양질의	-13184
튜버	-13185
▁초등학생	-13186
▁美	-13187
개소	-13188
▁그렇습니다	-13189
▁일과	-13190
▁사랑이	-13191
▁대한항공	-13192
search	-13193
▁Pub	-13194
▁5,000	-13195
▁어색	-13196
▁작가가	-13197
▁팬들의	-13198
식물	-13199
▁파크	-13200
▁대법원	-13201
▁쉽습니다	-13202
its	-13203
▁박사는	-13204
▁UI	-13205
▁내어	-13206
▁오렌지	-13207
▁영토	-13208
▁오류가	-13209
▁논리	-13210
▁중년	-13211
ring	-13212
▁자신과	-13213
손해	-13214
▁막상	-13215
▁정읍	-13216
▁헤어드	-13217
▁다크	-13218
▁타는	-13219
▁적용되는	-13220
▁기차	-13221
▁실전	-13222
▁추억을	-13223
▁창에서	-13224
보며	-13225
▁라면	-13226
▁살펴볼	-13227
▁시설과	-13228
▁썩	-13229
묘한	-13230
▁현금으로	-13231
⠀⠀	-13232
▁방출	-13233
▁수준이다	-13234
▁아이템을	-13235
먹튀	-13236
▁상표	-13237
▁정책이	-13238
▁좋아서	-13239
FL	-13240
아아	-13241
▁점포	-13242
▁끌었다	-13243
▁정부에	-13244
▁있었다고	-13245
\\	-13246
▁CH	-13247
▁궁금해	-13248
▁받습니다	-13249
▁꽁	-13250
▁비만	-13251
▁수상했다	-13252
▁깎	-13253
성분	-13254
▁By	-13255
하자는	-13256
▁공개한	-13257
▁책정	-13258
▁119	-13259
▁판매가	-13260
▁시중	-13261
▁유치원	-13262
속을	-13263
iews	-13264
▁연결되어	-13265
PGA	-13266
▁건지	-13267
▁면세	-13268
▁이병	-13269
▁아직까지	-13270
버트	-13271
이후	-13272
▁부실	-13273
▁입문	-13274
▁자신감을	-13275
▁않았을	-13276
orn	-13277
▁GM	-13278
▁맘에	-13279
▁맛과	-13280
▁이진	-13281
▁팩스	-13282
▁무서운	-13283
▁하죠	-13284
▁찾았다	-13285
▁어디에서	-13286
만간	-13287
▁남한	-13288
▁용역	-13289
ales	-13290
▁발표된	-13291
지니	-13292
▁끔찍	-13293
▁주목할	-13294
ft	-13295
▁고급스러운	-13296
조로	-13297
▁SP	-13298
▁찬양	-13299
▁Sch	-13300
▁1995	-13301
▁68	-13302
▁경향	-13303
▁내비	-13304
▁사료	-13305
▁먹거리	-13306
블러	-13307
▁숨어	-13308
시하는	-13309
Ar	-13310
Wh	-13311
상환	-13312
▁말이죠	-13313
뱅킹	-13314
▁부를	-13315
으로의	-13316
▁것이기	-13317
▁뚝	-13318
두를	-13319
▁상시	-13320
▁국내에	-13321
▁업계의	-13322
▁sk	-13323
▁김병	-13324
▁넣은	-13325
▁삶과	-13326
▁못했습니다	-13327
값을	-13328
cept	-13329
▁가정의	-13330
▁세계적	-13331
▁시작을	-13332
▁영어로	-13333
▁국경	-13334
▁이윤	-13335
▁경우에만	-13336
▁시기를	-13337
▁사용한다	-13338
▁성장하는	-13339
▁찾아가는	-13340
▁달에	-13341
▁350	-13342
▁모았다	-13343
▁보이며	-13344
▁중국과	-13345
차원	-13346
▁To	-13347
▁피드백	-13348
ser	-13349
efin	-13350
▁att	-13351
▁일으킨	-13352
인식	-13353
하다면	-13354
ives	-13355
eople	-13356
▁받아서	-13357
▁자격증을	-13358
어리	-13359
▁요한	-13360
▁were	-13361
▁월간	-13362
▁막대한	-13363
▁이전의	-13364
▁정규직	-13365
치면	-13366
▁머리가	-13367
금과	-13368
하겠	-13369
▁임차	-13370
▁파손	-13371
▁체계를	-13372
▁학교를	-13373
▁양을	-13374
▁연구소	-13375
▁언덕	-13376
▁외식	-13377
▁ind	-13378
▁피어	-13379
됐다는	-13380
▁표현하는	-13381
▁걸친	-13382
▁해명	-13383
▁결혼을	-13384
istory	-13385
KB	-13386
▁신화	-13387
▁오스트	-13388
▁담당하는	-13389
▁무엇보다도	-13390
()	-13391
지식	-13392
▁Art	-13393
▁특징은	-13394
▁좋았습니다	-13395
▁프로세스를	-13396
RS	-13397
:20	-13398
▁편지	-13399
▁조금은	-13400
▁걸로	-13401
▁무력	-13402
box	-13403
▁난민	-13404
▁섹스	-13405
▁프로듀	-13406
▁자의	-13407
▁자산을	-13408
▁6,	-13409
일자리	-13410
4.	-13411
산과	-13412
▁구석	-13413
▁제공한	-13414
▁국민연금	-13415
▁62	-13416
▁얻게	-13417
▁유독	-13418
▁Che	-13419
▁지원에	-13420
중독	-13421
▁리스	-13422
▁매칭	-13423
▁획기	-13424
▁되어서	-13425
▁보니까	-13426
▁조건이	-13427
맞은	-13428
청장	-13429
▁코코	-13430
▁역사가	-13431
▁고스란히	-13432
▁IV	-13433
▁남해	-13434
▁해군	-13435
▁코스닥	-13436
계는	-13437
▁아이스	-13438
▁양쪽	-13439
▁짐작	-13440
▁분들의	-13441
▁표현이	-13442
▁생산하는	-13443
다지	-13444
위생	-13445
▁신념	-13446
▁탈모	-13447
▁유럽의	-13448
▁시작하여	-13449
▁전문가가	-13450
▁페이지에서	-13451
ote	-13452
▁될까	-13453
것으로	-13454
되지는	-13455
▁언급했다	-13456
▁장수	-13457
▁지금부터	-13458
▁장단	-13459
▁줄이	-13460
▁지진	-13461
▁철거	-13462
▁현안	-13463
▁라인업	-13464
받기	-13465
성형	-13466
▁나지	-13467
구에서	-13468
끄러운	-13469
▁운영자	-13470
erson	-13471
▁교훈	-13472
▁전제	-13473
▁이뤄진	-13474
▁특정한	-13475
▁발언을	-13476
da	-13477
등한	-13478
▁식량	-13479
본부장	-13480
▁새누리	-13481
▁성공했다	-13482
카메라	-13483
▁금액이	-13484
▁저렇게	-13485
▁자본주의	-13486
▁존재한다	-13487
차적으로	-13488
부천	-13489
▁살기	-13490
▁세분	-13491
▁수상한	-13492
GA	-13493
그네	-13494
~20	-13495
▁남기	-13496
▁펼치고	-13497
전형	-13498
처는	-13499
카를	-13500
▁마카오	-13501
▁어느정도	-13502
vailable	-13503
수출	-13504
자면	-13505
처음	-13506
심리	-13507
▁년간	-13508
▁띄는	-13509
▁몽골	-13510
▁무장	-13511
▁노무현	-13512
▁사용된	-13513
▁장관이	-13514
드릴게요	-13515
파의	-13516
▁열쇠	-13517
요양	-13518
포터	-13519
▁교회를	-13520
▁나타났	-13521
▁증상은	-13522
▁라스	-13523
▁버린	-13524
▁이라고	-13525
▁터미널	-13526
agram	-13527
▁like	-13528
길에	-13529
수급	-13530
드에서	-13531
BR	-13532
월호	-13533
▁입점	-13534
▁학사	-13535
▁뜻이다	-13536
▁색다른	-13537
▁활동은	-13538
▁승부	-13539
▁아저	-13540
지난해	-13541
▁언제든	-13542
▁하기도	-13543
▁호수	-13544
▁않다고	-13545
2]	-13546
가서	-13547
▁규모를	-13548
▁이후에도	-13549
에있는	-13550
▁여는	-13551
▁한국이	-13552
▁소개하고	-13553
체크	-13554
▁오바	-13555
▁인스턴	-13556
▁궁금하신	-13557
출장샵추천	-13558
▁변화와	-13559
공동체	-13560
▁최적화된	-13561
라를	-13562
▁광장	-13563
▁냉각	-13564
▁취할	-13565
▁안전성	-13566
▁지키기	-13567
▁만났다	-13568
▁말씀해	-13569
▁real	-13570
▁췌	-13571
▁If	-13572
▁이미지가	-13573
▁솟	-13574
시사	-13575
ful	-13576
▁용서	-13577
▁의원의	-13578
▁분석하고	-13579
동은	-13580
▁비중을	-13581
▁상당의	-13582
▁환자에게	-13583
명에게	-13584
▁부회장	-13585
▁크기를	-13586
보이	-13587
▁찾지	-13588
그룹의	-13589
래프트	-13590
▁시작하고	-13591
▁칼슘	-13592
▁채소	-13593
▁마음껏	-13594
▁치료는	-13595
▁교차	-13596
▁Vis	-13597
▁탐험	-13598
▁이외의	-13599
견적	-13600
처벌	-13601
▁라벨	-13602
▁지체	-13603
▁촉구했다	-13604
▁구할	-13605
▁소니	-13606
RP	-13607
▁도움이됩니다	-13608
잡이	-13609
▁북부	-13610
▁화제	-13611
▁목사는	-13612
▁영향이	-13613
9%	-13614
피부	-13615
▁오산	-13616
▁전무	-13617
▁One	-13618
▁공정한	-13619
▁이상적인	-13620
▁친구들이	-13621
영역	-13622
으려	-13623
▁다음을	-13624
HP	-13625
▁해볼	-13626
라운지	-13627
▁LCD	-13628
▁교회가	-13629
▁초월	-13630
▁관리할	-13631
▁비롯하여	-13632
프란	-13633
▁침실	-13634
▁NFT	-13635
▁뉴스를	-13636
▁이어가고	-13637
▁가톨릭	-13638
▁3,000	-13639
등에	-13640
렌즈	-13641
는데도	-13642
▁마련된	-13643
오의	-13644
(18	-13645
▁EV	-13646
▁빈곤	-13647
▁가슴이	-13648
▁전망을	-13649
▁케이크	-13650
▁안경	-13651
▁커넥	-13652
년간의	-13653
▁예뻐	-13654
▁**	-13655
▁백악	-13656
▁들어와	-13657
▁없으니	-13658
지급	-13659
▁통지	-13660
▁금메달	-13661
반을	-13662
▁ver	-13663
남자	-13664
노래	-13665
▁아베	-13666
해야만	-13667
▁커리	-13668
물류	-13669
▁출신의	-13670
자금대출	-13671
▁관리하고	-13672
▁생생한	-13673
▁주식회사	-13674
창원	-13675
인터뷰	-13676
▁찾아서	-13677
무기	-13678
▁따르	-13679
▁천재	-13680
▁마음은	-13681
▁사찰	-13682
lock	-13683
사기	-13684
▁Ab	-13685
▁교육과정	-13686
너리	-13687
▁매운	-13688
▁유관	-13689
▁촬영을	-13690
▁개관	-13691
▁두루	-13692
Th	-13693
빨리	-13694
황을	-13695
▁랜덤	-13696
▁스타벅	-13697
▁뽀	-13698
채용	-13699
▁듀얼	-13700
문화재단	-13701
ports	-13702
▁퀸	-13703
곳을	-13704
▁오를	-13705
▁뱀	-13706
▁벤치	-13707
▁흥분	-13708
▁가능해	-13709
여개	-13710
인한	-13711
▁걸까	-13712
▁그거	-13713
▁되돌아	-13714
▁소통을	-13715
▁이어폰	-13716
▁문제점을	-13717
▁컴퓨터를	-13718
8)	-13719
uck	-13720
▁슬리	-13721
▁교수의	-13722
▁사용될	-13723
51	-13724
▁잃고	-13725
▁질을	-13726
▁출제	-13727
카드를	-13728
▁시간도	-13729
▁심사를	-13730
▁있었을	-13731
▁개인정보보호	-13732
파티	-13733
▁신의	-13734
▁best	-13735
▁늙	-13736
▁선착순	-13737
하되	-13738
▁나간	-13739
▁지인	-13740
▁피자	-13741
▁베이스	-13742
▁별다른	-13743
▁설치를	-13744
▁업무에	-13745
ating	-13746
Re	-13747
커뮤니티	-13748
▁지방선거	-13749
오토	-13750
▁ICT	-13751
▁IN	-13752
▁뷔페	-13753
▁줄기	-13754
▁달걀	-13755
ages	-13756
▁유발할	-13757
매수	-13758
위원장은	-13759
워치	-13760
해줄	-13761
▁비전을	-13762
▁영원한	-13763
ott	-13764
▁구비	-13765
▁몸과	-13766
▁청결	-13767
▁올해의	-13768
▁마이크로소프트	-13769
들만	-13770
▁생명의	-13771
▁코스피	-13772
:15	-13773
▁아닌데	-13774
진행	-13775
▁두는	-13776
▁수평	-13777
▁앞세	-13778
▁체결했다	-13779
TP	-13780
오스	-13781
▁부위	-13782
ization	-13783
▁당해	-13784
▁어지	-13785
▁요법	-13786
▁자리가	-13787
▁자세를	-13788
말이	-13789
▁7,	-13790
▁서해	-13791
)-	-13792
▁헨	-13793
▁ac	-13794
▁시점에	-13795
▁입시	-13796
명이다	-13797
▁나이에	-13798
▁만나게	-13799
▁이메일을	-13800
에어	-13801
▁구축을	-13802
oon	-13803
▁텍사스	-13804
▁앞선	-13805
▁보증하지	-13806
MI	-13807
식사	-13808
▁가지를	-13809
비드	-13810
▁단행	-13811
▁협박	-13812
▁올바르게	-13813
▁위촉	-13814
▁저널	-13815
로이드	-13816
▁아시안	-13817
에겐	-13818
원인	-13819
컬러	-13820
▁자바	-13821
▁않거나	-13822
▁한동안	-13823
▁드러났다	-13824
년과	-13825
▁주장이	-13826
yl	-13827
층을	-13828
▁간략	-13829
▁의자	-13830
과대학	-13831
였어요	-13832
▁use	-13833
▁제한이	-13834
▁주의를	-13835
론이	-13836
마음	-13837
시경	-13838
▁드래곤	-13839
러브	-13840
att	-13841
▁왠지	-13842
▁한두	-13843
▁불편을	-13844
▁세면	-13845
~~~~	-13846
조절	-13847
▁강경	-13848
▁당근	-13849
▁오로지	-13850
ao	-13851
움은	-13852
이전	-13853
공식	-13854
▁규칙을	-13855
56	-13856
택배	-13857
▁참조하십시오	-13858
청주	-13859
▁실시한다	-13860
ECT	-13861
▁산출	-13862
▁명확히	-13863
소시	-13864
요리	-13865
▁보시	-13866
▁당시의	-13867
rit	-13868
▁듣기	-13869
▁난다	-13870
▁구매를	-13871
ading	-13872
▁중요하게	-13873
)"	-13874
모음	-13875
밴드	-13876
공학과	-13877
▁여자가	-13878
▁근거로	-13879
완벽	-13880
▁고려한	-13881
▁주파	-13882
▁IoT	-13883
▁로켓	-13884
부르크	-13885
센티브	-13886
▁되나요	-13887
▁컴퓨	-13888
▁its	-13889
▁판타지	-13890
▁무엇일까	-13891
▁어디서나	-13892
▁NC	-13893
▁재벌	-13894
하지도	-13895
▁블랙잭	-13896
▁부분에서	-13897
명령	-13898
약한	-13899
rop	-13900
▁라미	-13901
▁일할	-13902
bl	-13903
전통	-13904
▁빈번	-13905
▁교육은	-13906
▁이끌고	-13907
▁기업들의	-13908
uch	-13909
박람회	-13910
▁경기에	-13911
언이	-13912
▁비교할	-13913
Ad	-13914
퇴근	-13915
▁폭염	-13916
▁앞으로의	-13917
발달	-13918
아를	-13919
ᄏᄏᄏ	-13920
▁한복	-13921
▁선수는	-13922
EE	-13923
▁견해	-13924
▁대조	-13925
이어야	-13926
주시기	-13927
의사	-13928
▁제출한	-13929
너스	-13930
인민	-13931
▁upd	-13932
▁소송을	-13933
▁특이	-13934
▁편한	-13935
▁지적이	-13936
▁꼼꼼하게	-13937
▁님	-13938
▁씹	-13939
울산	-13940
▁여부에	-13941
▁딴	-13942
터로	-13943
▁독창	-13944
▁주부	-13945
집에서	-13946
커니즘	-13947
국수	-13948
▁이식	-13949
▁지목	-13950
시간은	-13951
부족	-13952
less	-13953
▁과제를	-13954
터에	-13955
학자	-13956
▁무섭	-13957
▁이루어지는	-13958
▁발열	-13959
▁베네	-13960
았으며	-13961
▁금전	-13962
▁전술	-13963
▁하시고	-13964
▁뚜껑	-13965
▁안겨	-13966
▁했으나	-13967
ines	-13968
▁Car	-13969
▁사유로	-13970
▁퍼펙트	-13971
▁시뮬레이션	-13972
▁샷	-13973
유는	-13974
▁소련	-13975
▁여가	-13976
▁재테크	-13977
ohn	-13978
▁than	-13979
▁미팅	-13980
▁반사	-13981
▁하늘을	-13982
▁조세	-13983
▁팬츠	-13984
▁늘어날	-13985
▁미치지	-13986
▁이루어져	-13987
▁주름	-13988
▁아나운	-13989
▁이상은	-13990
▁자리잡	-13991
▁화제를	-13992
▁기가	-13993
▁대통령을	-13994
설비	-13995
하느냐	-13996
▁소개한다	-13997
▁편안하고	-13998
천여	-13999
▁검정	-14000
▁생선	-14001
▁우울증	-14002
▁긁	-14003
▁수고	-14004
▁항암	-14005
▁2025	-14006
▁클러스터	-14007
요즘	-14008
oot	-14009
▁기탁	-14010
▁따르는	-14011
▁공천	-14012
▁키를	-14013
해야하는	-14014
돼지	-14015
관계가	-14016
분쟁	-14017
프랑	-14018
▁돕고	-14019
▁스포츠토토	-14020
홀에서	-14021
▁갑상선	-14022
▁펠	-14023
▁영화가	-14024
활용	-14025
있어서	-14026
▁어떨까	-14027
당시	-14028
미스	-14029
박사	-14030
승인	-14031
억원에	-14032
이지요	-14033
GM	-14034
IST	-14035
▁응모	-14036
기까지	-14037
▁갈등을	-14038
▁챌린	-14039
▁맞추어	-14040
드레	-14041
병이	-14042
사리	-14043
▁남편이	-14044
▁적당히	-14045
▁혜택이	-14046
▁CR	-14047
▁상반	-14048
▁진동	-14049
▁관계에	-14050
▁당분간	-14051
▁변경할	-14052
하하	-14053
▁거지	-14054
▁탈락	-14055
▁폭로	-14056
▁따릅니다	-14057
▁광주시	-14058
▁추진해	-14059
스트로	-14060
▁나오면	-14061
▁Service	-14062
▁구로	-14063
▁길은	-14064
▁김희	-14065
활동에	-14066
▁벌어진	-14067
리케이션을	-14068
곡을	-14069
치과	-14070
▁거기서	-14071
▁they	-14072
▁출장업소	-14073
소장	-14074
층이	-14075
▁집권	-14076
▁체력	-14077
들었다	-14078
-100	-14079
▁금액은	-14080
직업	-14081
lex	-14082
▁전쟁을	-14083
▁비지	-14084
▁스노	-14085
수증	-14086
중을	-14087
ral	-14088
▁글자	-14089
▁다스	-14090
▁둘이	-14091
▁분비	-14092
됐지만	-14093
▁tvN	-14094
▁나란히	-14095
▁인식이	-14096
eek	-14097
▁데는	-14098
▁입양	-14099
▁잔디	-14100
▁픽업	-14101
▁옵션이	-14102
▁만들어야	-14103
▁까닭	-14104
▁햇빛	-14105
▁알려주세요	-14106
▁앵	-14107
칼럼	-14108
▁다각	-14109
▁신년	-14110
▁휴대전화	-14111
site	-14112
▁순수한	-14113
▁투자가	-14114
▁지속가능	-14115
▁크루즈	-14116
▁페어	-14117
게시판	-14118
번개	-14119
▁곰팡	-14120
▁팝업	-14121
aj	-14122
▁복수	-14123
▁전국의	-14124
▁진행되며	-14125
▁기능성	-14126
▁염두에	-14127
시행	-14128
기간에	-14129
▁rel	-14130
▁힘들다	-14131
워킹	-14132
▁돌이	-14133
▁속초	-14134
▁순식	-14135
면접	-14136
풍을	-14137
속으로	-14138
▁번째는	-14139
▁화면에	-14140
▁제거하고	-14141
▁남의	-14142
▁면허	-14143
베이션	-14144
▁Dis	-14145
어떤	-14146
▁최강	-14147
no	-14148
▁그늘	-14149
▁상을	-14150
▁좌석	-14151
AV	-14152
임스	-14153
▁상해	-14154
▁엔터	-14155
디스크	-14156
▁only	-14157
논문	-14158
▁마른	-14159
▁아직은	-14160
FF	-14161
EWS	-14162
▁적용한	-14163
▁Post	-14164
▁고객센터로	-14165
슬러	-14166
▁미루	-14167
▁세우	-14168
▁되기도	-14169
▁확보를	-14170
▁변화하는	-14171
▁론칭	-14172
▁역동	-14173
▁사실에	-14174
▁파이프	-14175
▁교황	-14176
▁이용에	-14177
▁불가합니다	-14178
iqu	-14179
▁88	-14180
가면서	-14181
book	-14182
왔고	-14183
▁번거	-14184
▁인체	-14185
▁의사와	-14186
▁지속가능한	-14187
출산	-14188
eng	-14189
▁주먹	-14190
▁달한다	-14191
체육관광	-14192
▁콜레스테롤	-14193
정말	-14194
포장	-14195
por	-14196
▁문자를	-14197
나도	-14198
이름	-14199
▁리스팅	-14200
▁소속사	-14201
▁스터	-14202
▁사람으로	-14203
▁힌	-14204
orm	-14205
▁청취	-14206
▁태도	-14207
▁가지가	-14208
▁Data	-14209
량과	-14210
밀하게	-14211
▁알려주는	-14212
▁풋	-14213
발의	-14214
▁리듬	-14215
▁장악	-14216
이나마	-14217
▁올해도	-14218
지검	-14219
▁데에	-14220
otal	-14221
닐라	-14222
▁패러다	-14223
avel	-14224
군사	-14225
▁보령	-14226
▁제법	-14227
▁ETF	-14228
▁신고를	-14229
콜걸추천	-14230
역안마	-14231
▁종로구	-14232
워요	-14233
▁서술	-14234
▁안내를	-14235
▁엄청나게	-14236
▁영역에서	-14237
아라	-14238
▁et	-14239
▁이득	-14240
▁점령	-14241
▁탐방	-14242
것이다	-14243
-001	-14244
▁조만간	-14245
57	-14246
▁아랍	-14247
▁후쿠	-14248
▁과거에	-14249
▁장점은	-14250
▁ᄏᄏᄏᄏ	-14251
그렇	-14252
~19	-14253
▁잇는	-14254
▁남자의	-14255
▁듯하다	-14256
▁돌아가는	-14257
▁방탄소년	-14258
란을	-14259
문헌	-14260
은이	-14261
▁전망이	-14262
▁데이터는	-14263
▁브랜	-14264
▁안다	-14265
▁성격을	-14266
레저	-14267
▁난방	-14268
▁입에	-14269
fect	-14270
rist	-14271
▁교육이	-14272
▁당사의	-14273
▁들어가서	-14274
▁베르	-14275
▁유포	-14276
▁톡톡	-14277
▁man	-14278
▁바라며	-14279
▁차가운	-14280
ified	-14281
▁신라	-14282
▁콘솔	-14283
▁비율은	-14284
▁필수적인	-14285
ley	-14286
▁동맥	-14287
▁몰래	-14288
▁담았다	-14289
▁어디로	-14290
▁위해선	-14291
▁나타난다	-14292
▁됐습니다	-14293
▁떠오르는	-14294
▁지원사업	-14295
ett	-14296
▁사랑에	-14297
▁김연	-14298
▁청렴	-14299
▁기술에	-14300
▁두드러	-14301
도라	-14302
▁아리	-14303
▁지고	-14304
▁선정한	-14305
▁조금이라도	-14306
▁채로	-14307
▁확산을	-14308
▁돌아오는	-14309
▁안의	-14310
▁충주	-14311
▁팔을	-14312
트에서	-14313
▁주머니	-14314
▁현저히	-14315
태를	-14316
▁대대	-14317
문화재	-14318
▁적중	-14319
▁집착	-14320
금액은	-14321
사이드	-14322
ider	-14323
▁여기저기	-14324
메디	-14325
크가	-14326
▁노예	-14327
▁용기	-14328
▁파고	-14329
▁University	-14330
▁뱃	-14331
봐도	-14332
어촌	-14333
엄마	-14334
▁윌리	-14335
▁혐오	-14336
~8	-14337
발생	-14338
▁77	-14339
ness	-14340
▁IBM	-14341
중립	-14342
▁오피스텔	-14343
▁들었	-14344
▁송고	-14345
▁어렵다는	-14346
▁“(	-14347
▁운영한다	-14348
▁quality	-14349
ye	-14350
ift	-14351
자리를	-14352
르의	-14353
했으면	-14354
▁의사의	-14355
▁지식과	-14356
를린	-14357
음료	-14358
헬스	-14359
uild	-14360
▁국민들의	-14361
▁따져	-14362
▁장소에	-14363
▁지역으로	-14364
igital	-14365
▁크리에이터	-14366
▁;	-14367
공감	-14368
파를	-14369
▁사용에	-14370
▁다시보기	-14371
전드	-14372
▁노르	-14373
▁손목	-14374
▁이어져	-14375
오버	-14376
▁남쪽	-14377
▁사업장	-14378
▁계승	-14379
▁일로	-14380
▁over	-14381
지연	-14382
▁15%	-14383
▁이후의	-14384
글을	-14385
▁ag	-14386
▁버섯	-14387
▁성실	-14388
▁VIP	-14389
▁있었기	-14390
erg	-14391
키스탄	-14392
▁하기에	-14393
aly	-14394
▁products	-14395
▁설치할	-14396
▁원피스	-14397
▁질병을	-14398
우를	-14399
comm	-14400
▁노력할	-14401
▁비행기	-14402
▁예상됩니다	-14403
▁논의를	-14404
▁차라리	-14405
▁ᄒ	-14406
▁분열	-14407
▁전망했다	-14408
▁중심에	-14409
▁패턴을	-14410
▁잉글	-14411
▁Reg	-14412
amily	-14413
▁인터파크	-14414
▁김선	-14415
▁선명	-14416
▁강화하는	-14417
▁메시지가	-14418
▁설명하는	-14419
▁이용자가	-14420
르다	-14421
ason	-14422
▁넷플릭스	-14423
▁박영	-14424
▁체류	-14425
▁패스트	-14426
외교	-14427
ify	-14428
▁과다	-14429
▁기자가	-14430
▁조화를	-14431
▁Park	-14432
니가	-14433
▁학업	-14434
▁other	-14435
▁외출	-14436
▁매출은	-14437
블로	-14438
▁기사의	-14439
▁무언가를	-14440
용이	-14441
▁변수	-14442
▁부모의	-14443
▁통신판매	-14444
▁미군	-14445
▁대응을	-14446
▁갯	-14447
▁여지가	-14448
▁거라	-14449
겠지요	-14450
▁중요하다고	-14451
▁식약	-14452
▁직관	-14453
▁10:00	-14454
▁우리나라는	-14455
토마토	-14456
▁Rev	-14457
▁스테이크	-14458
52	-14459
▁계급	-14460
▁밀양	-14461
▁Techn	-14462
ield	-14463
orth	-14464
ATION	-14465
▁EX	-14466
▁드레	-14467
▁신흥	-14468
▁페르	-14469
▁선택해	-14470
▁필요에	-14471
▁1500	-14472
밸리	-14473
oda	-14474
▁김광	-14475
▁로비	-14476
▁브루	-14477
▁Certification	-14478
▁이별	-14479
▁라인을	-14480
ML	-14481
▁붐	-14482
▁나눈	-14483
▁버티	-14484
▁산학	-14485
▁성숙	-14486
▁전사	-14487
ural	-14488
▁베이비	-14489
최고품질	-14490
▁운영되는	-14491
▁감추	-14492
▁Aut	-14493
~7	-14494
충청	-14495
포토	-14496
▁원고	-14497
▁자칫	-14498
▁희귀	-14499
어머니	-14500
▁구성하는	-14501
▁적합합니다	-14502
블로그	-14503
▁연결을	-14504
▁중대한	-14505
▁World	-14506
후에	-14507
▁광화문	-14508
▁정제	-14509
▁생각한	-14510
문과	-14511
▁역할이	-14512
▁ᅲ	-14513
사법	-14514
▁신진	-14515
▁부진	-14516
▁찍고	-14517
▁하라	-14518
▁보고서에	-14519
▁아름다움을	-14520
▁설치하고	-14521
▁purch	-14522
노이	-14523
▁도는	-14524
▁세금을	-14525
기간을	-14526
▁보호하는	-14527
▁김장	-14528
▁방울	-14529
▁그다지	-14530
▁도널드	-14531
▁연예인	-14532
사이트를	-14533
▁신중하게	-14534
▁시에는	-14535
▁곳곳에서	-14536
▁보이지만	-14537
▁스스로를	-14538
벤션	-14539
보실	-14540
스틴	-14541
(20	-14542
▁단호	-14543
▁만기	-14544
▁없었고	-14545
▁친절한	-14546
▁시작된다	-14547
PI	-14548
야만	-14549
칙을	-14550
경찰서	-14551
▁정보로	-14552
포스	-14553
▁절망	-14554
▁제천	-14555
왕의	-14556
▁심어	-14557
▁장로	-14558
레이드	-14559
영화제	-14560
▁after	-14561
▁파업	-14562
은행이	-14563
이벤트	-14564
++	-14565
보라	-14566
▁좋지만	-14567
▁평화를	-14568
▁객실에는	-14569
▁당진	-14570
▁add	-14571
▁호응을	-14572
▁좌절	-14573
가에서	-14574
▁키우	-14575
내에서	-14576
ause	-14577
▁회원의	-14578
▁받아들여	-14579
그리	-14580
초를	-14581
▁시드	-14582
▁자고	-14583
▁코딩	-14584
셨으면	-14585
▁(19	-14586
▁반갑	-14587
지역에	-14588
성공	-14589
▁먹지	-14590
▁표지	-14591
중학교	-14592
we	-14593
▁내기	-14594
▁밑에	-14595
▁달라진	-14596
▁예쁘게	-14597
▁작년에	-14598
▁int	-14599
▁떨어질	-14600
▁사용하실	-14601
1%	-14602
티나	-14603
▁김일	-14604
▁구축하고	-14605
▁도시재생	-14606
▁등록자에게	-14607
▁Fl	-14608
▁은은	-14609
▁표정	-14610
▁해결책	-14611
▁썬	-14612
▁입지	-14613
▁우려를	-14614
▁제한된	-14615
▁규정하고	-14616
▁깨끗하게	-14617
▁Sup	-14618
▁매출을	-14619
▁원으로	-14620
▁유튜버	-14621
ffect	-14622
▁정맥	-14623
건조	-14624
마루	-14625
▁덜어	-14626
▁잠금	-14627
▁Back	-14628
▁AC	-14629
▁바꾼	-14630
온은	-14631
▁받으실	-14632
▁위험에	-14633
▁장난감	-14634
익을	-14635
▁보컬	-14636
▁이적	-14637
▁회피	-14638
▁언어로	-14639
▁인센티브	-14640
▁특집	-14641
실시간	-14642
▁학생의	-14643
▁휴대용	-14644
▁Is	-14645
▁운반	-14646
▁25%	-14647
킬로미터	-14648
▁바라보며	-14649
상승	-14650
▁뜻이	-14651
▁나이트	-14652
▁러시아의	-14653
▁성장하고	-14654
금속	-14655
▁방금	-14656
▁여객	-14657
kore	-14658
▁가져올	-14659
▁검색어	-14660
▁투자의	-14661
청의	-14662
▁농림	-14663
▁일곱	-14664
▁안된다	-14665
▁디자인은	-14666
td	-14667
신청을	-14668
ever	-14669
▁분석이	-14670
▁얹	-14671
니는	-14672
메이드	-14673
셨어요	-14674
▁수거	-14675
ities	-14676
▁저작권과	-14677
________	-14678
GO	-14679
▁재택	-14680
▁진출을	-14681
▁예언	-14682
▁도착한	-14683
▁해결해	-14684
되었거나	-14685
▁폭스	-14686
버렸다	-14687
▁카지노는	-14688
col	-14689
▁채굴	-14690
▁Date	-14691
▁군대	-14692
▁높을	-14693
▁다녔	-14694
▁알아서	-14695
론은	-14696
마에	-14697
▁캡슐	-14698
▁관절염	-14699
▁끝나면	-14700
▁이용하고	-14701
▁나왔습니다	-14702
뷰티	-14703
▁싶은데	-14704
▁질문이	-14705
특별자치	-14706
▁오락	-14707
▁향이	-14708
▁3~4	-14709
▁매출액	-14710
이라이트	-14711
▁마산	-14712
로서는	-14713
▁첼	-14714
▁살균	-14715
▁특성에	-14716
쟁이	-14717
???	-14718
▁귀엽	-14719
▁로스	-14720
▁축산	-14721
▁다시금	-14722
▁히어로	-14723
시스코	-14724
▁있다가	-14725
크리에이션	-14726
▁공식적으로	-14727
집행	-14728
▁개가	-14729
▁구단	-14730
시키지	-14731
over	-14732
▁세이	-14733
▁킬	-14734
투를	-14735
▁엑스	-14736
▁1960	-14737
▁전형적인	-14738
/2	-14739
▁오사카	-14740
▁적도	-14741
obile	-14742
이기에	-14743
▁동계	-14744
▁파생	-14745
▁운영할	-14746
!’	-14747
▁비로소	-14748
간을	-14749
▁단편	-14750
▁밖에서	-14751
▁사고로	-14752
▁항공기	-14753
보리	-14754
아마	-14755
▁더욱이	-14756
▁반성	-14757
▁사천	-14758
▁과정의	-14759
▁스타일링	-14760
▁Americ	-14761
▁가사	-14762
▁처한	-14763
▁0.5	-14764
▁모양을	-14765
▁반면에	-14766
▁Test	-14767
▁online	-14768
비밀	-14769
움의	-14770
▁"(	-14771
▁반영한	-14772
▁자원을	-14773
▁중국에	-14774
주주	-14775
▁딱딱	-14776
▁선전	-14777
▁진상	-14778
▁크지	-14779
▁단계에	-14780
린은	-14781
채무	-14782
▁카라	-14783
▁병리학	-14784
▁가져오기	-14785
절로	-14786
▁팔레	-14787
니스를	-14788
▁여호와	-14789
▁여권	-14790
▁적을	-14791
▁말씀이	-14792
▁편의시설	-14793
배팅	-14794
▁각기	-14795
▁식탁	-14796
▁장갑	-14797
▁당사는	-14798
법령	-14799
ars	-14800
▁데다	-14801
▁수월	-14802
그래서	-14803
▁순간을	-14804
▁SSD	-14805
▁처리할	-14806
▁취하고	-14807
▁시작됩니다	-14808
유형	-14809
▁98	-14810
▁배틀	-14811
이라면서	-14812
▁회원에게	-14813
▁가볼	-14814
▁전환을	-14815
▁through	-14816
대기	-14817
▁파격	-14818
▁At	-14819
▁str	-14820
▁존재를	-14821
▁판촉물	-14822
▁97	-14823
▁김천	-14824
님들의	-14825
남동	-14826
oss	-14827
▁고조	-14828
▁역학	-14829
▁전인	-14830
▁제발	-14831
▁나서는	-14832
▁조치가	-14833
움에	-14834
▁특강	-14835
cont	-14836
▁웃었다	-14837
▁정도다	-14838
▁아니냐는	-14839
▁주재	-14840
▁착각	-14841
▁전자레인지	-14842
▁中	-14843
가슴	-14844
▁병원에서	-14845
수소	-14846
ough	-14847
▁중고차	-14848
▁업무협약	-14849
비율	-14850
▁소재를	-14851
▁만만	-14852
▁전직	-14853
▁구매하는	-14854
▁네트	-14855
▁음원	-14856
분들의	-14857
...”	-14858
▁기능에	-14859
▁엮	-14860
▁온전히	-14861
▁순식간에	-14862
▁download	-14863
버거	-14864
:11	-14865
▁간혹	-14866
▁Network	-14867
▁석탄	-14868
▁시크	-14869
▁내부의	-14870
▁정신이	-14871
}}	-14872
▁사태가	-14873
▁성장과	-14874
가을	-14875
호흡	-14876
▁유닛	-14877
▁탄수	-14878
마스터	-14879
▁바람을	-14880
▁성매매	-14881
안과	-14882
▁집회	-14883
▁충실	-14884
컴퍼니	-14885
▁스크립	-14886
▁원자력	-14887
▁물가	-14888
▁회원은	-14889
▁회의실	-14890
었죠	-14891
▁연인	-14892
으려면	-14893
▁인플루	-14894
▁한나라	-14895
▁후기를	-14896
▁Min	-14897
▁내밀	-14898
▁계정에	-14899
!)	-14900
FP	-14901
mp	-14902
str	-14903
▁대단한	-14904
▁part	-14905
분과	-14906
싶은	-14907
아도	-14908
▁주일	-14909
능력을	-14910
COM	-14911
▁way	-14912
▁돋보이는	-14913
▁수행하고	-14914
▁있었다는	-14915
께요	-14916
▁비유	-14917
▁심하게	-14918
▁캐스팅	-14919
▁확대하고	-14920
▁왼	-14921
ana	-14922
▁>>	-14923
▁간식	-14924
▁고집	-14925
▁동성애	-14926
▁보증금	-14927
더는	-14928
▁공백	-14929
▁마일	-14930
문으로	-14931
▁치러	-14932
▁기억을	-14933
▁친구를	-14934
▁미네랄	-14935
▁풍성한	-14936
문화예술	-14937
▁가루	-14938
▁것임을	-14939
▁불이익	-14940
▁생활에	-14941
▁처리하는	-14942
▁포함하고	-14943
▁스마트폰을	-14944
ero	-14945
▁워드	-14946
▁증대	-14947
▁차원	-14948
▁일본이	-14949
▁늘어나는	-14950
▁모빌리티	-14951
되던	-14952
통이	-14953
있는데	-14954
▁need	-14955
▁건강하고	-14956
▁미얀	-14957
▁5)	-14958
▁IC	-14959
▁보습	-14960
▁요구했다	-14961
▁물로	-14962
▁분명한	-14963
▁평가가	-14964
가공	-14965
버드	-14966
▁공모전	-14967
▁평소에	-14968
▁염려	-14969
▁보겠습니다	-14970
용차	-14971
체어	-14972
acy	-14973
▁방위	-14974
▁생각하며	-14975
▁진실성에	-14976
▁결론을	-14977
▁신호를	-14978
▁따뜻하게	-14979
▁(3	-14980
▁시선	-14981
미술관	-14982
▁맡았다	-14983
▁살아있는	-14984
02	-14985
셨던	-14986
:16	-14987
▁아크	-14988
Book	-14989
플래	-14990
은행의	-14991
▁생겼다	-14992
▁콧	-14993
가면	-14994
▁유족	-14995
▁파인	-14996
▁계획에	-14997
▁타이밍	-14998
서치	-14999
치킨	-15000
▁세로	-15001
▁비교하여	-15002
▁사용되고	-15003
▁요청했다	-15004
▁육체	-15005
▁대단히	-15006
▁발전과	-15007
세와	-15008
▁견인	-15009
▁학위	-15010
▁한결	-15011
▁성폭행	-15012
끈한	-15013
ific	-15014
▁진실을	-15015
▁Adobe	-15016
시트	-15017
아내	-15018
▁매진	-15019
▁원칙을	-15020
▁철강	-15021
금융권	-15022
▁검토하고	-15023
wo	-15024
동생	-15025
▁숙련	-15026
▁잠실	-15027
▁업체를	-15028
▁에디션	-15029
별한	-15030
▁가열	-15031
▁세력	-15032
▁마이클	-15033
9)	-15034
▁아끼지	-15035
벤처기업	-15036
▁Open	-15037
▁않았다는	-15038
▁이불	-15039
거에요	-15040
Al	-15041
▁뇌졸	-15042
▁두피	-15043
▁염색	-15044
▁이경	-15045
▁판단을	-15046
질로	-15047
▁들어가면	-15048
▁브레이크	-15049
한번	-15050
▁야기	-15051
▁reg	-15052
▁마련한	-15053
▁예술가	-15054
▁치료하는	-15055
티아	-15056
▁기한	-15057
▁요금을	-15058
▁있듯이	-15059
답변	-15060
val	-15061
▁한방	-15062
▁dif	-15063
▁여성을	-15064
▁교도	-15065
▁청산	-15066
오피스	-15067
▁개발하는	-15068
▁목소리로	-15069
▁효율성을	-15070
▁상점	-15071
을까요	-15072
▁누군가가	-15073
▁표정으로	-15074
▁입장이	-15075
봐요	-15076
:14	-15077
▁쌓여	-15078
년동안	-15079
▁설정할	-15080
▁인류의	-15081
▁장시간	-15082
▁아이들과	-15083
개는	-15084
세상	-15085
▁권위	-15086
▁레인	-15087
▁이점	-15088
▁부모가	-15089
▁비율을	-15090
민을	-15091
:12	-15092
▁FX	-15093
라고도	-15094
▁앉아서	-15095
▁시작되는	-15096
▁COVID	-15097
▁가요	-15098
▁Pol	-15099
▁부른다	-15100
▁연구원	-15101
▁장학금	-15102
stand	-15103
▁기본으로	-15104
aut	-15105
▁더운	-15106
▁실감	-15107
만큼은	-15108
▁바라보고	-15109
▁컨퍼런스	-15110
창조	-15111
추행	-15112
▁낭비	-15113
문화의	-15114
▁쓰이는	-15115
▁exper	-15116
건지	-15117
모집	-15118
종으로	-15119
행위를	-15120
▁뛰어들	-15121
%9	-15122
▁만끽	-15123
▁부어	-15124
▁스승	-15125
하고도	-15126
고시	-15127
▁리드	-15128
▁휴게	-15129
▁멤버십	-15130
▁밝히고	-15131
▁줬	-15132
▁내리고	-15133
▁자체는	-15134
▁해마다	-15135
▁밭	-15136
견이	-15137
▁서산	-15138
▁been	-15139
▁안쪽	-15140
yout	-15141
실천	-15142
언스	-15143
▁인내	-15144
▁행정안전	-15145
▁레크리에이션	-15146
거부	-15147
북구	-15148
▁act	-15149
▁이상인	-15150
▁있느냐	-15151
하진	-15152
▁담임	-15153
센터에	-15154
국립	-15155
안군	-15156
▁적혀	-15157
▁청정	-15158
▁신청이	-15159
▁확인합니다	-15160
프린	-15161
(12	-15162
▁일명	-15163
▁집이	-15164
▁그것의	-15165
▁연락하여	-15166
oto	-15167
▁광고가	-15168
▁성남시	-15169
▁폐기물	-15170
▁cm	-15171
▁누르	-15172
▁주시고	-15173
이라고도	-15174
▁Prov	-15175
▁메커니즘	-15176
900	-15177
▁짧게	-15178
▁품절	-15179
▁박테리아	-15180
▁진행합니다	-15181
▁내역	-15182
▁보강	-15183
▁금융기관	-15184
▁고쳐	-15185
▁계획은	-15186
▁규제를	-15187
▁많지만	-15188
▁Power	-15189
▁건네	-15190
▁비결	-15191
▁여관	-15192
주시고	-15193
받습니다	-15194
▁선택하면	-15195
▁부자	-15196
▁비누	-15197
▁고유의	-15198
▁방문을	-15199
▁의사소통	-15200
▁만족도	-15201
▁신체적	-15202
거렸다	-15203
/1	-15204
민과	-15205
▁대부	-15206
▁욕망	-15207
▁임기	-15208
nect	-15209
▁그래프	-15210
▁변화의	-15211
러는	-15212
윤리	-15213
▁82	-15214
▁무덤	-15215
▁View	-15216
고양	-15217
▁동호	-15218
▁DVD	-15219
▁Our	-15220
▁제공을	-15221
▁진행을	-15222
de	-15223
영웅	-15224
우편	-15225
edi	-15226
▁꽤나	-15227
▁마우	-15228
▁산다	-15229
▁내놓은	-15230
▁독일의	-15231
반의	-15232
곳이	-15233
수당	-15234
채를	-15235
마스크	-15236
맛이	-15237
▁침입	-15238
위원은	-15239
▁콘크리트	-15240
▁즈	-15241
모로	-15242
▁했으며	-15243
마한	-15244
▁새마을	-15245
▁업계에	-15246
▁스토리지	-15247
대교	-15248
▁디젤	-15249
▁체온	-15250
▁개최된	-15251
▁풍경을	-15252
독립	-15253
▁무겁	-15254
▁빌라	-15255
▁임무	-15256
▁남자는	-15257
▁수치를	-15258
▁스케줄	-15259
▁also	-15260
▁바이너리	-15261
발이	-15262
더보기	-15263
스트를	-15264
▁번호를	-15265
ethod	-15266
▁file	-15267
담한	-15268
▁홍성	-15269
▁촌	-15270
▁기저	-15271
▁동대문	-15272
▁알레르	-15273
▁원형	-15274
▁아무튼	-15275
▁이유다	-15276
▁최근의	-15277
▁힘으로	-15278
▁삐	-15279
▁MP	-15280
illa	-15281
▁디테일	-15282
들인	-15283
:||	-15284
▁서울대학교	-15285
▁코치	-15286
▁조사한	-15287
DR	-15288
:13	-15289
▁Ac	-15290
▁스커	-15291
▁이룰	-15292
완벽한	-15293
▁결혼식	-15294
▁올해로	-15295
▁장면이	-15296
▁가능하도록	-15297
▁“‘	-15298
▁부드러	-15299
▁용기를	-15300
▁체험을	-15301
▁못합니다	-15302
▁프로젝트에	-15303
예배	-15304
▁리뷰에	-15305
▁시민단체	-15306
▁예민	-15307
91	-15308
▁Hu	-15309
▁아라	-15310
▁활동하는	-15311
▁쥬	-15312
러를	-15313
겠는가	-15314
전부터	-15315
네가	-15316
적일	-15317
▁박상	-15318
▁대해선	-15319
▁추진한다	-15320
▁prepare	-15321
▁솜	-15322
▁모르지만	-15323
르타	-15324
서스	-15325
▁종일	-15326
어스	-15327
▁다할	-15328
▁중화	-15329
▁1994	-15330
▁낡	-15331
▁추상	-15332
▁할리	-15333
▁열정을	-15334
▁집중할	-15335
▁처리를	-15336
물론	-15337
▁신도	-15338
▁진한	-15339
▁성폭력	-15340
▁하나다	-15341
itor	-15342
▁검색을	-15343
▁정상화	-15344
▁무료입니다	-15345
▁빼고	-15346
vest	-15347
▁방지를	-15348
▁공작	-15349
▁영적	-15350
▁자립	-15351
▁한옥	-15352
▁되지만	-15353
▁수험생	-15354
사업으로	-15355
▁Enter	-15356
▁카지노에서	-15357
▁찜	-15358
소화	-15359
투쟁	-15360
▁사운	-15361
▁170	-15362
▁친구와	-15363
▁현장의	-15364
불가	-15365
▁로즈	-15366
▁업체는	-15367
연료	-15368
▁겪은	-15369
▁기장	-15370
▁일괄	-15371
셀로나	-15372
▁가입을	-15373
▁자격이	-15374
▁접근할	-15375
▁다양하고	-15376
반도	-15377
플랜	-15378
▁구성을	-15379
▁연결이	-15380
▁작품으로	-15381
서야	-15382
▁감옥	-15383
▁반전	-15384
▁감정이	-15385
▁건조한	-15386
▁해외에서	-15387
낸스	-15388
단독	-15389
ane	-15390
▁기구	-15391
▁전지	-15392
▁짓고	-15393
오리	-15394
▁스파이	-15395
▁서울중앙	-15396
애플	-15397
항을	-15398
부서	-15399
▁온다	-15400
▁도저히	-15401
▁참가한	-15402
▁기생	-15403
▁세그	-15404
보내기	-15405
▁항공권을	-15406
의학	-15407
자녀	-15408
▁IB	-15409
▁절단	-15410
▁얼굴로	-15411
▁작품의	-15412
▁리모델링	-15413
▁건국	-15414
▁제국	-15415
보았다	-15416
▁경제의	-15417
▁돌아왔다	-15418
▁보장하는	-15419
너는	-15420
마블	-15421
핑크	-15422
ush	-15423
▁수량	-15424
▁부위에	-15425
▁서둘러	-15426
9,	-15427
주며	-15428
표시	-15429
yle	-15430
▁감기	-15431
▁건물을	-15432
들보다	-15433
————	-15434
▁뒤늦게	-15435
매도	-15436
▁필라	-15437
▁공유할	-15438
▁교육에	-15439
▁문화와	-15440
ished	-15441
▁반대하는	-15442
표가	-15443
▁소비자들의	-15444
▁침체	-15445
이신	-15446
TML	-15447
▁이가	-15448
▁이번이	-15449
▁일들이	-15450
되었다는	-15451
▁조선일보	-15452
(11	-15453
▁주의해야	-15454
ANG	-15455
▁거칠	-15456
▁없지	-15457
▁트렌드를	-15458
공자	-15459
▁김은	-15460
▁액체	-15461
▁전문가들이	-15462
▁체계적으로	-15463
▁사이클	-15464
▁아들을	-15465
▁자녀를	-15466
▁학생은	-15467
▁태아	-15468
▁논의가	-15469
▁차량의	-15470
▁생계	-15471
▁예로	-15472
해보면	-15473
erts	-15474
▁보호하고	-15475
▁Center	-15476
그럼	-15477
소녀	-15478
정당	-15479
▁무난	-15480
허브	-15481
▁교재	-15482
지주	-15483
▁다큐멘	-15484
▁의미는	-15485
자문	-15486
▁바가	-15487
▁수송	-15488
▁정유	-15489
변호사	-15490
▁인재를	-15491
▁정당한	-15492
백만	-15493
영을	-15494
▁배구	-15495
▁발견한	-15496
▁생산을	-15497
▁투명한	-15498
▁달리는	-15499
▁포지션	-15500
오른	-15501
AGE	-15502
▁딸기	-15503
▁터널	-15504
상한	-15505
▁저축	-15506
▁파악할	-15507
▁원활하게	-15508
▁Your	-15509
olution	-15510
▁넌	-15511
필드	-15512
▁가자	-15513
▁났다	-15514
▁해줄	-15515
▁대표적	-15516
▁방식에	-15517
▁오페라	-15518
▁의무를	-15519
RC	-15520
▁딱히	-15521
던데	-15522
폐기	-15523
▁귀족	-15524
▁기업인	-15525
▁발견된	-15526
▁자세로	-15527
▁가정에서	-15528
함의	-15529
▁간부	-15530
▁품고	-15531
▁누리꾼	-15532
▁발생하면	-15533
▁정수	-15534
▁가속화	-15535
▁인건	-15536
▁주위	-15537
▁dev	-15538
▁급격한	-15539
▁도시를	-15540
▁시리아	-15541
:50	-15542
ole	-15543
▁브러	-15544
▁타겟	-15545
▁습관을	-15546
▁확인해야	-15547
▁부유	-15548
효과를	-15549
▁정책의	-15550
▁설명합니다	-15551
AY	-15552
▁쑥	-15553
섬유	-15554
▁루이	-15555
▁비영리	-15556
▁스위치	-15557
▁여유가	-15558
▁민생	-15559
▁알렉	-15560
문재인	-15561
독한	-15562
▁달리고	-15563
▁확인했다	-15564
놓을	-15565
▁역전	-15566
▁여유를	-15567
▁일체	-15568
종류	-15569
진주	-15570
▁인식하고	-15571
ets	-15572
▁유재	-15573
▁일본에	-15574
▁환경과	-15575
▁환불해드립니다	-15576
더욱	-15577
틱스	-15578
▁Me	-15579
▁모금	-15580
▁나가고	-15581
▁부상을	-15582
▁하는가	-15583
▁주관하는	-15584
렸는데	-15585
▁제시하고	-15586
비서	-15587
해준	-15588
▁공학	-15589
▁스릴	-15590
▁일행	-15591
▁마리아	-15592
▁요인이	-15593
▁고민하고	-15594
▁북쪽	-15595
▁시로	-15596
▁070	-15597
병의	-15598
▁타워	-15599
▁세계로	-15600
과를	-15601
▁신동	-15602
outh	-15603
▁과학적	-15604
▁부분도	-15605
▁시즌을	-15606
터와	-15607
▁신사	-15608
▁터뜨	-15609
./	-15610
주의적	-15611
▁주시는	-15612
▁도와주는	-15613
▁만들어서	-15614
지부	-15615
티콘	-15616
▁놓인	-15617
▁고등학생	-15618
▁일어나고	-15619
▁때문이었다	-15620
▁QR	-15621
▁풍요	-15622
▁개장	-15623
▁후보자	-15624
▁판매하고	-15625
ara	-15626
▁경제가	-15627
▁상하이	-15628
▁제목의	-15629
▁아이패드	-15630
▁너무나도	-15631
▁콘텐츠는	-15632
시브	-15633
▁이화	-15634
▁카이	-15635
다양한	-15636
으세요	-15637
▁확보하고	-15638
▁기침	-15639
▁900	-15640
▁가축	-15641
▁허벅	-15642
awei	-15643
▁빈티지	-15644
▁되었으면	-15645
계절	-15646
고사	-15647
라니	-15648
lent	-15649
▁무죄	-15650
▁어드	-15651
▁돌아와	-15652
▁실수를	-15653
지하	-15654
▁너를	-15655
유효한	-15656
/3	-15657
8,	-15658
AE	-15659
▁달고	-15660
▁속성	-15661
▁손꼽	-15662
▁입는	-15663
▁필요성	-15664
▁기대감을	-15665
▁아니하며	-15666
알바	-15667
▁구워	-15668
▁스태	-15669
▁날짜를	-15670
▁뉴시스	-15671
▁떨어뜨	-15672
▁업체의	-15673
▁제조사	-15674
▁대항	-15675
▁손톱	-15676
_210	-15677
▁어깨를	-15678
▁경우라도	-15679
▁동안의	-15680
▁함께한	-15681
래요	-15682
분들은	-15683
▁제공하지	-15684
동네	-15685
림의	-15686
징어	-15687
▁군은	-15688
lease	-15689
/4	-15690
연예	-15691
코니	-15692
택시	-15693
▁번씩	-15694
▁수호	-15695
주시는	-15696
▁이외에	-15697
▁La	-15698
목으로	-15699
해보는	-15700
▁종류가	-15701
▁메이저리그	-15702
리더	-15703
▁짓는	-15704
▁팀장	-15705
되었지만	-15706
벌이	-15707
▁성장에	-15708
▁아니냐	-15709
▁중국어	-15710
지역에서	-15711
▁새우	-15712
▁태극	-15713
▁KBO	-15714
▁필드	-15715
▁남성이	-15716
▁똥	-15717
▁감면	-15718
▁사립	-15719
▁양평	-15720
ideo	-15721
▁희망하는	-15722
▁대두	-15723
pm	-15724
디시	-15725
▁교보	-15726
▁우회	-15727
▁모델의	-15728
▁알았다	-15729
▁언젠가	-15730
▁태권도	-15731
▁활발하게	-15732
▁every	-15733
목사	-15734
▁사원	-15735
▁두가지	-15736
▁음식이	-15737
▁고객들이	-15738
▁환상적인	-15739
조명	-15740
▁기숙	-15741
▁박종	-15742
▁소문	-15743
▁유무	-15744
BI	-15745
꺼번에	-15746
▁펼쳤다	-15747
▁2%	-15748
▁열릴	-15749
▁육군	-15750
계에서	-15751
케이스	-15752
▁4000	-15753
▁저축은행	-15754
교실	-15755
질은	-15756
터스	-15757
▁미주	-15758
▁달러의	-15759
93	-15760
레일	-15761
번지	-15762
uss	-15763
▁뜨거	-15764
▁포천	-15765
파이어	-15766
▁부정적	-15767
▁사소한	-15768
▁전망된다	-15769
▁투자하는	-15770
아무	-15771
.31	-15772
▁공급하는	-15773
▁변호사는	-15774
▁비교하면	-15775
way	-15776
▁일간	-15777
▁작업은	-15778
▁국방부	-15779
대회를	-15780
▁te	-15781
▁전하고	-15782
▁조사에	-15783
▁아버지는	-15784
▁현실적인	-15785
김치	-15786
▁통치	-15787
▁친구들	-15788
▁연구팀은	-15789
▁조경	-15790
억원이	-15791
▁♥	-15792
가가치	-15793
들에게도	-15794
▁떨어졌다	-15795
▁벌어지는	-15796
▁고립	-15797
▁국한	-15798
▁모순	-15799
▁버그	-15800
▁요새	-15801
▁잃지	-15802
▁증여	-15803
▁출국	-15804
쓰는	-15805
오지	-15806
:21	-15807
▁사령	-15808
▁입소	-15809
부스타빗부스타빗	-15810
루엣	-15811
▁돌아갈	-15812
문서	-15813
언어	-15814
▁VM	-15815
▁스윙	-15816
▁완공	-15817
검사를	-15818
▁자기의	-15819
▁활동의	-15820
▁의미에서	-15821
추는	-15822
-210	-15823
▁기각	-15824
▁전경	-15825
▁지침을	-15826
가리	-15827
:40	-15828
▁열을	-15829
곳에서	-15830
제품을	-15831
...'	-15832
오프라인	-15833
▁업무협약을	-15834
RY	-15835
▁min	-15836
SNS	-15837
품으로	-15838
▁것일	-15839
▁박진	-15840
▁신상	-15841
▁마사지를	-15842
:18	-15843
▁val	-15844
▁내부에	-15845
▁이슈가	-15846
▁움직임이	-15847
▁박수	-15848
▁이완	-15849
▁신재생	-15850
보유	-15851
친화	-15852
▁계단	-15853
▁기성	-15854
▁대표팀	-15855
있어요	-15856
▁설명해	-15857
협동조합	-15858
▁음식점이	-15859
▁포함합니다	-15860
ᄃᄃ	-15861
▁온몸	-15862
▁이라크	-15863
▁이점을	-15864
보단	-15865
▁아세	-15866
▁이송	-15867
▁하천	-15868
▁받았고	-15869
▁헝	-15870
미녀	-15871
으론	-15872
▁사정	-15873
▁유성	-15874
▁잠수	-15875
하니까	-15876
▁전립선	-15877
사유	-15878
▁도울	-15879
▁테이프	-15880
▁Trans	-15881
무게	-15882
▁안나	-15883
▁인원에	-15884
▁일부러	-15885
▁협업을	-15886
▁하셨습니다	-15887
보에	-15888
▁!!	-15889
업계에	-15890
▁머리에	-15891
▁유효한	-15892
▁design	-15893
사각	-15894
▁남지	-15895
▁무효	-15896
컨설팅	-15897
▁가슴을	-15898
▁경로를	-15899
▁다가가	-15900
▁산업에	-15901
아침	-15902
진짜	-15903
▁고의	-15904
▁죽어	-15905
ulti	-15906
깊은	-15907
▁웃으며	-15908
▁넘쳐	-15909
▁풍성	-15910
게이트	-15911
렸다고	-15912
▁짱	-15913
▁|1	-15914
▁역을	-15915
▁대표를	-15916
와도	-15917
▁너머	-15918
지거나	-15919
대환대출	-15920
스케	-15921
판은	-15922
:17	-15923
▁강동	-15924
▁구직	-15925
▁양극	-15926
▁레이스	-15927
▁한가지	-15928
▁직원들의	-15929
▁전문성을	-15930
제거	-15931
▁외과	-15932
▁않았다고	-15933
')	-15934
EU	-15935
오가	-15936
▁접착	-15937
▁인터페이스	-15938
▁하이라이트	-15939
▁애국	-15940
▁느꼈다	-15941
▁행복하게	-15942
▁ar	-15943
▁값이	-15944
▁뚜렷한	-15945
▁불만을	-15946
협정	-15947
▁치솟	-15948
소리가	-15949
▁나이키	-15950
▁비정상	-15951
▁싶으신	-15952
아빠	-15953
역에	-15954
▁야당	-15955
ince	-15956
▁북한에	-15957
아카데미	-15958
▁두뇌	-15959
▁않나	-15960
방법을	-15961
▁선택의	-15962
▁inst	-15963
▁한꺼번에	-15964
기존	-15965
▁그리는	-15966
▁잇따라	-15967
▁자동차보험	-15968
▁목표가	-15969
▁바다를	-15970
▁여론조사	-15971
6-	-15972
▁67	-15973
▁실효	-15974
▁220	-15975
▁시카고	-15976
▁집중적으로	-15977
▁내면	-15978
▁기쁨을	-15979
▁받았던	-15980
▁세계가	-15981
▁지도자	-15982
▁생각으로	-15983
▁선수들의	-15984
▁아니라면	-15985
▁SF	-15986
▁공수	-15987
▁자이	-15988
▁trans	-15989
▁작게	-15990
▁교육부	-15991
▁나름대로	-15992
우면	-15993
▁CG	-15994
렸지만	-15995
▁보도에	-15996
▁출연한	-15997
▁시작됐다	-15998
▁철저하게	-15999
▁닉	-16000
~^^	-16001
▁위임	-16002
안에서	-16003
▁분배	-16004
▁매뉴얼	-16005
▁윌리엄	-16006
▁이동할	-16007
수학	-16008
제이	-16009
▁고찰	-16010
▁미흡	-16011
▁전방	-16012
▁착공	-16013
조차도	-16014
▁다르지	-16015
▁되는지	-16016
▁의외로	-16017
▁LH	-16018
▁보스	-16019
▁뿌려	-16020
정부는	-16021
▁대회를	-16022
▁부착된	-16023
▁출시했다	-16024
준의	-16025
코어	-16026
▁말미	-16027
▁수축	-16028
▁발표를	-16029
▁분석해	-16030
▁사용자를	-16031
▁어디까지	-16032
설이	-16033
▁과태	-16034
▁자를	-16035
ourn	-16036
▁베를린	-16037
▁전체에	-16038
▁타격을	-16039
▁표현한	-16040
드리도록	-16041
▁offer	-16042
▁주기적으로	-16043
등은	-16044
▁출동	-16045
▁키스	-16046
Cloud	-16047
▁드문	-16048
▁마실	-16049
▁일본어	-16050
asino	-16051
▁프로젝트의	-16052
일수록	-16053
▁허가를	-16054
▁문화체육관광	-16055
두로	-16056
▁조속	-16057
▁함양	-16058
▁3.1	-16059
▁국가를	-16060
▁비디오를	-16061
▁방사선	-16062
▁인정하고	-16063
▁분의	-16064
iver	-16065
적으로도	-16066
▁실제로는	-16067
ma	-16068
▁벽에	-16069
들여	-16070
▁KR	-16071
▁얼룩	-16072
▁유인	-16073
▁모스크	-16074
▁컴퓨팅	-16075
etail	-16076
do	-16077
▁갈등이	-16078
▁버전의	-16079
갈비	-16080
카톡	-16081
▁검거	-16082
▁다닐	-16083
▁닮은	-16084
▁임직	-16085
▁특이한	-16086
▁핵심은	-16087
▁시리즈의	-16088
검토	-16089
▁쉽다	-16090
제도를	-16091
▁결정에	-16092
▁고유한	-16093
▁남다른	-16094
▁BEST	-16095
▁예수님을	-16096
했죠	-16097
▁매장을	-16098
▁비지니스	-16099
▁설치되어	-16100
비한	-16101
▁수시	-16102
▁크리	-16103
▁순위를	-16104
▁알아보도록	-16105
돈을	-16106
부탁	-16107
유리	-16108
▁퀴즈	-16109
▁흡입	-16110
상품을	-16111
▁와이파이	-16112
▁바카라사이트	-16113
▁겸손	-16114
▁정화	-16115
분류	-16116
▁61	-16117
▁규격	-16118
▁함수	-16119
▁자체의	-16120
갔습니다	-16121
▁어머니의	-16122
▁제시하는	-16123
기초	-16124
▁물려	-16125
▁잔뜩	-16126
간담	-16127
철학	-16128
▁용접	-16129
▁정형	-16130
▁조형	-16131
사랑의	-16132
▁국민을	-16133
▁항산화	-16134
협상	-16135
▁인물이	-16136
▁발레	-16137
▁보답	-16138
▁살이	-16139
▁접할	-16140
▁뮤직비디오	-16141
스탄	-16142
아름	-16143
▁애널	-16144
▁하려	-16145
▁곤충	-16146
교육과	-16147
▁닌	-16148
루살	-16149
▁너의	-16150
▁세팅	-16151
▁지났	-16152
▁채취	-16153
▁실루엣	-16154
▁포르투	-16155
박이	-16156
적용	-16157
▁92	-16158
▁쓰면	-16159
play	-16160
▁사람에	-16161
▁재개발	-16162
▁트레이닝	-16163
카는	-16164
▁봤을	-16165
▁주유	-16166
▁해고	-16167
하기만	-16168
▁버렸다	-16169
▁생중계	-16170
▁현황을	-16171
order	-16172
▁Best	-16173
엔드	-16174
▁연체	-16175
▁76	-16176
▁감탄	-16177
▁사육	-16178
▁하에	-16179
▁간담회	-16180
▁안정을	-16181
▁우리도	-16182
▁음식은	-16183
▁중이며	-16184
▁공헌	-16185
▁넣는	-16186
▁등재	-16187
사에게	-16188
▁더욱더	-16189
▁스테인	-16190
▁국민들이	-16191
국회	-16192
▁이원	-16193
▁동아리	-16194
▁백신을	-16195
▁부작용이	-16196
법원	-16197
▁74	-16198
▁동서	-16199
▁런칭	-16200
,800	-16201
imes	-16202
▁우체국	-16203
▁현대적인	-16204
▁개인정보취급	-16205
광장	-16206
▁거창	-16207
▁장성	-16208
▁당국은	-16209
부채	-16210
▁과잉	-16211
▁증폭	-16212
▁휴무	-16213
▁남성의	-16214
▁설치해	-16215
▁우아한	-16216
백과	-16217
▁포맷	-16218
소개글	-16219
clud	-16220
▁아니었	-16221
펜션	-16222
raph	-16223
▁시선이	-16224
▁표현할	-16225
듣기	-16226
▁동물의	-16227
워즈	-16228
▁도우	-16229
▁선수의	-16230
▁개선하고	-16231
▁말과	-16232
▁수산	-16233
▁문득	-16234
▁여신	-16235
루살렘	-16236
▁미국을	-16237
▁유학생	-16238
▁접어들	-16239
하기위한	-16240
처가	-16241
▁중재	-16242
▁개발과	-16243
No	-16244
▁김혜	-16245
▁ᄏ	-16246
▁생체	-16247
▁쉬워	-16248
▁이뤄질	-16249
▁판결을	-16250
▁방송에서	-16251
호에	-16252
▁중립	-16253
3000	-16254
▁che	-16255
▁메신저	-16256
▁하나에	-16257
응답	-16258
▁보좌	-16259
▁검증된	-16260
▁귀한	-16261
클래스	-16262
▁남양주	-16263
▁한마디로	-16264
ruct	-16265
▁손해를	-16266
▁영상은	-16267
▁피부의	-16268
선교	-16269
▁닫기	-16270
▁주면	-16271
▁출시를	-16272
▁대비하여	-16273
▁신용등급	-16274
▁실질적으로	-16275
▁Engine	-16276
수행	-16277
▁ed	-16278
▁em	-16279
▁바에	-16280
read	-16281
▁물질을	-16282
▁엘리트	-16283
oftware	-16284
▁PL	-16285
▁무산	-16286
▁결제가	-16287
▁이집트	-16288
▁일부가	-16289
▁발견하고	-16290
▁시설입니다	-16291
▁헤어드라이어	-16292
▁창고	-16293
PO	-16294
디는	-16295
▁군포	-16296
▁화를	-16297
▁웨스트	-16298
▁기업들은	-16299
프란시스코	-16300
단다	-16301
사원	-16302
▁공적	-16303
였다는	-16304
▁확인에	-16305
해주셔서	-16306
앨범	-16307
/11	-16308
▁위원회	-16309
▁인구가	-16310
팀장	-16311
▁비하	-16312
▁information	-16313
영양	-16314
▁재산을	-16315
▁날카로운	-16316
▁장기적인	-16317
다니는	-16318
▁대응할	-16319
통상자원	-16320
▁운영되고	-16321
▁장군	-16322
타임스	-16323
▁실험을	-16324
역의	-16325
질과	-16326
▁뜻하는	-16327
▁주변을	-16328
▁계획입니다	-16329
▁끝났	-16330
기업이	-16331
▁몰라도	-16332
두천	-16333
▁막는	-16334
▁행동에	-16335
▁사막	-16336
▁성능이	-16337
▁영역에	-16338
▁자외선	-16339
적이었다	-16340
▁탐지	-16341
여행을	-16342
▁Upd	-16343
▁시설은	-16344
▁여파로	-16345
▁화면이	-16346
actice	-16347
▁적고	-16348
자에게는	-16349
▁꾀	-16350
▁엇	-16351
▁끝나는	-16352
▁등록을	-16353
▁나눴	-16354
▁면적	-16355
중에서	-16356
▁살아야	-16357
과세	-16358
품은	-16359
▁결핍	-16360
▁날에	-16361
▁실린	-16362
▁인플레이션	-16363
:01	-16364
▁회의에서	-16365
▁김형	-16366
지기도	-16367
▁벌이고	-16368
▁증가할	-16369
"(	-16370
날이	-16371
롭지	-16372
매출	-16373
▁비아	-16374
리에서	-16375
▁처리가	-16376
▁크기는	-16377
********	-16378
sk	-16379
측의	-16380
쿠버	-16381
커머스	-16382
▁남겼다	-16383
▁뒤에서	-16384
▁먹어야	-16385
준은	-16386
▁mm	-16387
급식	-16388
▁넣을	-16389
량으로	-16390
▁들어올	-16391
군수	-16392
포함	-16393
▁기관은	-16394
▁즐기기	-16395
▁해보고	-16396
GS	-16397
규정	-16398
▁단골	-16399
▁러닝	-16400
▁부부가	-16401
▁very	-16402
▁purchase	-16403
극장	-16404
▁상식	-16405
▁이순	-16406
클리닝	-16407
▁Per	-16408
▁병원을	-16409
▁사이로	-16410
▁시원하게	-16411
▁동굴	-16412
년으로	-16413
▁자연을	-16414
▁지나지	-16415
우수	-16416
태평양	-16417
▁긴장을	-16418
▁믿음을	-16419
ision	-16420
▁드롭	-16421
▁가슴에	-16422
▁브랜드가	-16423
▁전달하고	-16424
소유	-16425
▁돼요	-16426
▁바지	-16427
▁최우선	-16428
림은	-16429
ams	-16430
▁SH	-16431
▁류현	-16432
이있는	-16433
▁가맹점	-16434
xx	-16435
시도	-16436
▁계열사	-16437
▁확보할	-16438
php	-16439
▁96	-16440
▁바위	-16441
공간을	-16442
▁불어넣	-16443
ustomer	-16444
인공	-16445
▁앵커	-16446
▁역설	-16447
활성화	-16448
▁잠재적	-16449
▁클라이언트	-16450
ICE	-16451
▁길로	-16452
날로그	-16453
▁가치는	-16454
▁바이러	-16455
▁유니폼	-16456
▁설치하는	-16457
▁엑셀	-16458
▁인출	-16459
청에서	-16460
▁느낀다	-16461
▁누구보다	-16462
▁수단으로	-16463
르르	-16464
질문	-16465
▁3%	-16466
▁분실	-16467
ning	-16468
▁편지를	-16469
▁에피소드	-16470
태그	-16471
토의	-16472
보디아	-16473
실비보험	-16474
▁일원	-16475
▁사라지고	-16476
▁직접적으로	-16477
OA	-16478
ATE	-16479
▁알렸다	-16480
▁고용노동	-16481
▁구매자와	-16482
▁채팅어플	-16483
미와	-16484
▁운세	-16485
해주시면	-16486
▁DC	-16487
▁공예	-16488
▁대목	-16489
국민의	-16490
들입니다	-16491
트립	-16492
▁넘나	-16493
▁태백	-16494
▁관련해서	-16495
봤어요	-16496
▁Bar	-16497
▁민족의	-16498
수석	-16499
저우	-16500
최초	-16501
▁분류할	-16502
▁지식이	-16503
▁마찬가지다	-16504
브로	-16505
▁산소	-16506
▁정복	-16507
▁표명	-16508
▁근육을	-16509
▁깨끗하고	-16510
▁도움으로	-16511
강추	-16512
트럭	-16513
▁건데	-16514
▁자료는	-16515
▁취향에	-16516
▁하나만	-16517
▁후보를	-16518
Sp	-16519
ask	-16520
▁br	-16521
▁대의	-16522
▁스핀	-16523
▁전의	-16524
결과를	-16525
미사일	-16526
▁SEO	-16527
▁아가씨	-16528
훈은	-16529
▁일년	-16530
쇼핑몰	-16531
▁일어났	-16532
▁Java	-16533
▁매장에서	-16534
▁노란	-16535
▁형상	-16536
▁돈으로	-16537
▁의지가	-16538
▁적절하게	-16539
연도	-16540
▁길고	-16541
사업자대출	-16542
▁배너	-16543
▁햇살	-16544
시대의	-16545
back	-16546
▁많다는	-16547
모습	-16548
▁강행	-16549
▁유흥	-16550
▁치는	-16551
기독교	-16552
rome	-16553
▁his	-16554
▁리포트	-16555
▁찾아야	-16556
▁Agoda	-16557
▁팜	-16558
미로	-16559
배당	-16560
▁수요를	-16561
▁에이전	-16562
▁노동조합	-16563
▁선생님이	-16564
▁집계됐다	-16565
주교	-16566
▁맞대	-16567
▁손바닥	-16568
맞이	-16569
▁곳도	-16570
▁라틴	-16571
▁자국	-16572
는지를	-16573
회사의	-16574
ping	-16575
▁드러내	-16576
▁반응형	-16577
▁상황과	-16578
▁배열	-16579
▁짐을	-16580
본부는	-16581
▁구하는	-16582
▁참가자	-16583
▁여기까지	-16584
▁보장합니다	-16585
▁::	-16586
▁등록한	-16587
▁덤프샘플	-16588
▁여러분께	-16589
▁톰	-16590
배달	-16591
ois	-16592
사람이	-16593
▁sub	-16594
▁호흡을	-16595
▁되었다고	-16596
▁support	-16597
공고	-16598
▁공영	-16599
▁문헌	-16600
▁방법도	-16601
▁공정거래	-16602
▁content	-16603
협회는	-16604
▁Val	-16605
▁대용량	-16606
준이	-16607
▁가다	-16608
my	-16609
인상	-16610
▁멈춰	-16611
▁느낌의	-16612
▁창의적인	-16613
▁괜히	-16614
▁연일	-16615
바둑이	-16616
▁페이지에	-16617
정동	-16618
수수료	-16619
▁관계로	-16620
▁최첨단	-16621
▁내용입니다	-16622
이러	-16623
▁리소	-16624
▁재학생	-16625
▁주변에서	-16626
▁종합적으로	-16627
▁약관	-16628
▁항소	-16629
해보고	-16630
▁옆에서	-16631
▁나가겠다	-16632
▁대학에서	-16633
▁마케팅을	-16634
▁스트레칭	-16635
▁홍대	-16636
▁거래는	-16637
▁회복을	-16638
▁(4	-16639
▁이강	-16640
▁자녀가	-16641
▁제외하고는	-16642
▁연세	-16643
▁3.0	-16644
▁피하기	-16645
▁호흡기	-16646
SM	-16647
공지	-16648
▁바보	-16649
▁생략	-16650
▁아님	-16651
년차	-16652
통계	-16653
항의	-16654
▁많기	-16655
▁살면서	-16656
▁선물로	-16657
▁조용한	-16658
▁수준에서	-16659
▁재판부는	-16660
카지노사이트	-16661
▁절차가	-16662
▁게시물이	-16663
▁적용하는	-16664
▁처음이다	-16665
IZ	-16666
▁찔	-16667
하든	-16668
▁과천	-16669
▁김준	-16670
▁교과서	-16671
▁system	-16672
▁가지게	-16673
란한	-16674
시안	-16675
▁바비	-16676
▁같지만	-16677
▁요구하고	-16678
▁애매	-16679
▁용도	-16680
▁결정한	-16681
▁구입한	-16682
▁나타났습니다	-16683
▁86	-16684
▁똑같	-16685
▁한잔	-16686
▁방법이다	-16687
▁가능하다는	-16688
▁노벨	-16689
락한	-16690
▁73	-16691
▁소집	-16692
▁안면	-16693
▁풀고	-16694
▁후손	-16695
▁발생한다	-16696
(24	-16697
▁공룡	-16698
▁트리트	-16699
위원회에	-16700
▁불과하다	-16701
원자	-16702
필수	-16703
▁거점	-16704
ious	-16705
▁Management	-16706
▁샐러드	-16707
위원회에서	-16708
▁Application	-16709
니를	-16710
▁표출	-16711
▁플래시	-16712
▁오기	-16713
▁재킷	-16714
▁전산	-16715
▁전성	-16716
▁시작하면	-16717
평생	-16718
▁스팸	-16719
▁커질	-16720
▁원한다면	-16721
▁영남	-16722
▁활기	-16723
▁반려견	-16724
▁성격이	-16725
▁신도시	-16726
▁팟	-16727
국적	-16728
더가	-16729
▁귀가	-16730
▁정례	-16731
▁대학에	-16732
▁소홀	-16733
▁의상	-16734
시설이	-16735
▁아닌지	-16736
▁강조하고	-16737
▁어린이의	-16738
BO	-16739
개에	-16740
드라	-16741
▁Rec	-16742
▁덴마크	-16743
▁서류를	-16744
오프화이트	-16745
▁추천드립니다	-16746
▁발주	-16747
▁이현	-16748
그래프	-16749
덤프는	-16750
▁공사를	-16751
▁의혹이	-16752
▁굶	-16753
타가	-16754
▁가파	-16755
▁어떨까요	-16756
▁도발	-16757
▁인접	-16758
▁부문에서	-16759
▁고객께서는	-16760
화해	-16761
▁파란	-16762
▁찾아온	-16763
▁전적으로	-16764
▁웹사이트를	-16765
거제	-16766
aid	-16767
▁권리가	-16768
swers	-16769
조작	-16770
차전	-16771
▁대가	-16772
▁건축물	-16773
▁동남아	-16774
▁어머니가	-16775
으러	-16776
▁멜로	-16777
▁복음을	-16778
타의	-16779
▁춤을	-16780
조회수	-16781
▁개발된	-16782
’.	-16783
ECD	-16784
eta	-16785
커버	-16786
/12	-16787
▁꿈은	-16788
▁봉쇄	-16789
▁상하	-16790
▁유머	-16791
업체의	-16792
유니	-16793
추를	-16794
▁김승	-16795
▁노란색	-16796
▁Club	-16797
십자	-16798
▁실증	-16799
▁기준은	-16800
▁직원을	-16801
홈페이지	-16802
▁있는지를	-16803
▁먼지	-16804
▁그렇고	-16805
▁엄마의	-16806
▁이산화	-16807
겠어	-16808
▁콘서	-16809
▁가격도	-16810
▁감상할	-16811
▁다루고	-16812
▁익스피	-16813
▁파스타	-16814
자산운용	-16815
▁누구에게	-16816
▁포인트가	-16817
▁기둥	-16818
▁내수	-16819
▁될지	-16820
▁발목	-16821
▁섞어	-16822
▁퍼져	-16823
▁국가에	-16824
▁사은품	-16825
글로	-16826
▁코미디	-16827
▁해주고	-16828
▁개인정보취급방침	-16829
년월	-16830
오면	-16831
▁떠날	-16832
▁쉬는	-16833
▁learn	-16834
▁궁금합니다	-16835
염의	-16836
직접	-16837
▁꼽힌다	-16838
하는데요	-16839
거같	-16840
els	-16841
안마방	-16842
▁현명한	-16843
▁면책	-16844
▁몸은	-16845
이사장	-16846
▁Med	-16847
▁같다고	-16848
▁아름답게	-16849
주요	-16850
항목	-16851
ora	-16852
▁디아	-16853
▁칼라	-16854
▁개선에	-16855
▁썸	-16856
▁방에	-16857
▁사단	-16858
▁관광지	-16859
▁아니기	-16860
▁이사장은	-16861
도르	-16862
롭다	-16863
배가	-16864
▁당기	-16865
▁황제	-16866
이렇게	-16867
캐스트	-16868
▁말하지	-16869
▁않고도	-16870
▁이름의	-16871
▁후보의	-16872
▁대성	-16873
▁빠져나	-16874
▁초기에	-16875
▁컴퓨터에	-16876
동맹	-16877
▁놀란	-16878
▁배수	-16879
▁요건	-16880
▁하우	-16881
주었다	-16882
▁음료를	-16883
▁주인이	-16884
▁protected	-16885
DM	-16886
▁팁을	-16887
캠퍼스	-16888
▁지역이	-16889
▁참고하시기	-16890
역량	-16891
이재	-16892
▁수습	-16893
▁작품이다	-16894
동성	-16895
좋아	-16896
(30	-16897
▁유가	-16898
▁유한	-16899
▁단계로	-16900
▁서초구	-16901
클로	-16902
▁김주	-16903
▁숨겨	-16904
▁세인트	-16905
▁협력해	-16906
▁동아시아	-16907
ko	-16908
▁So	-16909
▁길어	-16910
▁남기고	-16911
증후	-16912
▁양주	-16913
▁영어를	-16914
▁출판사	-16915
▁대회에서	-16916
▁배포금지	-16917
결이	-16918
투명	-16919
▁침구	-16920
헤럴드	-16921
▁경제학	-16922
▁강조하는	-16923
▁International	-16924
:02	-16925
었으나	-16926
▁이곳을	-16927
▁이해와	-16928
▁협의를	-16929
▁78	-16930
▁마틴	-16931
사항이	-16932
▁검찰이	-16933
▁입장이다	-16934
콜라	-16935
:19	-16936
▁쓰여	-16937
▁엉덩이	-16938
▁하고자	-16939
안산	-16940
용을	-16941
인물	-16942
▁서비스도	-16943
박을	-16944
스퍼	-16945
▁과시	-16946
▁관행	-16947
▁에드	-16948
▁청문	-16949
▁간호사	-16950
▁중장기	-16951
▁인정하는	-16952
▁시스템으로	-16953
내야	-16954
:59	-16955
▁Ver	-16956
▁중국을	-16957
▁이더리움	-16958
▁가나	-16959
▁납입	-16960
▁지속될	-16961
▁이미지는	-16962
학대	-16963
▁바꾸고	-16964
▁숙지	-16965
▁단단한	-16966
▁움직일	-16967
▁제임스	-16968
▁필자는	-16969
len	-16970
들에서	-16971
▁올바르지	-16972
▁임플란트	-16973
▁조건으로	-16974
▁온라인에서	-16975
오후	-16976
▁향기	-16977
▁유발하는	-16978
일부	-16979
▁금호	-16980
해보자	-16981
▁걸그룹	-16982
▁약물을	-16983
──	-16984
카운	-16985
▁가산	-16986
갤러리	-16987
▁파일이	-16988
▁중앙일보	-16989
▁펼쳐지는	-16990
지속	-16991
한화	-16992
▁저와	-16993
ized	-16994
▁나쁘지	-16995
▁소나무	-16996
▁플레이를	-16997
▁피드백을	-16998
니당	-16999
찰을	-17000
▁고고	-17001
▁경력을	-17002
▁그것에	-17003
▁생각과	-17004
▁싸우는	-17005
board	-17006
여기	-17007
▁소재의	-17008
▁의장은	-17009
:24	-17010
▁숨은	-17011
▁전진	-17012
▁펀딩	-17013
시켜야	-17014
▁예상치	-17015
프로젝트	-17016
남에	-17017
▁삼척	-17018
▁아내가	-17019
▁11:00	-17020
OG	-17021
wp	-17022
황이	-17023
▁오케	-17024
▁뉴스레	-17025
▁동물을	-17026
▁행동이	-17027
건강보험	-17028
▁민주노총	-17029
▁손해배상	-17030
▁고객들에게	-17031
▁본회의	-17032
▁활력을	-17033
▁평가하는	-17034
예수	-17035
▁광복	-17036
▁합작	-17037
alys	-17038
▁make	-17039
▁공부하는	-17040
네이	-17041
장학	-17042
:25	-17043
▁DJ	-17044
▁앓고	-17045
▁작전	-17046
▁편도	-17047
▁미술관	-17048
▁끊임없는	-17049
▁기금	-17050
▁나주	-17051
▁명문	-17052
▁발명	-17053
▁안티	-17054
▁체험할	-17055
ability	-17056
IB	-17057
떻게	-17058
▁짙은	-17059
공사는	-17060
▁계획하고	-17061
▁일주일에	-17062
성적	-17063
층은	-17064
▁믿지	-17065
▁지극	-17066
▁퍼포먼스	-17067
했듯이	-17068
▁디저트	-17069
▁앱에서	-17070
▁지켜야	-17071
구미	-17072
실과	-17073
증에	-17074
:23	-17075
▁청원	-17076
판매가	-17077
▁가라앉	-17078
▁기관이	-17079
▁옴	-17080
▁모양이	-17081
▁그곳에서	-17082
▁이동통신	-17083
속도	-17084
:22	-17085
▁거둔	-17086
▁주무	-17087
▁지킬	-17088
▁설명이	-17089
▁자료가	-17090
▁휴가를	-17091
ocial	-17092
▁이벤트가	-17093
▁Direct	-17094
위안	-17095
▁성분을	-17096
▁함으로써	-17097
▁펑	-17098
동과	-17099
ency	-17100
▁카타르	-17101
▁Fire	-17102
▁감소했다	-17103
▁드려	-17104
▁성사	-17105
강사	-17106
▁휩싸	-17107
사진을	-17108
졌어요	-17109
▁공간의	-17110
▁돼지고	-17111
돌아	-17112
령이	-17113
밥을	-17114
컨대	-17115
▁뉴딜	-17116
▁수반	-17117
▁팀에	-17118
▁각국의	-17119
▁있으시면	-17120
witter	-17121
▁씁	-17122
▁대피	-17123
▁빠질	-17124
▁잡힌	-17125
asia	-17126
▁압력을	-17127
▁아시아경제	-17128
녀의	-17129
매체	-17130
oll	-17131
▁CL	-17132
▁저가	-17133
종에	-17134
ASE	-17135
▁낙태	-17136
▁잦은	-17137
▁스테이	-17138
▁에디터	-17139
▁커피숍	-17140
▁이동합니다	-17141
▁관점	-17142
▁능동	-17143
▁바쁘	-17144
▁유적	-17145
▁죽는	-17146
▁튜브	-17147
▁조심스럽게	-17148
용인	-17149
▁무게를	-17150
▁덤프공부자료	-17151
란이	-17152
▁사안	-17153
▁클렌	-17154
더불어	-17155
만원에	-17156
▁사용법	-17157
▁시그니	-17158
▁직원의	-17159
▁말하자면	-17160
▁서울시는	-17161
간이	-17162
여대	-17163
특수	-17164
als	-17165
▁위를	-17166
▁인성	-17167
▁키가	-17168
▁감성을	-17169
▁강화할	-17170
▁도전을	-17171
▁싶다고	-17172
fore	-17173
▁인간을	-17174
▁인터넷에	-17175
적중	-17176
ENU	-17177
▁결성	-17178
▁구토	-17179
▁자연과	-17180
▁지급하는	-17181
▁싣	-17182
낚시	-17183
▁밀집	-17184
View	-17185
▁개발해	-17186
▁금융감독	-17187
▁기울이고	-17188
▁오토바이	-17189
▁전문기업	-17190
▁정신건강	-17191
/7	-17192
▁글루	-17193
▁측이	-17194
▁결제를	-17195
▁이름과	-17196
▁선택해야	-17197
날을	-17198
▁그라	-17199
▁농장	-17200
님들이	-17201
braindumps	-17202
전망	-17203
▁씨를	-17204
▁자막	-17205
▁눈물이	-17206
▁느끼지	-17207
▁단어가	-17208
▁전력을	-17209
▁차량이	-17210
▁필요성이	-17211
ART	-17212
▁수유	-17213
개와	-17214
워진	-17215
▁수성	-17216
▁경기는	-17217
▁문제도	-17218
▁뭐라고	-17219
▁사진으로	-17220
▁카테고리로	-17221
CM	-17222
년전	-17223
Tube	-17224
▁마련하고	-17225
▁이번에도	-17226
검진	-17227
그레	-17228
▁자란	-17229
▁주위에	-17230
▁비즈니스를	-17231
IR	-17232
▁쇄	-17233
홀딩	-17234
▁권력을	-17235
으면서도	-17236
없고	-17237
가지를	-17238
▁높았다	-17239
▁아키텍	-17240
▁치명적인	-17241
market	-17242
▁MM	-17243
▁마비	-17244
▁폭탄	-17245
버리는	-17246
크리스	-17247
▁섬세한	-17248
▁진정으로	-17249
”...	-17250
슬롯	-17251
▁라우	-17252
▁박원	-17253
소리를	-17254
▁경험한	-17255
BN	-17256
리터	-17257
▁교원	-17258
▁불평	-17259
▁전월	-17260
▁피를	-17261
ward	-17262
▁생기고	-17263
▁하셔야	-17264
▁모릅니다	-17265
inc	-17266
▁독보	-17267
▁조현	-17268
▁FTA	-17269
커플	-17270
해수	-17271
▁원이	-17272
▁이대	-17273
▁지자	-17274
동물을	-17275
▁산업을	-17276
▁품질의	-17277
출장맛사지	-17278
▁낭만	-17279
▁1993	-17280
▁제품이다	-17281
과거	-17282
▁방학	-17283
▁침략	-17284
▁하향	-17285
▁옆으로	-17286
▁삼고	-17287
라면서	-17288
▁식물성	-17289
▁암보험	-17290
▁학위를	-17291
것같	-17292
▁피가	-17293
▁검찰에	-17294
asp	-17295
▁부의	-17296
▁씻어	-17297
▁인슐	-17298
▁주에	-17299
▁프론	-17300
회장은	-17301
▁강화해	-17302
▁관악	-17303
▁오세	-17304
▁원유	-17305
▁위함	-17306
▁인명	-17307
▁지주	-17308
▁평등	-17309
▁필기	-17310
▁그래야	-17311
▁뜻으로	-17312
▁아로마	-17313
▁패밀리	-17314
▁안전사고	-17315
▁인프라를	-17316
▁프로젝트는	-17317
비앤	-17318
▁발코니	-17319
스마트폰	-17320
던가	-17321
▁주님	-17322
▁퍼즐	-17323
▁가볍고	-17324
▁고기를	-17325
▁손상을	-17326
▁없이는	-17327
▁요청할	-17328
▁주인공이	-17329
브를	-17330
▁애인	-17331
cert	-17332
▁같다는	-17333
▁아르바이트	-17334
▁속하는	-17335
▁해당된다면	-17336
미세	-17337
종일	-17338
▁레저	-17339
▁마인	-17340
▁보물	-17341
▁수목	-17342
▁영광을	-17343
▁지분을	-17344
하신다면	-17345
ature	-17346
비치	-17347
▁지음	-17348
▁타운	-17349
▁특검	-17350
렸다는	-17351
sent	-17352
▁포스팅을	-17353
레벨	-17354
SAP	-17355
▁VS	-17356
▁아르헨	-17357
▁1992	-17358
공예	-17359
▁망가	-17360
▁부재	-17361
▁차에	-17362
거리며	-17363
▁갖는다	-17364
경기에서	-17365
▁English	-17366
▁Facebook	-17367
▁동구	-17368
씨에게	-17369
종교	-17370
퍼런	-17371
▁NO	-17372
▁패치	-17373
▁화보	-17374
스트리	-17375
▁선택은	-17376
▁이른다	-17377
▁Cent	-17378
동포	-17379
라미	-17380
뮤직	-17381
분할	-17382
▁8,	-17383
▁빛의	-17384
중이다	-17385
▁개념이	-17386
▁자신도	-17387
▁포켓몬	-17388
riend	-17389
▁메타버스	-17390
:29	-17391
dump	-17392
▁없어도	-17393
단장	-17394
:05	-17395
▁부추	-17396
▁운명	-17397
▁인력을	-17398
▁오스트리아	-17399
▁배경을	-17400
▁우리와	-17401
▁할인가	-17402
ecause	-17403
▁게임입니다	-17404
cellent	-17405
▁때만	-17406
▁전임	-17407
▁한진	-17408
▁교회는	-17409
▁졸업하고	-17410
형과	-17411
▁Sk	-17412
▁고문	-17413
▁휴양	-17414
게이션	-17415
▁노력해	-17416
▁믿음이	-17417
▁아날로그	-17418
▁제안했다	-17419
df	-17420
||3	-17421
▁감각을	-17422
▁흥미를	-17423
▁이뤄졌다	-17424
▁아이스크림	-17425
공이	-17426
▁프레스	-17427
하십니다	-17428
▁리디	-17429
▁써서	-17430
▁키보	-17431
센터가	-17432
▁sim	-17433
▁운동은	-17434
▁슬롯머신	-17435
▁사업자등록번호	-17436
이식	-17437
조달	-17438
▁LTE	-17439
▁94	-17440
▁무리가	-17441
▁Word	-17442
)(	-17443
▁방한	-17444
노동자	-17445
▁HTML	-17446
▁어플리케이션	-17447
EP	-17448
▁CO	-17449
▁눈동	-17450
▁달래	-17451
▁맛볼	-17452
usic	-17453
▁인문학	-17454
고속도로	-17455
격증	-17456
러의	-17457
▁세븐	-17458
▁약화	-17459
▁전일	-17460
'...	-17461
▁Lab	-17462
▁디자인에	-17463
▁이용약관	-17464
바퀴	-17465
▁동문	-17466
레가	-17467
▁녹아	-17468
▁하트	-17469
▁파란색	-17470
▁브랜드로	-17471
▁설계된	-17472
▁신기술	-17473
▁지었다	-17474
거지	-17475
성남	-17476
원칙	-17477
oday	-17478
▁(4)	-17479
▁생기면	-17480
▁세웠다	-17481
▁OK	-17482
▁조직이	-17483
▁합리적	-17484
이미지를	-17485
체스터	-17486
▁되었을	-17487
행사를	-17488
aily	-17489
▁top	-17490
▁산업용	-17491
▁추가할	-17492
▁when	-17493
CR	-17494
어린	-17495
▁89	-17496
▁방광	-17497
▁인격	-17498
▁엎	-17499
▁끌려	-17500
eter	-17501
▁기기를	-17502
▁들어선	-17503
▁주목받고	-17504
군산	-17505
▁간섭	-17506
발전을	-17507
▁보조금	-17508
▁세미	-17509
덤프를	-17510
▁환경의	-17511
▁바르셀로나	-17512
▁베스트셀러	-17513
▁묻고	-17514
▁레이아웃	-17515
▁원칙적으로	-17516
디움	-17517
운송	-17518
▁막내	-17519
▁벡터	-17520
단에서	-17521
졌는데	-17522
▁에이스	-17523
▁장애를	-17524
▁전염병	-17525
▁레고	-17526
▁있긴	-17527
▁투숙	-17528
▁폭풍	-17529
▁화살	-17530
운동의	-17531
인기자	-17532
인지는	-17533
▁민주화	-17534
▁좋네요	-17535
▁학교의	-17536
▁상징하는	-17537
▁볼수	-17538
▁온도가	-17539
▁요소는	-17540
▁전쟁이	-17541
▁나라에서	-17542
크루	-17543
▁발자	-17544
▁부평	-17545
▁악의	-17546
▁구성해	-17547
▁많이본	-17548
▁없이도	-17549
▁유형을	-17550
▁장애가	-17551
▁페인트	-17552
▁실시하는	-17553
▁CT	-17554
▁간판	-17555
▁웃는	-17556
▁정정	-17557
▁주연	-17558
▁접종을	-17559
▁데이터의	-17560
▁삼성전자는	-17561
▁켄	-17562
일드	-17563
1.0	-17564
▁조상	-17565
▁초고	-17566
▁구체적	-17567
▁전달할	-17568
▁제한을	-17569
VP	-17570
님도	-17571
▁통행	-17572
▁des	-17573
▁나무를	-17574
시출장샵	-17575
▁스토리를	-17576
▁포인트로	-17577
▁예정이라고	-17578
강도	-17579
▁앤드	-17580
▁지낸	-17581
▁설명할	-17582
▁인근에	-17583
▁conf	-17584
경주	-17585
능한	-17586
코딩	-17587
▁문이	-17588
심에서	-17589
▁정하고	-17590
였을	-17591
만원이	-17592
ublic	-17593
▁외로	-17594
▁집필	-17595
▁컸다	-17596
내셔널	-17597
▁대표와	-17598
▁예정된	-17599
▁있다며	-17600
▁while	-17601
▁김명	-17602
▁때를	-17603
▁스냅	-17604
empt	-17605
▁오바마	-17606
▁일으켜	-17607
▁적용될	-17608
하였으나	-17609
▁Global	-17610
VR	-17611
든가	-17612
▁예산이	-17613
류에	-17614
▁때와	-17615
▁발렌	-17616
▁자택	-17617
시키며	-17618
▁가져야	-17619
▁소개할	-17620
▁연습을	-17621
▁정책과	-17622
토토사이트	-17623
▁턴	-17624
상세	-17625
:27	-17626
▁녹화	-17627
▁마구	-17628
소시엄	-17629
▁표시된	-17630
》,	-17631
어떻게	-17632
▁차별화	-17633
▁하니까	-17634
▁믿습니다	-17635
▁✔	-17636
▁경유	-17637
▁규탄	-17638
▁나빠	-17639
▁되살	-17640
거래소	-17641
▁줄었다	-17642
▁알려드리겠습니다	-17643
있지	-17644
▁믿어	-17645
▁사연	-17646
기관이	-17647
역으로	-17648
▁존재가	-17649
▁애플리케이션을	-17650
기후	-17651
창을	-17652
포로	-17653
▁일일이	-17654
▁정도에	-17655
article	-17656
타리	-17657
테이	-17658
권에서	-17659
▁온실가스	-17660
칫솔	-17661
바겐	-17662
텍스	-17663
▁그루	-17664
▁상인	-17665
▁심사위원	-17666
▁뿜	-17667
염을	-17668
질에	-17669
▁신차	-17670
▁안될	-17671
▁공급을	-17672
▁다리가	-17673
택트	-17674
▁덕에	-17675
▁흑인	-17676
증명서	-17677
IGHT	-17678
▁활발히	-17679
▁고객들의	-17680
▁가급	-17681
▁서쪽	-17682
동에서	-17683
사업이	-17684
▁가치와	-17685
▁개발이	-17686
▁물고기	-17687
▁선수를	-17688
▁주민의	-17689
▁공동주택	-17690
uro	-17691
▁기적	-17692
▁피지	-17693
반도체	-17694
드래	-17695
정산	-17696
▁원문	-17697
리거나	-17698
▁Kim	-17699
▁고객과	-17700
▁나아갈	-17701
▁예루살렘	-17702
CL	-17703
가지고	-17704
▁Par	-17705
▁할인된	-17706
▁알려지지	-17707
▁외부에서	-17708
▁10,000	-17709
미경	-17710
▁언더	-17711
▁Ltd	-17712
▁Out	-17713
▁일어나지	-17714
ns	-17715
▁ON	-17716
야마	-17717
영국	-17718
▁글과	-17719
▁앞당	-17720
▁받았다고	-17721
▁자체적으로	-17722
▁available	-17723
페어	-17724
▁완주	-17725
▁이창	-17726
▁충성	-17727
▁SQL	-17728
▁안철수	-17729
▁투자에	-17730
▁순차적으로	-17731
▁방을	-17732
▁세입	-17733
▁든든한	-17734
▁궁금증을	-17735
▁여성들이	-17736
▁people	-17737
▁드라이클리닝	-17738
▁되자	-17739
▁현직	-17740
▁사랑은	-17741
▁이었다	-17742
▁자리한	-17743
민주주의	-17744
인사이트	-17745
▁앞으로는	-17746
▁듬	-17747
슨의	-17748
-50	-17749
▁79	-17750
▁닥터	-17751
▁주며	-17752
▁일정이	-17753
무가	-17754
발행	-17755
열이	-17756
충북	-17757
▁물의	-17758
▁지위를	-17759
▁구매자료를	-17760
▁재배포금지	-17761
oz	-17762
장도	-17763
▁지름	-17764
▁가정을	-17765
▁스피드	-17766
▁운동이	-17767
▁작품에	-17768
▁친구의	-17769
▁특히나	-17770
▁know	-17771
▁남아있는	-17772
▁의왕	-17773
▁(10	-17774
▁알아두실	-17775
▁어머니는	-17776
인기자격증	-17777
▁쏙	-17778
365	-17779
▁어마	-17780
▁틀어	-17781
▁산업통상자원	-17782
▁샌프란시스코	-17783
줄이	-17784
터카	-17785
:28	-17786
▁여왕	-17787
▁장이	-17788
▁활용하고	-17789
-31	-17790
▁요가	-17791
▁테라	-17792
ense	-17793
▁개최되는	-17794
▁등록번호	-17795
언을	-17796
▁무늬	-17797
▁의정	-17798
▁유연한	-17799
▁할인을	-17800
▁무단으로	-17801
▁언론사는	-17802
▁행사에는	-17803
▁service	-17804
력도	-17805
상가	-17806
▁열대	-17807
하셔도	-17808
▁대안을	-17809
▁얘기가	-17810
트륨	-17811
해운	-17812
:26	-17813
||1	-17814
당국은	-17815
angu	-17816
▁선진국	-17817
▁향했다	-17818
▁역사적인	-17819
▁옐	-17820
▁루프	-17821
▁막고	-17822
▁what	-17823
동출장만남	-17824
린의	-17825
▁부하	-17826
ustr	-17827
▁101	-17828
▁성범죄	-17829
▁정신과	-17830
▁키우고	-17831
▁이메일로	-17832
▁확인해보세요	-17833
▁토로	-17834
▁나들이	-17835
▁절차에	-17836
자로부터	-17837
inter	-17838
fo	-17839
파리	-17840
▁쳐다	-17841
4000	-17842
▁공급망	-17843
▁발견할	-17844
▁수있다	-17845
주자	-17846
하곤	-17847
▁ML	-17848
akes	-17849
▁기술력을	-17850
▁데이터에	-17851
▁카지노를	-17852
lished	-17853
비행	-17854
▁CM	-17855
▁날려	-17856
▁세제	-17857
센터의	-17858
▁지방의	-17859
공모	-17860
▁더한	-17861
▁진공	-17862
그래픽	-17863
▁게시글	-17864
▁가르치는	-17865
약의	-17866
ody	-17867
▁난이	-17868
▁남양	-17869
▁백만	-17870
▁1.2	-17871
▁YTN	-17872
▁전략이	-17873
겼습니다	-17874
▁주목된다	-17875
▁교실	-17876
▁동쪽	-17877
터미널	-17878
(16	-17879
▁스트랩	-17880
▁아니야	-17881
▁어학	-17882
가이드	-17883
식에는	-17884
교육지원	-17885
▁알려드릴	-17886
▁사랑스러운	-17887
숙박	-17888
▁2-3	-17889
▁바와	-17890
▁예시	-17891
▁Can	-17892
▁개정안	-17893
▁상승한	-17894
▁참고해주세요	-17895
지마	-17896
▁상이	-17897
▁새겨	-17898
구청장	-17899
▁이웃을	-17900
▁홍보를	-17901
▁경상북도	-17902
▁잃어버린	-17903
▁조금이나마	-17904
▁당국	-17905
▁조율	-17906
너지를	-17907
▁미얀마	-17908
▁비판을	-17909
▁봉사활동	-17910
리칸	-17911
▁알뜰	-17912
▁중견	-17913
▁집은	-17914
▁공기를	-17915
▁year	-17916
▁믹	-17917
▁샵	-17918
면은	-17919
▁주석	-17920
▁출퇴근	-17921
▁힘들게	-17922
▁활동으로	-17923
~1	-17924
홈런	-17925
▁찍는	-17926
.11.	-17927
▁수익성	-17928
▁협상을	-17929
▁상태입니다	-17930
위키	-17931
▁덕분	-17932
▁토너먼트	-17933
청과	-17934
달라는	-17935
▁good	-17936
▁것만으로도	-17937
득점	-17938
통은	-17939
▁고가	-17940
▁센트	-17941
▁기념해	-17942
채권	-17943
시의회	-17944
ᅲᅲᅲᅲ	-17945
▁노스	-17946
▁반해	-17947
고등	-17948
류는	-17949
▁놀랐	-17950
▁진흥	-17951
▁적절히	-17952
▁주택을	-17953
아지	-17954
▁렌트	-17955
▁쿠션	-17956
▁기록이	-17957
▁눈앞에	-17958
▁두꺼운	-17959
▁합의를	-17960
▁상승했다	-17961
▁편리하고	-17962
디스플레이	-17963
▁하수	-17964
▁fail	-17965
▁생각해요	-17966
▁불렀	-17967
▁정직	-17968
콘서트	-17969
▁먹어도	-17970
▁위주의	-17971
▁특화된	-17972
▁Group	-17973
▁선택하십시오	-17974
▁짠	-17975
▁문구	-17976
▁운이	-17977
▁올라온	-17978
▁강력하게	-17979
▁시행하고	-17980
▁텐아시아	-17981
▁다이아몬드	-17982
방은	-17983
선한	-17984
▁르네	-17985
▁섹시	-17986
▁자켓	-17987
▁물품을	-17988
▁사라져	-17989
▁성공할	-17990
▁전국적으로	-17991
부여	-17992
▁강점	-17993
▁맛은	-17994
▁문의는	-17995
▁사우나	-17996
우와	-17997
▁상품과	-17998
▁원하지	-17999
▁주가는	-18000
조각	-18001
duc	-18002
▁삼국	-18003
▁생식	-18004
셨다면	-18005
work	-18006
▁싶었던	-18007
▁이렇듯	-18008
▁원인으로	-18009
소속	-18010
▁비용으로	-18011
▁액세서리	-18012
▁자동차를	-18013
▁좋아합니다	-18014
BL	-18015
▁전압	-18016
▁콜라보	-18017
▁후보로	-18018
▁Work	-18019
▁기출문제	-18020
소수	-18021
▁연고	-18022
▁그러고	-18023
▁김대중	-18024
▁활성화에	-18025
atform	-18026
농구	-18027
▁읽은	-18028
▁만남을	-18029
▁고민하는	-18030
▁편입니다	-18031
▁success	-18032
지법	-18033
촉진	-18034
▁가꾸	-18035
▁로열	-18036
▁Lin	-18037
▁집중하고	-18038
alysis	-18039
조제	-18040
▁재학	-18041
이어서	-18042
▁밀가루	-18043
▁생방송	-18044
▁이하로	-18045
▁학생들	-18046
een	-18047
▁노원	-18048
▁잠정	-18049
▁개선하는	-18050
▁기능으로	-18051
▁잉글랜드	-18052
버터	-18053
스톱	-18054
조한	-18055
▁대접	-18056
▁산악	-18057
코드를	-18058
테이블	-18059
▁OP	-18060
▁찾아보	-18061
▁Express	-18062
사령	-18063
▁오라	-18064
2008	-18065
▁바나나	-18066
▁이대로	-18067
프라이즈	-18068
▁철수	-18069
▁회색	-18070
타이어	-18071
▁숫자가	-18072
▁폴란드	-18073
aa	-18074
리브	-18075
신과	-18076
▁방콕	-18077
▁부양	-18078
▁가려움	-18079
▁이벤트에	-18080
▁렉	-18081
구속	-18082
연결	-18083
▁트윈	-18084
▁반응은	-18085
▁신고가	-18086
▁스테이션	-18087
▁비틀	-18088
▁명예를	-18089
▁있고요	-18090
하기에는	-18091
▁심각하게	-18092
판의	-18093
▁Hy	-18094
▁지도를	-18095
임은	-18096
▁국비	-18097
▁박람회	-18098
bject	-18099
▁챔피언십	-18100
집은	-18101
:45	-18102
▁다윗	-18103
▁돌고	-18104
정책의	-18105
▁How	-18106
▁더이상	-18107
▁외에는	-18108
▁담당하고	-18109
한인	-18110
그런데	-18111
▁상황입니다	-18112
통의	-18113
App	-18114
▁보살	-18115
▁귀중한	-18116
▁생긴다	-18117
▁설립한	-18118
▁아동의	-18119
급의	-18120
디가	-18121
8000	-18122
▁보이스	-18123
▁연락이	-18124
▁싱크	-18125
▁여건	-18126
▁예의	-18127
▁이나	-18128
제도의	-18129
▁박차를	-18130
▁전국에서	-18131
회의실에서	-18132
▁누락되었거나	-18133
▁펫	-18134
행성	-18135
▁즉석	-18136
▁기도를	-18137
중소기업	-18138
▁만들어낸	-18139
▁선보이고	-18140
오로	-18141
▁구두	-18142
관리에	-18143
무단	-18144
ior	-18145
▁Go	-18146
▁동결	-18147
▁레버	-18148
▁싸우	-18149
▁해준	-18150
▁혈당	-18151
▁매력이	-18152
▁예술의	-18153
▁없으므로	-18154
▁챗	-18155
광역	-18156
니와	-18157
독일	-18158
ica	-18159
증으로	-18160
▁나서고	-18161
▁몰랐다	-18162
▁이해관계	-18163
▁장기적으로	-18164
▁개체	-18165
▁꿈이	-18166
▁당의	-18167
▁아담	-18168
▁일시적으로	-18169
▁understand	-18170
▁다듬	-18171
▁아바	-18172
코노미	-18173
come	-18174
▁도시락	-18175
▁사업이다	-18176
▁펼쳐진다	-18177
▁모르겠습니다	-18178
게이	-18179
경과	-18180
니의	-18181
eel	-18182
▁Az	-18183
▁목을	-18184
방으로	-18185
▁말이야	-18186
▁좋다는	-18187
월이	-18188
티는	-18189
▁그립	-18190
▁딸이	-18191
▁원동	-18192
사이클	-18193
▁정선	-18194
▁레포트	-18195
▁수강생	-18196
▁안전관리	-18197
아산	-18198
쳐서	-18199
비용을	-18200
스타트	-18201
▁관계는	-18202
▁마포구	-18203
▁블로거	-18204
▁열리고	-18205
▁졸업생	-18206
▁촬영한	-18207
▁시리즈는	-18208
▁영상으로	-18209
▁‘2019	-18210
HAN	-18211
erb	-18212
▁MD	-18213
▁억압	-18214
네스코	-18215
▁공장을	-18216
▁들어있는	-18217
▁않더라도	-18218
트맨	-18219
▁밀착	-18220
▁바우	-18221
▁속이	-18222
▁시일	-18223
▁통화를	-18224
▁익스피디아	-18225
자재	-18226
▁편견	-18227
▁버리는	-18228
▁생각했던	-18229
▁there	-18230
KT	-18231
▁them	-18232
▁학력	-18233
▁여부는	-18234
▁줘	-18235
운다	-18236
호한	-18237
▁가든	-18238
력발전	-18239
라기	-18240
양성	-18241
▁전격	-18242
▁깨닫게	-18243
▁설치가	-18244
▁1991	-18245
▁바늘	-18246
▁발로	-18247
▁아랫	-18248
▁앱은	-18249
▁이광	-18250
▁Mon	-18251
▁본격화	-18252
▁임무를	-18253
▁//	-18254
▁대명	-18255
하셨다	-18256
▁단점이	-18257
스튜디오	-18258
▁OLED	-18259
▁Office	-18260
업자	-18261
▁일기	-18262
▁상단에	-18263
▁표면에	-18264
동향	-18265
버섯	-18266
-40	-18267
▁유형에	-18268
▁콘텐츠가	-18269
▁가능한가요	-18270
▁・	-18271
론가	-18272
음의	-18273
▁외교부	-18274
▁포르투갈	-18275
▁눈부	-18276
▁활짝	-18277
▁향상된	-18278
▁그녀에게	-18279
▁군민	-18280
▁군인	-18281
자와의	-18282
▁경계를	-18283
▁자신들이	-18284
▁측의	-18285
▁카르	-18286
▁시기가	-18287
셨을	-18288
▁곁에	-18289
▁의식을	-18290
▁보건복지부	-18291
했어	-18292
▁87	-18293
▁고온	-18294
▁김소	-18295
▁커튼	-18296
▁판정	-18297
▁한자	-18298
동영상	-18299
판으로	-18300
▁반영해	-18301
▁바라보았다	-18302
▁사실입니다	-18303
보관	-18304
화장품	-18305
▁시너지	-18306
▁작성된	-18307
▁적용하여	-18308
CI	-18309
계와	-18310
ats	-18311
||2	-18312
▁보전	-18313
▁유예	-18314
폴리스	-18315
▁사태를	-18316
▁여름에	-18317
▁당시에는	-18318
▁트리트먼트	-18319
▁플랫폼에서	-18320
▁사명	-18321
▁상금	-18322
▁췌장	-18323
만으로는	-18324
ervices	-18325
희롱	-18326
▁악용	-18327
▁영위	-18328
▁잇몸	-18329
과장은	-18330
기능을	-18331
암보험	-18332
▁비중은	-18333
▁세상은	-18334
▁작용을	-18335
▁프린트	-18336
▁몹	-18337
대원	-18338
대회에서	-18339
중간	-18340
▁본능	-18341
▁원에	-18342
▁보건의료	-18343
설턴	-18344
:35	-18345
▁쌓인	-18346
스트는	-18347
▁플랫폼은	-18348
타로	-18349
▁고충	-18350
▁근접	-18351
▁수질	-18352
▁특혜	-18353
▁될까요	-18354
▁설치한	-18355
▁수치가	-18356
▁있어서는	-18357
,,,	-18358
▁마무	-18359
▁사망한	-18360
▁방식이다	-18361
▁이벤트는	-18362
▁리조	-18363
▁서대문	-18364
▁시스템과	-18365
키지	-18366
▁넓혀	-18367
▁너무도	-18368
▁성장이	-18369
▁압수수	-18370
▁나머지는	-18371
▁사람이라면	-18372
▁거북	-18373
▁부스	-18374
부인과	-18375
▁가져온	-18376
▁기업가	-18377
▁주제는	-18378
뉴스통신	-18379
▁있음에도	-18380
말고	-18381
합을	-18382
▁도래	-18383
▁계시는	-18384
▁밖에도	-18385
▁감안하면	-18386
▁있었으며	-18387
▁excellent	-18388
▁이만	-18389
▁제자	-18390
▁펌프	-18391
▁있겠다	-18392
었는데요	-18393
▁소비자들이	-18394
ony	-18395
▁르노	-18396
▁법조	-18397
▁걱정하지	-18398
▁주민자치	-18399
충남	-18400
▁되니	-18401
▁전당	-18402
▁훌쩍	-18403
▁책임자	-18404
▁특징이	-18405
▁금감	-18406
▁법이	-18407
▁샤오	-18408
▁순종	-18409
들까지	-18410
▁증가로	-18411
▁◀	-18412
▁전과	-18413
▁탱크	-18414
▁호의	-18415
▁국가와	-18416
▁대비한	-18417
▁시키는	-18418
▁엄마는	-18419
▁업체에	-18420
▁스타벅스	-18421
▁심심	-18422
▁신청한	-18423
▁중심이	-18424
볶음	-18425
▁경련	-18426
▁주요뉴스	-18427
▁원내대표는	-18428
▁합산	-18429
▁안타까운	-18430
▁알아보는	-18431
▁조사됐다	-18432
교과	-18433
꺼이	-18434
돌봄	-18435
월은	-18436
▁나갔	-18437
▁방화	-18438
층에서	-18439
▁1-2	-18440
kt	-18441
카의	-18442
▁피크	-18443
▁(0)	-18444
▁극심한	-18445
▁여자는	-18446
▁시작했고	-18447
▁정체성을	-18448
▁친절하게	-18449
▁급식	-18450
▁신이	-18451
▁정진	-18452
문제가	-18453
▁건물이	-18454
▁결국은	-18455
▁선정해	-18456
▁있으시	-18457
뉴욕	-18458
영향	-18459
▁권유	-18460
▁민속	-18461
▁슬픈	-18462
교회의	-18463
▁배경에	-18464
▁상대를	-18465
▁순간에	-18466
▁아쉽게	-18467
▁팬들이	-18468
▁긍정적으로	-18469
▁클립	-18470
▁포용	-18471
▁능력과	-18472
작으로	-18473
월과	-18474
▁83	-18475
▁서정	-18476
▁용의	-18477
▁이노	-18478
▁해병	-18479
▁지원과	-18480
▁쫄	-18481
남성	-18482
무늬	-18483
저런	-18484
▁240	-18485
▁정의를	-18486
▁죄송합니다	-18487
▁탔	-18488
솔린	-18489
포털	-18490
▁물량	-18491
▁뉴스가	-18492
▁도입을	-18493
▁실적이	-18494
▁일상의	-18495
▁취약한	-18496
▁확대할	-18497
▁기술개발	-18498
출장샵예약	-18499
▁물과	-18500
▁반죽	-18501
▁잃을	-18502
▁잡기	-18503
사회를	-18504
이네요	-18505
지원을	-18506
▁거래에	-18507
▁일들을	-18508
▁프리랜	-18509
만원이상	-18510
비즈니스	-18511
▁1988	-18512
▁영업이익은	-18513
▁늑	-18514
」,	-18515
지향	-18516
▁왕이	-18517
▁위법	-18518
▁조식	-18519
기관에	-18520
신도시	-18521
▁여행의	-18522
▁상황에서도	-18523
공격	-18524
동원	-18525
~12	-18526
▁각광	-18527
▁부흥	-18528
▁어휘	-18529
▁애초에	-18530
’)	-18531
증상	-18532
공화국	-18533
▁사태로	-18534
▁확인된	-18535
round	-18536
▁알았는데	-18537
▁website	-18538
:03	-18539
vel	-18540
▁세라	-18541
▁학대	-18542
▁고양시	-18543
▁글쓰기	-18544
▁시민이	-18545
▁공부하고	-18546
▁모습입니다	-18547
지는데	-18548
▁부끄러	-18549
▁1950	-18550
▁인터넷에서	-18551
▁현실적으로	-18552
,0	-18553
절이	-18554
▁소품	-18555
▁서버를	-18556
quest	-18557
무지	-18558
▁대동	-18559
▁아쿠	-18560
▁터져	-18561
었는지	-18562
▁교회에	-18563
▁부분의	-18564
강좌	-18565
큘럼	-18566
▁바꿨	-18567
소이스	-18568
▁설문조사	-18569
▁의료기기	-18570
_19	-18571
▁DM	-18572
▁건가	-18573
▁넓고	-18574
▁숨진	-18575
▁형식을	-18576
▁2020.	-18577
▁◈	-18578
▁쓴다	-18579
배터리	-18580
▁거리는	-18581
▁역사에	-18582
▁장거리	-18583
▁실정이다	-18584
성능	-18585
▁경희	-18586
▁대입	-18587
▁보호에	-18588
▁영향력	-18589
▁치료의	-18590
▁페미니	-18591
▁버전으로	-18592
▁준비했다	-18593
▁특징입니다	-18594
▁켈	-18595
연습	-18596
창의	-18597
▁듣지	-18598
▁부른	-18599
▁시킨	-18600
▁무언가	-18601
▁안내해	-18602
▁영화에	-18603
▁마음대로	-18604
레를	-18605
안동	-18606
▁메탈	-18607
▁민선	-18608
▁아토	-18609
월드컵	-18610
섹스	-18611
욕장	-18612
▁식의	-18613
▁자신은	-18614
겨운	-18615
웠고	-18616
6000	-18617
▁놀라게	-18618
▁높다는	-18619
만큼이나	-18620
▁카테고리는	-18621
▁뱅	-18622
내외	-18623
낸셜	-18624
수단	-18625
▁실손	-18626
▁얼른	-18627
▁절제	-18628
▁시청률	-18629
이었다고	-18630
▁자세하게	-18631
▁주민들은	-18632
▁주민등록	-18633
▁Business	-18634
▁Associate	-18635
▁독도	-18636
틀랜드	-18637
▁구축하는	-18638
▁만족스러운	-18639
▁화해	-18640
리조트	-18641
▁레전드	-18642
▁노력하겠습니다	-18643
폭이	-18644
학부	-18645
▁마블	-18646
오면서	-18647
▁다이빙	-18648
▁도박을	-18649
▁만나서	-18650
▁수익률	-18651
▁초보자	-18652
▁캄보디아	-18653
▁수락	-18654
그동안	-18655
▁알림을	-18656
▁고려하면	-18657
▁업계에서	-18658
구이	-18659
현금	-18660
▁펜션	-18661
▁나라는	-18662
▁드러난	-18663
▁변경될	-18664
▁손상된	-18665
▁역할에	-18666
▁나타냈다	-18667
▁여러분을	-18668
▁Cisco	-18669
본문	-18670
피가	-18671
vir	-18672
▁회화	-18673
▁히로	-18674
부장관	-18675
▁끔찍한	-18676
▁마련할	-18677
▁요청에	-18678
▁차지한	-18679
던지	-18680
지표	-18681
짐을	-18682
▁맞을	-18683
▁소진	-18684
▁웃고	-18685
▁저기	-18686
▁지각	-18687
▁특례	-18688
▁대중의	-18689
▁얘기다	-18690
▁약속했다	-18691
▁참고문헌	-18692
집단	-18693
▁지워	-18694
▁나타내	-18695
▁중요성	-18696
▁토론토	-18697
▁추산	-18698
▁통장	-18699
▁목적에	-18700
▁서포터	-18701
▁직업을	-18702
▁처음엔	-18703
ission	-18704
▁비비	-18705
▁용품	-18706
▁개인적	-18707
▁나갔다	-18708
▁아이콘을	-18709
▁이용하기	-18710
▁고객님께서	-18711
변을	-18712
▁"'	-18713
▁앱이	-18714
▁게임과	-18715
▁결정이	-18716
▁논란을	-18717
▁아름답고	-18718
▁주인공은	-18719
사자	-18720
파원	-18721
▁스쿨	-18722
▁옹호	-18723
어졌다	-18724
▁AND	-18725
위원장이	-18726
▁6000	-18727
▁세그먼트	-18728
▁신한은행	-18729
▁은근	-18730
▁이시	-18731
▁학부	-18732
서울시	-18733
apan	-18734
▁문제다	-18735
▁법률에	-18736
▁시험에	-18737
▁언론에	-18738
▁의문을	-18739
▁사람이다	-18740
매장	-18741
▁이니	-18742
▁폭이	-18743
▁이어진다	-18744
▁특징으로	-18745
ategory	-18746
제어	-18747
(13	-18748
▁갤러	-18749
▁점입니다	-18750
공주	-18751
▁비핵화	-18752
▁생산성	-18753
▁????	-18754
반이	-18755
▁됐고	-18756
트레이	-18757
▁울트라	-18758
손해보험	-18759
▁아시아나	-18760
레어	-18761
신에	-18762
양식	-18763
▁El	-18764
▁잡혀	-18765
▁진행이	-18766
▁결정적인	-18767
▁그러던	-18768
▁발표했습니다	-18769
곡동	-18770
모토	-18771
처에	-18772
▁부총	-18773
▁펼칠	-18774
방법은	-18775
▁방대한	-18776
▁실행할	-18777
▁포함되지	-18778
무진	-18779
:32	-18780
▁PE	-18781
▁기법	-18782
▁끈다	-18783
▁플래그	-18784
▁활약을	-18785
▁극복하고	-18786
▁공군	-18787
▁날로	-18788
▁두개	-18789
▁귀하가	-18790
▁맞았다	-18791
▁이것도	-18792
▁프랑스의	-18793
달을	-18794
▁단풍	-18795
▁이쁘	-18796
▁저서	-18797
▁젖은	-18798
갤럭시	-18799
분으로	-18800
모리	-18801
받게	-18802
▁비어	-18803
인데도	-18804
▁개선이	-18805
▁더구나	-18806
▁왓	-18807
해왔	-18808
▁Bou	-18809
▁pol	-18810
한국시간	-18811
▁NEWS	-18812
▁외무	-18813
▁말하기	-18814
▁향상에	-18815
▁기후변화	-18816
▁계획이라고	-18817
혹한	-18818
▁폐렴	-18819
공인	-18820
환은	-18821
▁넷째	-18822
[...]
