<pad>	0
<eos>	0
<unk>	0
▁이	-0
니다	-1
▁있	-2
▁수	-3
으로	-4
▁사	-5
에서	-6
▁그	-7
▁1	-8
▁대	-9
▁기	-10
▁가	-11
▁2	-12
습니다	-13
▁지	-14
▁시	-15
하는	-16
▁것	-17
▁전	-18
▁아	-19
▁보	-20
▁제	-21
▁한	-22
▁하	-23
▁다	-24
..	-25
▁-	-26
▁정	-27
▁자	-28
▁주	-29
하고	-30
▁위	-31
▁인	-32
▁경	-33
했다	-34
▁모	-35
▁등	-36
▁일	-37
▁나	-38
▁중	-39
▁공	-40
▁상	-41
00	-42
▁부	-43
▁있다	-44
▁마	-45
▁고	-46
▁어	-47
▁소	-48
▁유	-49
▁오	-50
▁있는	-51
▁3	-52
▁관	-53
이다	-54
▁여	-55
▁않	-56
합니다	-57
▁내	-58
▁해	-59
▁비	-60
▁있습니다	-61
▁개	-62
▁조	-63
▁‘	-64
▁신	-65
▁없	-66
▁무	-67
▁바	-68
▁구	-69
▁연	-70
▁20	-71
▁만	-72
▁및	-73
▁서	-74
▁스	-75
▁생	-76
▁선	-77
입니다	-78
▁의	-79
▁방	-80
▁최	-81
▁우	-82
▁안	-83
▁때	-84
▁통	-85
▁발	-86
▁미	-87
▁도	-88
▁말	-89
지만	-90
▁세	-91
▁예	-92
▁동	-93
▁국	-94
▁문	-95
▁영	-96
er	-97
▁“	-98
▁분	-99
▁(	-100
in	-101
▁성	-102
들이	-103
▁더	-104
▁실	-105
에게	-106
▁거	-107
▁진	-108
적인	-109
▁많	-110
▁되	-111
▁또	-112
▁4	-113
▁장	-114
이라	-115
▁사용	-116
하게	-117
었다	-118
▁5	-119
한다	-120
on	-121
하여	-122
까지	-123
▁결	-124
▁저	-125
▁현	-126
▁대한	-127
▁알	-128
▁교	-129
▁따	-130
▁추	-131
▁원	-132
▁강	-133
▁확	-134
▁'	-135
▁같	-136
적으로	-137
▁"	-138
에는	-139
an	-140
▁재	-141
▁매	-142
...	-143
▁불	-144
▁할	-145
▁후	-146
▁계	-147
하기	-148
▁S	-149
▁위해	-150
▁감	-151
▁작	-152
▁특	-153
or	-154
▁좋	-155
▁포	-156
▁당	-157
▁사람	-158
▁배	-159
▁설	-160
▁적	-161
▁C	-162
▁받	-163
▁프	-164
부터	-165
▁반	-166
▁노	-167
▁A	-168
st	-169
면서	-170
▁단	-171
▁경우	-172
▁회	-173
▁요	-174
▁출	-175
20	-176
▁t	-177
▁우리	-178
▁201	-179
▁차	-180
▁들	-181
▁게	-182
▁입	-183
▁건	-184
이트	-185
▁필	-186
▁김	-187
▁파	-188
at	-189
▁남	-190
am	-191
▁:	-192
▁함	-193
re	-194
▁과	-195
le	-196
▁참	-197
들은	-198
다는	-199
▁6	-200
▁통해	-201
▁물	-202
▁|	-203
들의	-204
▁두	-205
▁가능	-206
▁피	-207
▁올	-208
▁학	-209
▁데	-210
▁운	-211
▁활	-212
▁제공	-213
▁금	-214
en	-215
▁카	-216
▁것이	-217
▁직	-218
▁10	-219
하지	-220
▁역	-221
▁[	-222
는데	-223
으며	-224
▁P	-225
▁때문	-226
▁한국	-227
리고	-228
▁코	-229
비스	-230
▁하는	-231
▁호	-232
▁이용	-233
▁목	-234
▁새	-235
▁생각	-236
▁행	-237
▁변	-238
▁달	-239
▁7	-240
▁지난	-241
▁본	-242
al	-243
▁아니	-244
다고	-245
om	-246
ar	-247
▁평	-248
▁함께	-249
▁열	-250
it	-251
▁M	-252
▁화	-253
▁T	-254
세요	-255
도록	-256
▁하나	-257
he	-258
▁간	-259
▁따라	-260
됩니다	-261
▁프로	-262
▁드	-263
기를	-264
▁환	-265
▁I	-266
▁리	-267
▁다른	-268
▁필요	-269
▁명	-270
▁살	-271
▁잘	-272
▁8	-273
▁증	-274
들을	-275
▁못	-276
▁많은	-277
▁높	-278
▁집	-279
▁편	-280
▁외	-281
▁초	-282
ou	-283
된다	-284
▁대해	-285
▁치	-286
▁체	-287
▁검	-288
레이	-289
▁종	-290
▁투	-291
라고	-292
▁업	-293
▁가장	-294
▁점	-295
▁청	-296
▁산	-297
▁약	-298
▁모든	-299
되는	-300
에서는	-301
▁같은	-302
스트	-303
▁시간	-304
▁양	-305
▁시작	-306
▁심	-307
하며	-308
▁처	-309
||	-310
▁문제	-311
이나	-312
▁아이	-313
▁정보	-314
▁9	-315
▁판	-316
▁다양	-317
▁위한	-318
▁라	-319
▁서비스	-320
▁맞	-321
▁B	-322
▁한다	-323
▁디	-324
▁온	-325
▁메	-326
▁에	-327
▁크	-328
ic	-329
▁손	-330
에도	-331
해야	-332
▁찾	-333
▁이상	-334
하면	-335
▁진행	-336
▁그러	-337
--	-338
▁각	-339
▁박	-340
▁만들	-341
▁앞	-342
▁표	-343
▁D	-344
▁관련	-345
▁지원	-346
▁완	-347
▁식	-348
▁것으로	-349
되어	-350
▁번	-351
▁0	-352
▁음	-353
▁c	-354
리는	-355
ion	-356
▁지역	-357
▁들어	-358
▁타	-359
▁있어	-360
이라고	-361
▁밝	-362
▁속	-363
하다	-364
▁자신	-365
지는	-366
출장	-367
▁19	-368
거나	-369
▁임	-370
페이	-371
es	-372
▁L	-373
▁다양한	-374
▁것을	-375
보다	-376
▁플	-377
▁E	-378
▁제품	-379
▁또한	-380
▁f	-381
였다	-382
000	-383
ed	-384
▁방법	-385
라는	-386
▁확인	-387
▁기자	-388
▁로	-389
▁복	-390
▁그리고	-391
▁때문에	-392
▁글	-393
▁채	-394
▁취	-395
▁총	-396
▁p	-397
.0	-398
▁언	-399
▁또는	-400
았다	-401
▁법	-402
19	-403
▁합니다	-404
리를	-405
ing	-406
▁것이다	-407
▁것은	-408
▁근	-409
했습니다	-410
▁누	-411
▁s	-412
사를	-413
대로	-414
▁이번	-415
로운	-416
ex	-417
▁준	-418
▁미국	-419
▁질	-420
▁서울	-421
is	-422
▁충	-423
▁돌	-424
었습니다	-425
▁항	-426
자가	-427
▁광	-428
▁먹	-429
▁가지	-430
▁시장	-431
▁사업	-432
10	-433
▁세계	-434
▁창	-435
시간	-436
il	-437
▁버	-438
▁느	-439
▁트	-440
기에	-441
▁a	-442
▁개인	-443
▁R	-444
▁다음	-445
지를	-446
▁책	-447
▁걸	-448
성을	-449
▁고객	-450
▁민	-451
▁F	-452
▁토	-453
자는	-454
▁싶	-455
▁게임	-456
▁큰	-457
뉴스	-458
ro	-459
▁될	-460
해서	-461
▁하고	-462
▁모두	-463
▁대표	-464
▁담	-465
▁너	-466
▁순	-467
▁형	-468
▁G	-469
▁눈	-470
▁여러	-471
▁#	-472
라인	-473
▁사회	-474
▁효	-475
▁K	-476
▁독	-477
▁날	-478
▁내용	-479
▁the	-480
▁H	-481
▁많이	-482
있는	-483
▁커	-484
▁접	-485
기도	-486
▁좋은	-487
센터	-488
들에게	-489
▁w	-490
▁애	-491
▁기업	-492
▁규	-493
▁줄	-494
▁브	-495
ht	-496
▁선택	-497
▁베	-498
▁클	-499
▁연구	-500
▁기술	-501
▁12	-502
▁했다	-503
et	-504
▁운영	-505
▁중요	-506
▁N	-507
서는	-508
▁전문	-509
▁이어	-510
▁협	-511
니까	-512
이터	-513
됐다	-514
▁교육	-515
com	-516
▁현재	-517
▁하지만	-518
그램	-519
▁친	-520
▁곳	-521
▁향	-522
▁발생	-523
▁11	-524
력을	-525
이고	-526
▁<	-527
el	-528
and	-529
▁그런	-530
▁W	-531
처럼	-532
▁/	-533
▁절	-534
▁b	-535
▁네	-536
▁o	-537
▁된	-538
자의	-539
으면	-540
▁없는	-541
기가	-542
정을	-543
▁개발	-544
▁얼	-545
as	-546
ac	-547
▁지금	-548
▁상황	-549
▁202	-550
▁태	-551
▁다시	-552
▁힘	-553
▁m	-554
장을	-555
▁결과	-556
▁밝혔	-557
정보	-558
▁용	-559
▁않는	-560
),	-561
▁무료	-562
▁정도	-563
▁아니라	-564
렇게	-565
-0	-566
▁포함	-567
▁합	-568
▁권	-569
장은	-570
어요	-571
▁등을	-572
▁블	-573
▁패	-574
▁관계	-575
.1	-576
▁마음	-577
이라는	-578
em	-579
▁추가	-580
상을	-581
▁상품	-582
▁레	-583
▁있을	-584
▁이후	-585
exam	-586
화를	-587
▁볼	-588
▁새로운	-589
▁테	-590
▁빠	-591
▁북	-592
▁삼	-593
이는	-594
▁백	-595
▁정부	-596
▁사실	-597
▁넘	-598
학교	-599
위원	-600
▁그래	-601
▁어떤	-602
▁것입니다	-603
▁뒤	-604
▁즐	-605
하시	-606
▁말했다	-607
▁밝혔다	-608
▁바로	-609
▁인터	-610
▁이미	-611
▁15	-612
▁30	-613
▁중국	-614
되고	-615
▁가격	-616
▁농	-617
▁했	-618
성이	-619
▁설명	-620
▁허	-621
▁이야	-622
▁국내	-623
ple	-624
기는	-625
사는	-626
▁사진	-627
▁안전	-628
▁특히	-629
가는	-630
▁200	-631
랜드	-632
▁d	-633
▁기능	-634
스템	-635
▁있으며	-636
▁최근	-637
▁있도록	-638
페이지	-639
리가	-640
▁그러나	-641
▁이런	-642
▁첫	-643
하면서	-644
▁동안	-645
ent	-646
▁호텔	-647
▁이유	-648
▁O	-649
▁보고	-650
시오	-651
▁활동	-652
사지	-653
사업	-654
▁사이	-655
▁길	-656
▁승	-657
로나	-658
▁일본	-659
▁갖	-660
▁관리	-661
들과	-662
사가	-663
▁최고	-664
▁참여	-665
▁천	-666
ame	-667
자를	-668
ig	-669
▁해당	-670
▁쓰	-671
시아	-672
▁너무	-673
▁구매	-674
▁프로그램	-675
▁일반	-676
십시오	-677
▁모습	-678
자인	-679
▁of	-680
▁논	-681
▁판매	-682
▁준비	-683
▁계획	-684
▁끝	-685
주의	-686
식을	-687
▁축	-688
▁은	-689
▁당신	-690
▁나타	-691
▁경제	-692
▁홍	-693
▁건강	-694
▁군	-695
▁야	-696
▁머	-697
▁국가	-698
▁1.	-699
▁오늘	-700
겠습니다	-701
이며	-702
사의	-703
지노	-704
-1	-705
▁시설	-706
▁별	-707
▁대상	-708
라이	-709
▁도움	-710
만원	-711
▁여행	-712
▁맛	-713
▁병	-714
▁사랑	-715
ol	-716
▁활용	-717
▁키	-718
ir	-719
떻게	-720
통령	-721
▁귀	-722
▁V	-723
▁이러	-724
▁온라인	-725
▁직접	-726
▁예정	-727
▁분석	-728
▁만들어	-729
▁환경	-730
▁알려	-731
졌다	-732
▁그것	-733
가지	-734
▁자동	-735
id	-736
▁어떻게	-737
----	-738
▁구성	-739
▁쉽	-740
30	-741
▁위치	-742
에서도	-743
ec	-744
기업	-745
.2	-746
▁없다	-747
▁부분	-748
▁U	-749
▁치료	-750
▁in	-751
name	-752
▁존	-753
▁경험	-754
▁and	-755
▁월	-756
▁기준	-757
!!	-758
▁추천	-759
▁늘	-760
▁된다	-761
▁100	-762
ot	-763
▁실제	-764
장이	-765
▁그는	-766
립니다	-767
▁...	-768
▁잡	-769
▁처음	-770
▁최대	-771
▁투자	-772
▁무엇	-773
▁어려	-774
▁효과	-775
▁면	-776
▁이러한	-777
사이트	-778
example	-779
▁않고	-780
la	-781
▁국민	-782
▁휴	-783
교육	-784
stname	-785
회의	-786
▁대통령	-787
▁적용	-788
▁있었	-789
▁의미	-790
▁데이터	-791
▁얻	-792
네요	-793
리스	-794
ww	-795
▁전체	-796
르면	-797
ation	-798
▁찾아	-799
▁등의	-800
리아	-801
겠다	-802
▁높은	-803
▁사이트	-804
▁좋아	-805
▁잠	-806
▁있었다	-807
▁시스템	-808
▁않은	-809
▁관심	-810
주는	-811
리에	-812
▁침	-813
▁영화	-814
▁올해	-815
▁18	-816
스를	-817
다면	-818
▁학생	-819
▁to	-820
▁문화	-821
케이	-822
▁있고	-823
▁골	-824
▁주요	-825
-2	-826
▁몇	-827
▁막	-828
안마	-829
▁갈	-830
▁답	-831
▁상태	-832
▁콘	-833
▁이를	-834
도를	-835
▁알아	-836
인이	-837
지고	-838
▁거래	-839
▁엄	-840
▁몸	-841
▁매우	-842
▁코로나	-843
▁일부	-844
하세요	-845
▁영향	-846
▁폭	-847
▁방문	-848
▁2.	-849
▁기대	-850
▁수도	-851
▁자신의	-852
▁측	-853
....	-854
덤프	-855
▁.	-856
▁증가	-857
▁설치	-858
▁여성	-859
므로	-860
라도	-861
▁신청	-862
드는	-863
▁이름	-864
▁회원	-865
시는	-866
마트	-867
▁캐	-868
▁14	-869
201	-870
▁16	-871
▁소개	-872
▁이해	-873
▁계속	-874
▁기록	-875
▁없이	-876
어나	-877
▁보여	-878
▁와	-879
▁산업	-880
ad	-881
ᄏᄏ	-882
▁숙	-883
▁되는	-884
▁스타	-885
▁철	-886
▁응	-887
회를	-888
▁발표	-889
작권	-890
▁더욱	-891
랍니다	-892
이었다	-893
시에	-894
▁아래	-895
원을	-896
부분	-897
▁됩니다	-898
▁이제	-899
▁벌	-900
tp	-901
▁급	-902
▁아닌	-903
▁떠	-904
▁평가	-905
▁유지	-906
50	-907
▁먼	-908
▁기본	-909
▁있다는	-910
us	-911
//	-912
,000	-913
시키	-914
▁지속	-915
치를	-916
ow	-917
자료	-918
▁가족	-919
보험	-920
▁결정	-921
▁있으	-922
▁정책	-923
▁등록	-924
▁삶	-925
▁13	-926
http	-927
▁나는	-928
하려	-929
▁필요한	-930
없이	-931
▁생산	-932
▁과정	-933
스크	-934
되지	-935
.”	-936
▁인터넷	-937
▁2020	-938
://	-939
했던	-940
▁받아	-941
▁금지	-942
un	-943
▁돌아	-944
보기	-945
▁없습니다	-946
▁따르면	-947
▁마련	-948
▁공개	-949
▁죽	-950
원이	-951
어서	-952
▁감사	-953
인의	-954
원은	-955
▁정말	-956
▁물론	-957
▁작성	-958
▁즉	-959
▁소비	-960
▁특별	-961
▁좀	-962
▁놀	-963
▁풍	-964
▁▲	-965
▁*	-966
▁극	-967
▁디자인	-968
▁홈	-969
um	-970
인데	-971
im	-972
▁내가	-973
▁작업	-974
ch	-975
▁같이	-976
▁해결	-977
포츠	-978
ail	-979
▁제작	-980
▁돈	-981
▁난	-982
해주	-983
▁대학	-984
▁읽	-985
▁추진	-986
▁성장	-987
▁경기	-988
▁가지고	-989
▁J	-990
경제	-991
▁낮	-992
oo	-993
▁자세	-994
▁17	-995
왔다	-996
▁이렇게	-997
▁왜	-998
▁기간	-999
▁성공	-1000
▁생활	-1001
▁암	-1002
▁2019	-1003
스타	-1004
▁가능한	-1005
▁범	-1006
▁공간	-1007
▁윤	-1008
iv	-1009
▁우리는	-1010
문화	-1011
▁분야	-1012
트를	-1013
▁하나님	-1014
▁그래서	-1015
드를	-1016
▁바랍니다	-1017
관리	-1018
est	-1019
▁이것	-1020
점을	-1021
▁보호	-1022
르는	-1023
텐츠	-1024
▁떨	-1025
력이	-1026
디어	-1027
▁무단	-1028
▁발전	-1029
▁등이	-1030
▁웹	-1031
▁국제	-1032
▁시험	-1033
▁y	-1034
시장	-1035
치는	-1036
▁혼	-1037
▁어린	-1038
▁품	-1039
▁않습니다	-1040
사회	-1041
인지	-1042
▁기존	-1043
▁되어	-1044
▁3.	-1045
▁요구	-1046
원의	-1047
ur	-1048
기로	-1049
▁컨	-1050
▁자연	-1051
▁수준	-1052
▁이에	-1053
▁팀	-1054
운데	-1055
▁아무	-1056
▁이날	-1057
▁작품	-1058
▁중심	-1059
▁사항	-1060
▁개선	-1061
▁중요한	-1062
하거나	-1063
▁탄	-1064
스는	-1065
물을	-1066
대출	-1067
▁슬	-1068
인을	-1069
▁검색	-1070
▁풀	-1071
렸다	-1072
▁그렇	-1073
▁않았	-1074
하였	-1075
▁현대	-1076
인가	-1077
제를	-1078
▁조금	-1079
▁24	-1080
로벌	-1081
▁악	-1082
▁연결	-1083
▁피해	-1084
▁학교	-1085
▁대부분	-1086
전히	-1087
▁놓	-1088
▁h	-1089
▁지난해	-1090
도로	-1091
▁뿐	-1092
기관	-1093
ag	-1094
▁미래	-1095
▁변화	-1096
▁그녀	-1097
ut	-1098
▁나오	-1099
▁있다고	-1100
도가	-1101
음을	-1102
나는	-1103
위를	-1104
▁색	-1105
▁re	-1106
▁예약	-1107
▁송	-1108
수를	-1109
▁몰	-1110
르게	-1111
▁희	-1112
▁먼저	-1113
다가	-1114
▁2018	-1115
▁책임	-1116
지역	-1117
▁역할	-1118
▁황	-1119
▁자료	-1120
▁친구	-1121
▁어느	-1122
▁밀	-1123
▁정보를	-1124
▁해외	-1125
▁라이	-1126
시험	-1127
▁50	-1128
▁이야기	-1129
▁인간	-1130
▁역시	-1131
op	-1132
▁강화	-1133
보고	-1134
지가	-1135
바이	-1136
연구	-1137
▁얼마	-1138
▁믿	-1139
▁기반	-1140
▁비교	-1141
대를	-1142
마다	-1143
▁노력	-1144
▁브랜드	-1145
▁모델	-1146
위원회	-1147
▁년	-1148
▁방송	-1149
▁운동	-1150
▁바이	-1151
▁둘	-1152
▁방식	-1153
수가	-1154
▁그의	-1155
▁이는	-1156
▁인해	-1157
ap	-1158
▁핵	-1159
마사지	-1160
스터	-1161
금을	-1162
11	-1163
▁플레이	-1164
▁n	-1165
▁주문	-1166
▁도시	-1167
이가	-1168
하십시오	-1169
▁g	-1170
▁금융	-1171
▁하루	-1172
▁여기	-1173
의를	-1174
▁아직	-1175
상이	-1176
▁경쟁	-1177
▁알고	-1178
▁카지노	-1179
▁이루	-1180
ay	-1181
배포	-1182
▁스마트	-1183
산업	-1184
▁you	-1185
디오	-1186
▁–	-1187
▁가운데	-1188
지원	-1189
동안	-1190
나요	-1191
니스	-1192
감을	-1193
▁사람이	-1194
▁이동	-1195
▁않을	-1196
▁정치	-1197
▁목표	-1198
▁있는데	-1199
도의	-1200
스로	-1201
if	-1202
▁긴	-1203
▁존재	-1204
▁파일	-1205
이드	-1206
▁보면	-1207
▁한편	-1208
▁업무	-1209
▁쉽게	-1210
었던	-1211
▁회사	-1212
▁25	-1213
ce	-1214
▁자유	-1215
▁당시	-1216
수는	-1217
▁있지만	-1218
▁관한	-1219
▁피부	-1220
▁공동	-1221
▁객	-1222
▁개최	-1223
▁전략	-1224
은행	-1225
▁북한	-1226
▁능	-1227
▁배우	-1228
==	-1229
시설	-1230
▁글로벌	-1231
▁착	-1232
▁오후	-1233
▁울	-1234
▁사건	-1235
▁헤	-1236
명이	-1237
▁전국	-1238
프트	-1239
이지	-1240
▁고려	-1241
서비스	-1242
▁변경	-1243
▁떨어	-1244
lo	-1245
▁육	-1246
▁시민	-1247
드립니다	-1248
▁터	-1249
▁게시	-1250
▁솔	-1251
▁이전	-1252
▁21	-1253
▁번째	-1254
가능	-1255
▁도움이	-1256
▁발견	-1257
▁음식	-1258
들도	-1259
▁위험	-1260
▁깨	-1261
▁출장	-1262
▁저작권	-1263
▁선정	-1264
▁자체	-1265
▁말씀	-1266
ew	-1267
21	-1268
▁http	-1269
기술	-1270
▁폐	-1271
▁출시	-1272
워크	-1273
▁다운	-1274
▁Q	-1275
로드	-1276
명의	-1277
지막	-1278
지도	-1279
소년	-1280
▁>	-1281
ver	-1282
시면	-1283
자로	-1284
▁씨	-1285
▁비용	-1286
▁서비스를	-1287
소를	-1288
org	-1289
▁보내	-1290
▁공급	-1291
번호	-1292
는다	-1293
▁확대	-1294
데이트	-1295
명을	-1296
▁정확	-1297
개월	-1298
▁결제	-1299
▁공유	-1300
▁사람들이	-1301
환경	-1302
계를	-1303
▁수행	-1304
▁팔	-1305
▁크게	-1306
▁엔	-1307
한국	-1308
ter	-1309
▁꿈	-1310
사와	-1311
이어	-1312
상의	-1313
▁오는	-1314
▁혹	-1315
했고	-1316
러운	-1317
▁컴	-1318
▁예상	-1319
ul	-1320
▁넣	-1321
선을	-1322
ct	-1323
▁설정	-1324
까요	-1325
장에서	-1326
▁궁	-1327
▁앞으로	-1328
▁뉴스	-1329
▁최신	-1330
억원	-1331
▁것도	-1332
랫폼	-1333
▁질문	-1334
▁표현	-1335
▁후보	-1336
▁th	-1337
▁만나	-1338
▁안내	-1339
나라	-1340
▁부산	-1341
▁앱	-1342
12	-1343
▁가입	-1344
▁해야	-1345
▁하지	-1346
서를	-1347
▁누구	-1348
▁전에	-1349
▁규모	-1350
자들이	-1351
▁듯	-1352
▁작은	-1353
▁참고	-1354
▁문의	-1355
▁광고	-1356
▁대비	-1357
▁2021	-1358
▁따라서	-1359
러스	-1360
▁탈	-1361
▁뜻	-1362
▁마지막	-1363
했다고	-1364
▁장애	-1365
인은	-1366
▁이벤	-1367
▁여러분	-1368
ight	-1369
▁사용할	-1370
▁혈	-1371
▁전문가	-1372
하지만	-1373
하실	-1374
▁스포츠	-1375
▁살아	-1376
▁삼성	-1377
▁쿠	-1378
기의	-1379
▁업체	-1380
밖에	-1381
▁적극	-1382
시기	-1383
▁강조	-1384
▁뉴	-1385
자에게	-1386
▁2017	-1387
▁만큼	-1388
▁의료	-1389
리지	-1390
댓글	-1391
▁영향을	-1392
▁뛰	-1393
▁꼭	-1394
▁조사	-1395
▁보험	-1396
문제	-1397
머니	-1398
▁제주	-1399
▁스트	-1400
▁인증	-1401
업체	-1402
아요	-1403
너지	-1404
이를	-1405
▁티	-1406
장의	-1407
▁처리	-1408
하였다	-1409
기간	-1410
▁제가	-1411
▁전망	-1412
).	-1413
▁구조	-1414
▁팬	-1415
▁주민	-1416
으나	-1417
▁조직	-1418
혁신	-1419
자와	-1420
▁깊	-1421
▁공부	-1422
▁실시	-1423
▁그런데	-1424
▁지방	-1425
▁4.	-1426
▁집중	-1427
해보	-1428
od	-1429
ab	-1430
▁봉	-1431
로부터	-1432
인다	-1433
▁콘텐츠	-1434
▁플랫폼	-1435
▁때문이다	-1436
▁어디	-1437
▁22	-1438
▁우리가	-1439
▁압	-1440
▁제한	-1441
^^	-1442
▁40	-1443
요일	-1444
전을	-1445
▁언제	-1446
▁비롯	-1447
대한	-1448
▁행복	-1449
지털	-1450
▁일이	-1451
:00	-1452
▁기타	-1453
▁거의	-1454
▁하면	-1455
성과	-1456
▁음악	-1457
▁페	-1458
라마	-1459
▁왕	-1460
▁느낌	-1461
▁받고	-1462
▁그렇게	-1463
email	-1464
복지	-1465
정이	-1466
▁익	-1467
▁배송	-1468
웨어	-1469
▁In	-1470
▁액	-1471
▁자기	-1472
▁항공	-1473
스의	-1474
안을	-1475
과의	-1476
개의	-1477
부는	-1478
되었	-1479
로는	-1480
▁쇼	-1481
▁꾸	-1482
▁for	-1483
▁퍼	-1484
os	-1485
▁러	-1486
▁기억	-1487
▁선수	-1488
▁체크	-1489
▁댓글	-1490
▁기사	-1491
▁전달	-1492
▁형태	-1493
스가	-1494
▁얼굴	-1495
션을	-1496
▁△	-1497
정한	-1498
▁최고의	-1499
▁의해	-1500
▁상담	-1501
▁예정이다	-1502
리의	-1503
▁지나	-1504
▁구축	-1505
일부터	-1506
났다	-1507
▁따른	-1508
바일	-1509
동을	-1510
▁감독	-1511
▁주변	-1512
▁프로젝	-1513
▁계약	-1514
▁자동차	-1515
ate	-1516
▁서로	-1517
대의	-1518
인트	-1519
생활	-1520
진다	-1521
22	-1522
▁편의	-1523
▁아름	-1524
▁결국	-1525
▁관광	-1526
▁요청	-1527
▁빨	-1528
ore	-1529
장에	-1530
되었습니다	-1531
▁루	-1532
▁개인정보	-1533
▁사고	-1534
▁신고	-1535
르고	-1536
▁보다	-1537
▁23	-1538
되었다	-1539
▁fir	-1540
파트	-1541
되며	-1542
lastname	-1543
▁시간이	-1544
▁움	-1545
적이	-1546
님의	-1547
▁입니다	-1548
▁문제가	-1549
▁겨	-1550
▁한번	-1551
40	-1552
▁의견	-1553
▁전자	-1554
**	-1555
▁제공합니다	-1556
▁노동	-1557
▁인기	-1558
서울	-1559
▁충분	-1560
▁상승	-1561
▁Y	-1562
스토	-1563
한다고	-1564
하도록	-1565
▁있게	-1566
려고	-1567
th	-1568
▁시행	-1569
로서	-1570
▁올라	-1571
▁등에	-1572
사항	-1573
▁부담	-1574
▁시간을	-1575
▁않아	-1576
지에	-1577
▁녹	-1578
▁저희	-1579
▁정상	-1580
▁자리	-1581
▁역사	-1582
▁경찰	-1583
▁받은	-1584
▁제조	-1585
회가	-1586
--------	-1587
15	-1588
▁고민	-1589
80	-1590
▁영상	-1591
▁덤프	-1592
개발	-1593
로그	-1594
하는데	-1595
ers	-1596
▁아주	-1597
거리	-1598
▁옵	-1599
▁대상으로	-1600
▁수익	-1601
일까지	-1602
60	-1603
▁붙	-1604
▁인정	-1605
▁가져	-1606
전에	-1607
▁정신	-1608
▁전화	-1609
▁답변	-1610
▁l	-1611
한다는	-1612
▁예방	-1613
▁부족	-1614
▁공식	-1615
대표	-1616
으로써	-1617
▁않았다	-1618
▁상당	-1619
▁흔	-1620
▁갑	-1621
▁행사	-1622
▁숨	-1623
▁안정	-1624
▁주장	-1625
▁만든	-1626
에서의	-1627
▁맡	-1628
▁나라	-1629
민국	-1630
ss	-1631
정부	-1632
▁클릭	-1633
▁항상	-1634
스럽	-1635
롭게	-1636
▁밤	-1637
라우	-1638
▁이벤트	-1639
게임	-1640
출장샵	-1641
▁꽃	-1642
▁견	-1643
▁어린이	-1644
▁기관	-1645
제로	-1646
▁가진	-1647
▁199	-1648
▁현실	-1649
▁민주	-1650
▁확보	-1651
▁e	-1652
▁받을	-1653
▁객실	-1654
▁유명	-1655
▁그림	-1656
▁흐	-1657
이에	-1658
▁열린	-1659
▁email	-1660
▁최소	-1661
▁펼	-1662
콜걸	-1663
▁차량	-1664
▁특징	-1665
▁가까	-1666
.5	-1667
대학교	-1668
움을	-1669
하신	-1670
▁캠	-1671
▁듣	-1672
가를	-1673
▁석	-1674
일을	-1675
▁가치	-1676
▁욕	-1677
▁참석	-1678
대에	-1679
qu	-1680
이기	-1681
▁어렵	-1682
▁대출	-1683
▁인천	-1684
▁제공하는	-1685
ly	-1686
▁혜	-1687
▁있어서	-1688
▁대응	-1689
▁업데이트	-1690
▁경영	-1691
▁저는	-1692
물이	-1693
▁살펴	-1694
ri	-1695
▁디지털	-1696
▁되고	-1697
▁TV	-1698
▁연락	-1699
▁단계	-1700
▁잔	-1701
▁감소	-1702
kr	-1703
av	-1704
▁쉬	-1705
만큼	-1706
▁재배포	-1707
▁firstname	-1708
어를	-1709
▁만족	-1710
▁조건	-1711
수의	-1712
거래	-1713
▁판단	-1714
동산	-1715
이크	-1716
▁=	-1717
원에	-1718
는지	-1719
▁염	-1720
▁공격	-1721
께서	-1722
▁모바일	-1723
▁표시	-1724
년에	-1725
▁활성	-1726
▁v	-1727
시고	-1728
촬영	-1729
사진	-1730
ity	-1731
."	-1732
▁우선	-1733
▁보는	-1734
70	-1735
없는	-1736
▁소재	-1737
▁칼	-1738
았습니다	-1739
▁끌	-1740
정책	-1741
출장안마	-1742
▁있기	-1743
)’	-1744
▁동시에	-1745
어난	-1746
▁전기	-1747
▁웃	-1748
어가	-1749
▁움직	-1750
권을	-1751
▁같습니다	-1752
ia	-1753
24	-1754
▁가능합니다	-1755
퓨터	-1756
▁핵심	-1757
▁싸	-1758
▁&	-1759
대학	-1760
▁우리의	-1761
레스	-1762
▁뭐	-1763
▁제시	-1764
▁격	-1765
▁이상의	-1766
점이	-1767
▁제거	-1768
만의	-1769
도는	-1770
카지노	-1771
▁대구	-1772
▁컬	-1773
▁분위	-1774
▁프리	-1775
▁최초	-1776
▁X	-1777
프로	-1778
▁2022	-1779
▁외국	-1780
▁간단	-1781
다운	-1782
▁사례	-1783
▁통합	-1784
이란	-1785
▁아침	-1786
art	-1787
▁,	-1788
▁레이	-1789
▁바라	-1790
▁·	-1791
보는	-1792
▁이루어	-1793
▁유럽	-1794
▁St	-1795
▁특정	-1796
▁평균	-1797
▁역할을	-1798
▁워	-1799
▁시즌	-1800
상품	-1801
▁케이	-1802
▁일을	-1803
13	-1804
▁과거	-1805
km	-1806
가가	-1807
▁전시	-1808
▁반응	-1809
18	-1810
이스	-1811
성에	-1812
www	-1813
▁입력	-1814
▁내려	-1815
회는	-1816
오는	-1817
our	-1818
▁사용하는	-1819
▁지급	-1820
▁아니다	-1821
▁오전	-1822
▁보기	-1823
▁각각	-1824
▁pro	-1825
전자	-1826
▁오래	-1827
▁주차	-1828
ith	-1829
▁상대	-1830
▁참가	-1831
었고	-1832
▁문제를	-1833
▁모습을	-1834
▁자주	-1835
▁숙박	-1836
▁기다	-1837
케팅	-1838
▁중앙	-1839
▁같다	-1840
▁기능을	-1841
23	-1842
▁흥	-1843
ort	-1844
▁2016	-1845
▁보유	-1846
드리	-1847
라운	-1848
-3	-1849
더라도	-1850
업을	-1851
▁요금	-1852
▁도입	-1853
▁섬	-1854
▁체험	-1855
▁전통	-1856
▁감염	-1857
단체	-1858
▁촉	-1859
▁빈	-1860
▁싶은	-1861
부를	-1862
▁공연	-1863
구요	-1864
이자	-1865
▁말을	-1866
oc	-1867
▁과학	-1868
▁on	-1869
리즈	-1870
구를	-1871
ure	-1872
▁대해서	-1873
ub	-1874
▁순간	-1875
▁멀	-1876
▁방향	-1877
▁단순	-1878
▁영국	-1879
▁재미	-1880
▁매일	-1881
▁지적	-1882
▁우수	-1883
▁직원	-1884
▁나온	-1885
▁페이	-1886
어야	-1887
신문	-1888
▁부모	-1889
▁그냥	-1890
ind	-1891
▁카드	-1892
자들의	-1893
▁혁신	-1894
▁장소	-1895
▁빌	-1896
▁제대로	-1897
으니	-1898
▁결혼	-1899
▁선보	-1900
▁언론	-1901
방법	-1902
▁마사지	-1903
▁종류	-1904
▁찍	-1905
▁Ex	-1906
▁공공	-1907
▁맥	-1908
는데요	-1909
▁냉	-1910
▁프로젝트	-1911
정에	-1912
비를	-1913
▁완료	-1914
▁되었다	-1915
▁교수	-1916
임을	-1917
??	-1918
▁is	-1919
▁통한	-1920
▁대한민국	-1921
▁비즈	-1922
▁대신	-1923
BS	-1924
▁얼마나	-1925
ess	-1926
함을	-1927
16	-1928
▁할인	-1929
▁위원	-1930
▁드라마	-1931
▁완벽	-1932
▁그룹	-1933
▁원하는	-1934
년간	-1935
드시	-1936
훈련	-1937
▁홍보	-1938
TV	-1939
들에	-1940
▁청소년	-1941
▁26	-1942
그룹	-1943
▁만드는	-1944
ak	-1945
▁주식	-1946
▁다운로드	-1947
이션	-1948
▁매출	-1949
▁방법을	-1950
▁27	-1951
▁겪	-1952
이지만	-1953
료를	-1954
~~	-1955
▁내부	-1956
▁최종	-1957
▁협력	-1958
▁궁금	-1959
리카	-1960
25	-1961
▁앞서	-1962
▁+	-1963
▁st	-1964
ist	-1965
▁여름	-1966
▁슈	-1967
▁전환	-1968
▁그대로	-1969
상에	-1970
지지	-1971
▁드러	-1972
대가	-1973
co	-1974
▁어려운	-1975
이버	-1976
▁28	-1977
스러운	-1978
학생	-1979
▁유형	-1980
ect	-1981
▁컴퓨터	-1982
▁바람	-1983
▁좌	-1984
지의	-1985
불어	-1986
▁관계자는	-1987
▁접근	-1988
▁빛	-1989
제가	-1990
ant	-1991
습니까	-1992
아서	-1993
▁청년	-1994
되면	-1995
기자	-1996
▁제외	-1997
▁다음과	-1998
카오	-1999
▁보장	-2000
▁건설	-2001
▁구입	-2002
어도	-2003
1.	-2004
▁덕	-2005
▁탐	-2006
세계	-2007
자들은	-2008
▁됐다	-2009
14	-2010
▁전했다	-2011
▁등장	-2012
카라	-2013
▁사회적	-2014
추천	-2015
냈다	-2016
▁지정	-2017
▁담당	-2018
▁정도로	-2019
▁신규	-2020
와의	-2021
트워크	-2022
▁촬영	-2023
겠다는	-2024
거운	-2025
▁각종	-2026
증을	-2027
링크	-2028
뮤니	-2029
이라며	-2030
카드	-2031
▁실행	-2032
▁위해서는	-2033
▁내용을	-2034
NS	-2035
영상	-2036
량을	-2037
▁기획	-2038
▁달러	-2039
도시	-2040
▁하며	-2041
▁실제로	-2042
정은	-2043
▁왔	-2044
▁걱	-2045
▁불법	-2046
▁스스로	-2047
▁푸	-2048
▁정의	-2049
▁해서	-2050
▁신경	-2051
내는	-2052
▁망	-2053
▁60	-2054
200	-2055
▁주는	-2056
▁퇴	-2057
▁학습	-2058
아가	-2059
▁영업	-2060
▁홈페이지	-2061
▁혜택	-2062
하자	-2063
▁그것은	-2064
제품	-2065
회사	-2066
▁돼	-2067
ps	-2068
ine	-2069
식이	-2070
▁벗	-2071
▁라인	-2072
▁인한	-2073
▁이곳	-2074
▁않는다	-2075
원에서	-2076
려면	-2077
▁신뢰	-2078
▁느끼	-2079
님이	-2080
산을	-2081
▁사무	-2082
내용	-2083
▁우려	-2084
▁~	-2085
안전	-2086
▁등으로	-2087
▁사람은	-2088
▁설계	-2089
▁다만	-2090
▁사용하여	-2091
▁조성	-2092
▁차지	-2093
▁행동	-2094
학과	-2095
만남	-2096
▁동일	-2097
으로서	-2098
▁조선	-2099
▁혹은	-2100
연합	-2101
으로는	-2102
문을	-2103
▁여자	-2104
▁요즘	-2105
▁예술	-2106
위에	-2107
시켜	-2108
▁29	-2109
▁기념	-2110
.3	-2111
했지만	-2112
▁by	-2113
▁뜨	-2114
▁반드시	-2115
▁부탁	-2116
▁행정	-2117
▁얘	-2118
17	-2119
▁달리	-2120
▁수상	-2121
▁없었다	-2122
▁바탕	-2123
▁강력	-2124
up	-2125
▁이내	-2126
금융	-2127
▁곧	-2128
▁여전히	-2129
치고	-2130
▁페이지	-2131
▁가정	-2132
▁우리나라	-2133
▁주택	-2134
▁아마	-2135
▁보인다	-2136
물의	-2137
하다고	-2138
▁좋습니다	-2139
▁정리	-2140
있다	-2141
세를	-2142
관계	-2143
▁주목	-2144
라며	-2145
▁힘들	-2146
▁스타일	-2147
줍니다	-2148
▁받는	-2149
▁이야기를	-2150
nd	-2151
▁관련된	-2152
▁효율	-2153
▁넓	-2154
se	-2155
▁보도	-2156
▁더불어	-2157
▁리뷰	-2158
전재	-2159
하던	-2160
우스	-2161
운동	-2162
’,	-2163
소개	-2164
▁희망	-2165
사에	-2166
통신	-2167
▁목적	-2168
▁부동산	-2169
▁폴	-2170
▁커피	-2171
▁화면	-2172
▁신용	-2173
▁그들은	-2174
▁아파트	-2175
▁©	-2176
기와	-2177
▁마을	-2178
▁넘어	-2179
분이	-2180
▁들어가	-2181
▁이것은	-2182
▁경우에는	-2183
리로	-2184
▁제품을	-2185
셔서	-2186
▁지도	-2187
▁개념	-2188
▁설립	-2189
▁중에	-2190
였습니다	-2191
▁제출	-2192
▁의원	-2193
▁있어요	-2194
▁The	-2195
했으며	-2196
▁종합	-2197
▁보안	-2198
위한	-2199
년부터	-2200
적이고	-2201
▁노래	-2202
갔다	-2203
▁2015	-2204
했을	-2205
개를	-2206
ert	-2207
▁자격	-2208
▁비즈니스	-2209
▁하는데	-2210
)||	-2211
ud	-2212
▁필수	-2213
▁달라	-2214
▁모르	-2215
녕하세요	-2216
▁뇌	-2217
라면	-2218
▁잃	-2219
▁질병	-2220
▁갖고	-2221
▁비슷	-2222
같은	-2223
▁수있는	-2224
▁▶	-2225
▁영어	-2226
드로	-2227
▁저장	-2228
▁소프트	-2229
▁5.	-2230
▁성과	-2231
가요	-2232
▁시청	-2233
▁스토	-2234
▁을	-2235
▁애플	-2236
▁옵션	-2237
▁마케팅	-2238
투자	-2239
▁경우가	-2240
▁목소	-2241
▁주소	-2242
▁못한	-2243
화된	-2244
▁두고	-2245
all	-2246
▁요소	-2247
린다	-2248
▁찬	-2249
많은	-2250
▁선물	-2251
▁있다면	-2252
ard	-2253
▁교통	-2254
하다는	-2255
활동	-2256
▁금액	-2257
▁무단전재	-2258
▁땅	-2259
▁전재	-2260
아이	-2261
주시	-2262
보호	-2263
세대	-2264
▁경기도	-2265
▁위해서	-2266
▁나가	-2267
주세요	-2268
▁아버	-2269
right	-2270
ST	-2271
인증	-2272
▁자신이	-2273
지로	-2274
메일	-2275
▁러시아	-2276
▁비밀	-2277
▁선거	-2278
▁헌	-2279
▁멋	-2280
▁현장	-2281
차를	-2282
-10	-2283
▁말이	-2284
▁이하	-2285
▁졸	-2286
ack	-2287
▁있던	-2288
ial	-2289
▁해도	-2290
BC	-2291
하시면	-2292
▁주의	-2293
▁반영	-2294
▁배경	-2295
▁출연	-2296
▁납	-2297
AP	-2298
▁되지	-2299
▁인사	-2300
▁잘못	-2301
▁은행	-2302
▁하여	-2303
▁회복	-2304
▁메뉴	-2305
수록	-2306
주고	-2307
▁PC	-2308
▁가능성이	-2309
ont	-2310
▁저렴	-2311
▁인도	-2312
▁택	-2313
▁품질	-2314
조건	-2315
88	-2316
▁술	-2317
중에	-2318
▁블랙	-2319
주택	-2320
▁분명	-2321
부가	-2322
뿐만	-2323
▁셀	-2324
▁사람들은	-2325
▁불편	-2326
▁히	-2327
▁즐길	-2328
이었	-2329
▁하기	-2330
간의	-2331
회에서	-2332
성은	-2333
▁with	-2334
▁남자	-2335
▁빠른	-2336
▁파악	-2337
▁이뤄	-2338
▁LG	-2339
계획	-2340
장과	-2341
▁Ch	-2342
▁계획이다	-2343
가의	-2344
▁센터	-2345
▁빠르게	-2346
▁영역	-2347
하기도	-2348
ions	-2349
▁사용자	-2350
▁도착	-2351
▁에너지	-2352
▁나와	-2353
릭터	-2354
▁가는	-2355
▁그가	-2356
▁아시아	-2357
▁마음을	-2358
시키는	-2359
출장마사지	-2360
ang	-2361
보다는	-2362
플레이	-2363
관은	-2364
▁없어	-2365
▁개의	-2366
▁콜	-2367
관을	-2368
eb	-2369
▁i	-2370
▁의사	-2371
약을	-2372
▁조회	-2373
민주	-2374
ook	-2375
erv	-2376
▁겨울	-2377
▁때는	-2378
▁프랑	-2379
▁혐	-2380
▁위치한	-2381
등학교	-2382
▁습	-2383
▁편안	-2384
▁제안	-2385
▁확실	-2386
▁오픈	-2387
▁봐	-2388
▁언급	-2389
▁진단	-2390
▁쇼핑	-2391
▁중심으로	-2392
▁장기	-2393
▁만에	-2394
▁활동을	-2395
▁대체	-2396
ra	-2397
ill	-2398
병원	-2399
스팅	-2400
▁교환	-2401
▁괜	-2402
ive	-2403
▁끊	-2404
▁외부	-2405
▁수정	-2406
하고자	-2407
▁단체	-2408
▁되면	-2409
집니다	-2410
▁수술	-2411
▁인식	-2412
▁사라	-2413
▁채널	-2414
▁비해	-2415
▁네트워크	-2416
하겠다	-2417
▁하나의	-2418
감이	-2419
▁수출	-2420
▁젊	-2421
▁향상	-2422
▁커뮤니	-2423
▁Al	-2424
씨는	-2425
▁한다는	-2426
자리	-2427
▁높아	-2428
규모	-2429
구하고	-2430
▁보니	-2431
▁딸	-2432
▁낙	-2433
신청	-2434
▁전쟁	-2435
▁주로	-2436
▁수요	-2437
▁관심을	-2438
▁베팅	-2439
전문	-2440
▁업계	-2441
▁맞는	-2442
▁테스트	-2443
일보	-2444
번째	-2445
▁엄마	-2446
nt	-2447
▁억	-2448
▁사망	-2449
우는	-2450
▁특별한	-2451
are	-2452
▁나누	-2453
▁되었	-2454
▁독일	-2455
▁자세한	-2456
▁그리	-2457
▁묻	-2458
ev	-2459
▁탑	-2460
▁나무	-2461
▁삭	-2462
▁성능	-2463
▁니	-2464
▁로그	-2465
▁첨	-2466
▁모양	-2467
▁위하여	-2468
▁돈을	-2469
해도	-2470
▁선생	-2471
▁느껴	-2472
스코	-2473
of	-2474
ᄒᄒ	-2475
하시는	-2476
▁수집	-2477
▁일반적으로	-2478
▁예수	-2479
▁완성	-2480
▁검사	-2481
▁보이는	-2482
▁사전	-2483
회에	-2484
▁검토	-2485
▁인생	-2486
▁https	-2487
▁블로그	-2488
인과	-2489
▁진짜	-2490
리어	-2491
ment	-2492
▁도움을	-2493
▁확장	-2494
▁건축	-2495
▁IT	-2496
▁징	-2497
▁캐릭터	-2498
▁앉	-2499
▁소통	-2500
▁지지	-2501
▁메시	-2502
▁이미지	-2503
▁이와	-2504
▁엘	-2505
상은	-2506
▁솔루	-2507
▁그럼	-2508
▁..	-2509
해요	-2510
하나	-2511
▁감사합니다	-2512
치가	-2513
달러	-2514
▁스마트폰	-2515
▁1,	-2516
▁것이라고	-2517
▁대전	-2518
▁오른	-2519
겠지만	-2520
▁보통	-2521
국의	-2522
▁봄	-2523
▁바탕으로	-2524
심을	-2525
▁이유는	-2526
▁필요가	-2527
▁하이	-2528
▁활성화	-2529
▁흡	-2530
▁옆	-2531
절한	-2532
으로부터	-2533
▁죄	-2534
리와	-2535
▁결과를	-2536
도에	-2537
관이	-2538
먼트	-2539
▁본문	-2540
▁회의	-2541
▁대중	-2542
▁전혀	-2543
▁타이	-2544
▁시리즈	-2545
▁통과	-2546
▁쪽	-2547
▁취소	-2548
pt	-2549
▁실시간	-2550
▁확인할	-2551
▁써	-2552
500	-2553
▁논의	-2554
방송	-2555
▁훨	-2556
점은	-2557
메라	-2558
▁엄청	-2559
▁옷	-2560
▁기초	-2561
자에	-2562
▁찾을	-2563
후기	-2564
▁수가	-2565
일에	-2566
▁고양	-2567
▁70	-2568
롯데	-2569
▁SK	-2570
▁나서	-2571
▁완전히	-2572
▁닫	-2573
성의	-2574
▁편집	-2575
겠다고	-2576
▁설명했다	-2577
▁안에	-2578
나무	-2579
▁당신이	-2580
one	-2581
ER	-2582
▁쌓	-2583
▁통신	-2584
▁뿌	-2585
과학	-2586
하려면	-2587
▁짧	-2588
▁법률	-2589
보면	-2590
라스	-2591
▁경험을	-2592
가격	-2593
▁훨씬	-2594
량이	-2595
▁미리	-2596
▁예를	-2597
▁이용할	-2598
====	-2599
▁없을	-2600
▁카페	-2601
▁과정에서	-2602
▁검찰	-2603
▁일정	-2604
▁생성	-2605
두고	-2606
분을	-2607
▁수입	-2608
일이	-2609
▁아동	-2610
%)	-2611
▁가득	-2612
르기	-2613
더니	-2614
▁있는지	-2615
▁본격	-2616
하기로	-2617
했는데	-2618
니아	-2619
ass	-2620
▁be	-2621
문의	-2622
ice	-2623
분에	-2624
▁따뜻	-2625
▁중인	-2626
▁먹튀	-2627
▁명의	-2628
▁했습니다	-2629
시스템	-2630
▁소프트웨어	-2631
한다면	-2632
▁당신의	-2633
자기	-2634
▁대부분의	-2635
▁홀	-2636
-4	-2637
이라면	-2638
▁일상	-2639
▁기술을	-2640
▁딱	-2641
히려	-2642
▁편리	-2643
화가	-2644
구가	-2645
▁이용해	-2646
▁지켜	-2647
▁휴대	-2648
▁빼	-2649
사로	-2650
만을	-2651
▁전반	-2652
만한	-2653
경기	-2654
튜브	-2655
▁에어	-2656
1)	-2657
회장	-2658
▁신체	-2659
og	-2660
▁속에서	-2661
정의	-2662
▁2014	-2663
품을	-2664
이즈	-2665
▁고용	-2666
▁생각이	-2667
▁강남	-2668
▁구체	-2669
▁는	-2670
▁불가	-2671
▁심각	-2672
▁형성	-2673
▁것에	-2674
IN	-2675
▁예산	-2676
여행	-2677
▁자세히	-2678
▁아름다운	-2679
ip	-2680
:0	-2681
으로도	-2682
▁게임을	-2683
▁exam	-2684
▁샤	-2685
▁대형	-2686
▁싱	-2687
▁확산	-2688
▁100%	-2689
▁곡	-2690
▁동물	-2691
함으로써	-2692
▁그들의	-2693
별로	-2694
▁약속	-2695
▁고급	-2696
▁향후	-2697
장애	-2698
법을	-2699
▁맺	-2700
▁비판	-2701
▁일으	-2702
cm	-2703
▁섭	-2704
▁화장	-2705
▁도전	-2706
▁받았다	-2707
스럽게	-2708
▁대하여	-2709
리기	-2710
▁전용	-2711
:3	-2712
▁인터뷰	-2713
▁됐	-2714
▁아닙	-2715
더라	-2716
27	-2717
▁2023	-2718
▁「	-2719
▁이끌	-2720
부의	-2721
대는	-2722
ON	-2723
▁조합	-2724
ep	-2725
▁나의	-2726
▁반면	-2727
▁걱정	-2728
ᅲᅲ	-2729
보니	-2730
.4	-2731
했다는	-2732
이너	-2733
▁불구하고	-2734
▁오히려	-2735
▁주인	-2736
리그	-2737
90	-2738
대비	-2739
26	-2740
rom	-2741
▁것처럼	-2742
과는	-2743
▁부정	-2744
▁링크	-2745
▁AI	-2746
어진	-2747
▁착용	-2748
▁파트	-2749
▁최저	-2750
▁하나님의	-2751
▁오랜	-2752
▁현지	-2753
28	-2754
드가	-2755
▁광주	-2756
▁소속	-2757
.)	-2758
▁중소	-2759
조사	-2760
▁프로그램을	-2761
▁시도	-2762
▁기여	-2763
▁옥	-2764
▁수많은	-2765
▁are	-2766
무원	-2767
▁있지	-2768
구의	-2769
▁훈련	-2770
▁마찬	-2771
사고	-2772
▁네이버	-2773
▁이사	-2774
▁적합	-2775
우리	-2776
기고	-2777
▁『	-2778
▁되었습니다	-2779
▁도와	-2780
▁예측	-2781
▁무슨	-2782
▁중단	-2783
▁창업	-2784
▁소유	-2785
▁벽	-2786
이면	-2787
체를	-2788
▁마찬가지	-2789
AR	-2790
▁꾸준	-2791
▁그동안	-2792
▁거리	-2793
▁받았	-2794
act	-2795
소득	-2796
제는	-2797
▁괜찮	-2798
든지	-2799
자동	-2800
▁80	-2801
▁일단	-2802
▁무료로	-2803
▁k	-2804
실을	-2805
▁논란	-2806
▁흘	-2807
▁제공하고	-2808
▁미디어	-2809
해주세요	-2810
▁이메일	-2811
데이	-2812
▁케	-2813
ED	-2814
▁일어나	-2815
이번	-2816
▁늦	-2817
▁다가	-2818
▁사람의	-2819
iz	-2820
▁글을	-2821
▁개정	-2822
▁안녕하세요	-2823
ust	-2824
▁힘을	-2825
▁웨	-2826
▁언어	-2827
▁사실을	-2828
마을	-2829
▁부드	-2830
단계	-2831
▁기회를	-2832
▁근무	-2833
▁측면	-2834
등록	-2835
▁반대	-2836
▁사는	-2837
▁않다	-2838
▁가슴	-2839
▁입장	-2840
해야합니다	-2841
ain	-2842
▁정기	-2843
▁하늘	-2844
age	-2845
보세요	-2846
▁제기	-2847
▁눈에	-2848
▁스페	-2849
▁버전	-2850
닷컴	-2851
2)	-2852
▁조정	-2853
▁카카오	-2854
▁후기	-2855
▁내용은	-2856
느냐	-2857
▁하락	-2858
▁분류	-2859
▁식사	-2860
▁덧	-2861
ong	-2862
▁체결	-2863
▁저녁	-2864
▁지금까지	-2865
점에서	-2866
군요	-2867
▁자랑	-2868
▁반복	-2869
▁당연	-2870
▁당신은	-2871
▁그리스	-2872
적을	-2873
▁출발	-2874
단의	-2875
▁데이트	-2876
▁아닙니다	-2877
▁뿐만	-2878
▁31	-2879
▁최적	-2880
▁컬러	-2881
▁근로	-2882
▁불가능	-2883
년도	-2884
▁불안	-2885
▁(0	-2886
55	-2887
AN	-2888
▁유통	-2889
▁젊은	-2890
▁옮	-2891
▁못하고	-2892
Fi	-2893
▁하다	-2894
니터	-2895
:4	-2896
햇살	-2897
▁깔	-2898
▁독립	-2899
▁관심이	-2900
▁남성	-2901
원으로	-2902
▁맞춤	-2903
▁진출	-2904
▁낮은	-2905
▁사업을	-2906
스에	-2907
드의	-2908
▁라이브	-2909
그래	-2910
▁수영	-2911
영화	-2912
▁2013	-2913
▁Pro	-2914
▁지식	-2915
▁암호	-2916
▁자녀	-2917
트로	-2918
▁영양	-2919
▁갤	-2920
무리	-2921
▁던	-2922
협회	-2923
▁바다	-2924
▁쓸	-2925
상담	-2926
▁보관	-2927
쳤다	-2928
평가	-2929
단을	-2930
▁초기	-2931
인터	-2932
▁거쳐	-2933
▁축구	-2934
▁소비자	-2935
심히	-2936
▁세상	-2937
▁시각	-2938
▁위에	-2939
▁메이	-2940
29	-2941
▁출신	-2942
예술	-2943
▁채용	-2944
▁겁	-2945
만에	-2946
저작권	-2947
▁버튼	-2948
▁수는	-2949
▁긍	-2950
▁포인트	-2951
mm	-2952
▁고통	-2953
▁끼	-2954
▁균	-2955
▁만약	-2956
ast	-2957
.9	-2958
▁기계	-2959
반기	-2960
ark	-2961
▁시절	-2962
▁식품	-2963
▁제목	-2964
▁만들기	-2965
▁잊	-2966
▁장애인	-2967
▁남아	-2968
▁벤	-2969
제의	-2970
받는	-2971
▁방식으로	-2972
▁대화	-2973
▁서울시	-2974
▁인공	-2975
님께	-2976
의회	-2977
▁작가	-2978
만이	-2979
%,	-2980
하였습니다	-2981
▁Wi	-2982
▁다르	-2983
▁롯데	-2984
▁생각을	-2985
▁하면서	-2986
▁빨리	-2987
ob	-2988
었는데	-2989
이블	-2990
▁수업	-2991
▁실패	-2992
▁없고	-2993
out	-2994
▁서버	-2995
ov	-2996
케이션	-2997
65	-2998
▁마치	-2999
▁삶을	-3000
▁상호	-3001
▁시대	-3002
▁게시물	-3003
▁과정을	-3004
▁뒷	-3005
어드	-3006
OS	-3007
▁베이	-3008
▁통해서	-3009
당한	-3010
▁훌	-3011
▁실험	-3012
본부	-3013
리오	-3014
▁졸업	-3015
▁후에	-3016
▁사람을	-3017
▁절대	-3018
▁달성	-3019
위는	-3020
▁코스	-3021
장으로	-3022
▁강조했다	-3023
되면서	-3024
공부	-3025
위가	-3026
▁밖	-3027
AT	-3028
▁있었습니다	-3029
ᄏᄏᄏᄏ	-3030
이의	-3031
▁카메라	-3032
▁데이터를	-3033
답니다	-3034
▁않으면	-3035
이라도	-3036
-7	-3037
▁것과	-3038
▁를	-3039
▁※	-3040
▁까	-3041
▁보건	-3042
ml	-3043
예요	-3044
금이	-3045
▁돕	-3046
받은	-3047
▁아프	-3048
▁지키	-3049
▁an	-3050
위로	-3051
▁동의	-3052
▁사진을	-3053
▁근처	-3054
▁센	-3055
채팅	-3056
▁봤	-3057
▁스테	-3058
▁허용	-3059
▁혼자	-3060
ide	-3061
▁위반	-3062
▁계산	-3063
▁능력	-3064
▁PD	-3065
공사	-3066
스와	-3067
▁구글	-3068
▁비디오	-3069
▁스크	-3070
질을	-3071
▁작동	-3072
▁있으므로	-3073
가입	-3074
▁국민의	-3075
아야	-3076
관광	-3077
▁건물	-3078
랐다	-3079
▁대표는	-3080
가기	-3081
▁질환	-3082
▁연속	-3083
리티	-3084
▁때문입니다	-3085
림픽	-3086
과정	-3087
준다	-3088
▁충분히	-3089
▁방지	-3090
▁한다고	-3091
에만	-3092
로를	-3093
.7	-3094
▁즉시	-3095
▁의한	-3096
▁발행	-3097
▁그것을	-3098
▁평화	-3099
▁완전	-3100
▁골프	-3101
▁드라이	-3102
훼손	-3103
__	-3104
신을	-3105
▁전해	-3106
▁필요합니다	-3107
▁점을	-3108
▁자신을	-3109
▁미국의	-3110
▁커뮤니티	-3111
같이	-3112
▁중에서	-3113
▁보증	-3114
··	-3115
▁민간	-3116
▁매력	-3117
▁변호	-3118
어는	-3119
년을	-3120
▁모집	-3121
▁나오는	-3122
▁찾는	-3123
▁실천	-3124
셨습니다	-3125
▁500	-3126
able	-3127
하라	-3128
▁가르	-3129
▁지하	-3130
▁있으면	-3131
들로	-3132
▁값	-3133
교통	-3134
▁좋아하는	-3135
-5	-3136
▁괴	-3137
▁모니터	-3138
가고	-3139
▁측정	-3140
▁의무	-3141
▁나이	-3142
▁빅	-3143
기준	-3144
▁남편	-3145
▁소득	-3146
▁주고	-3147
▁틀	-3148
▁여기에	-3149
▁많다	-3150
▁둘러	-3151
▁토론	-3152
멤버	-3153
▁지속적으로	-3154
티브	-3155
기사	-3156
▁wh	-3157
▁그때	-3158
으면서	-3159
개인	-3160
▁이름을	-3161
(3	-3162
지요	-3163
▁삭제	-3164
▁•	-3165
발전	-3166
▁목록	-3167
배송	-3168
EC	-3169
저작권자	-3170
▁명예	-3171
터리	-3172
트는	-3173
▁섹	-3174
▁포함한	-3175
▁취업	-3176
▁누구나	-3177
년대	-3178
▁《	-3179
▁방법은	-3180
럼프	-3181
▁차별	-3182
시킬	-3183
100	-3184
▁얻을	-3185
▁체크인	-3186
▁가능하다	-3187
고를	-3188
▁○	-3189
란다	-3190
▁가상	-3191
도와	-3192
사람	-3193
▁하게	-3194
판매	-3195
▁인상	-3196
사랑	-3197
건설	-3198
▁가을	-3199
▁어머니	-3200
▁유일	-3201
▁연합	-3202
▁정확한	-3203
▁블록	-3204
려는	-3205
▁있어야	-3206
▁표준	-3207
▁2012	-3208
▁매년	-3209
▁있으니	-3210
율이	-3211
▁지난달	-3212
경영	-3213
어들	-3214
ee	-3215
▁뮤	-3216
▁그래도	-3217
▁완벽한	-3218
프라	-3219
▁강력한	-3220
▁헬	-3221
▁교회	-3222
▁지불	-3223
▁아이템	-3224
노동	-3225
▁대해서는	-3226
버전	-3227
-20	-3228
▁나를	-3229
▁기준으로	-3230
하의	-3231
저는	-3232
에게는	-3233
지와	-3234
:5	-3235
되기	-3236
▁다니	-3237
해진	-3238
▁기반으로	-3239
증권	-3240
식품	-3241
▁효과를	-3242
▁도서	-3243
▁프리미	-3244
du	-3245
▁주세요	-3246
▁파트너	-3247
▁운전	-3248
▁긍정	-3249
▁속에	-3250
▁풍부	-3251
▁이익	-3252
▁획	-3253
▁못하는	-3254
▁문제는	-3255
-6	-3256
.6	-3257
▁열심히	-3258
▁300	-3259
.8	-3260
▁맞춰	-3261
▁프랑스	-3262
▁좋다	-3263
▁밥	-3264
재단	-3265
▁관계를	-3266
▁도박	-3267
ik	-3268
ews	-3269
업계	-3270
▁다이	-3271
▁범죄	-3272
코리아	-3273
▁원래	-3274
▁걷	-3275
▁90	-3276
▁상황에서	-3277
씨가	-3278
월부터	-3279
▁복잡	-3280
내고	-3281
▁마스크	-3282
건강	-3283
▁조절	-3284
금은	-3285
▁맨	-3286
▁보이	-3287
격을	-3288
end	-3289
▁안전한	-3290
▁똑	-3291
이하	-3292
▁덧붙	-3293
분기	-3294
▁먹고	-3295
▁유리	-3296
▁충전	-3297
ost	-3298
▁유튜브	-3299
▁국회	-3300
pp	-3301
릅니다	-3302
교회	-3303
재인	-3304
중한	-3305
▁클래	-3306
▁있음	-3307
▁적이	-3308
▁환불	-3309
▁노출	-3310
▁문서	-3311
▁파워	-3312
▁확진	-3313
▁비롯한	-3314
▁부과	-3315
▁구현	-3316
▁펼쳐	-3317
에선	-3318
▁있었던	-3319
▁핸	-3320
비가	-3321
▁정부가	-3322
▁02	-3323
동물	-3324
▁Th	-3325
▁직장	-3326
▁시작했다	-3327
▁절차	-3328
▁올바	-3329
▁Z	-3330
햇살론	-3331
▁최선을	-3332
▁마무리	-3333
▁이유로	-3334
▁중간	-3335
ile	-3336
▁삶의	-3337
▁우승	-3338
▁드립니다	-3339
▁한국의	-3340
▁타고	-3341
▁바카라	-3342
▁꺼	-3343
이익	-3344
▁번역	-3345
▁없다는	-3346
트남	-3347
른다	-3348
▁그녀의	-3349
하려는	-3350
▁your	-3351
IC	-3352
▁강한	-3353
2019	-3354
▁분들이	-3355
▁강의	-3356
▁항목	-3357
▁둔	-3358
OR	-3359
▁내년	-3360
정도	-3361
AC	-3362
대회	-3363
',	-3364
▁상황을	-3365
▁정부의	-3366
체의	-3367
▁검증	-3368
ell	-3369
▁쓴	-3370
▁부여	-3371
주를	-3372
IT	-3373
스포츠	-3374
피스	-3375
▁ex	-3376
▁통증	-3377
▁공정	-3378
for	-3379
▁보고서	-3380
▁미니	-3381
부에	-3382
▁같아요	-3383
▁고객센터	-3384
IS	-3385
▁섭취	-3386
구나	-3387
▁동반	-3388
▁자본	-3389
▁상세	-3390
▁떠나	-3391
.(	-3392
아웃	-3393
ry	-3394
작용	-3395
치료	-3396
cc	-3397
ld	-3398
▁생명	-3399
▁필요하다	-3400
▁복지	-3401
▁점검	-3402
ear	-3403
▁연출	-3404
▁가까운	-3405
다른	-3406
▁않도록	-3407
▁연기	-3408
▁작용	-3409
▁앞에	-3410
ows	-3411
이사	-3412
회생	-3413
▁새로	-3414
▁리더	-3415
▁US	-3416
졌습니다	-3417
▁비트	-3418
▁해석	-3419
리적	-3420
▁로그인	-3421
▁크리스	-3422
umps	-3423
▁바꾸	-3424
셔야	-3425
이야	-3426
ib	-3427
테크	-3428
화폐	-3429
▁많아	-3430
국제	-3431
지방	-3432
중앙	-3433
▁자극	-3434
비용	-3435
▁사이즈	-3436
▁유용	-3437
AS	-3438
▁결합	-3439
▁지원을	-3440
분석	-3441
어로	-3442
거든	-3443
소에	-3444
테고	-3445
▁없음	-3446
▁환자	-3447
경을	-3448
섰다	-3449
▁깊은	-3450
▁슬롯	-3451
EN	-3452
▁사람들	-3453
원과	-3454
면을	-3455
▁솔루션	-3456
▁흐름	-3457
▁나타나	-3458
▁수밖에	-3459
▁규정	-3460
▁유명한	-3461
▁종교	-3462
▁근거	-3463
리트	-3464
▁오늘은	-3465
였던	-3466
▁혐의	-3467
▁페이스	-3468
▁공모	-3469
▁직업	-3470
▁주제	-3471
▁갖추	-3472
▁블루	-3473
▁의견을	-3474
국민	-3475
▁참조	-3476
-8	-3477
▁즐기	-3478
▁패션	-3479
port	-3480
▁손을	-3481
구조	-3482
▁정부는	-3483
한테	-3484
▁제도	-3485
ue	-3486
식으로	-3487
▁멤버	-3488
▁불러	-3489
▁부문	-3490
▁제일	-3491
침해	-3492
▁잠시	-3493
▁책을	-3494
▁점점	-3495
▁뭔	-3496
체가	-3497
▁규제	-3498
33	-3499
ff	-3500
▁흥미	-3501
겼다	-3502
▁신속	-3503
이상	-3504
월에	-3505
소가	-3506
대상	-3507
▁후원	-3508
최신	-3509
건을	-3510
▁든	-3511
▁개별	-3512
5%	-3513
▁거주	-3514
▁아이디어	-3515
▁도구	-3516
▁말고	-3517
▁여기서	-3518
▁새롭게	-3519
▁특수	-3520
▁웹사이트	-3521
▁자산	-3522
스토랑	-3523
▁이번에	-3524
eg	-3525
▁뉴욕	-3526
▁재생	-3527
입니까	-3528
ng	-3529
▁요리	-3530
시를	-3531
▁의원은	-3532
체육	-3533
▁알게	-3534
▁밑	-3535
ies	-3536
이기도	-3537
특별	-3538
▁체계	-3539
▁겸	-3540
▁회장	-3541
세가	-3542
▁that	-3543
▁유사	-3544
/0	-3545
▁원칙	-3546
▁렌	-3547
▁내용의	-3548
▁알아보	-3549
▁비슷한	-3550
▁$	-3551
우고	-3552
▁주시기	-3553
----------------	-3554
▁잇	-3555
자동차	-3556
▁지구	-3557
▁근육	-3558
안에	-3559
▁그녀는	-3560
지기	-3561
▁수수	-3562
▁사태	-3563
자치	-3564
▁짓	-3565
▁프로세	-3566
▁훌륭	-3567
▁발생할	-3568
▁굳	-3569
▁제휴	-3570
▁대책	-3571
듯이	-3572
▁작업을	-3573
▁극복	-3574
력과	-3575
조합	-3576
▁백신	-3577
라우드	-3578
▁그린	-3579
의료	-3580
▁실내	-3581
▁접수	-3582
2020	-3583
있게	-3584
▁동영상	-3585
▁거부	-3586
.10	-3587
▁종료	-3588
▁효과가	-3589
▁바뀌	-3590
경찰	-3591
▁장비	-3592
▁강원	-3593
님은	-3594
시스	-3595
▁성인	-3596
▁■	-3597
▁합의	-3598
행을	-3599
▁중이다	-3600
▁해주	-3601
▁발달	-3602
▁건강한	-3603
▁키워	-3604
▁com	-3605
▁도로	-3606
항공	-3607
▁국립	-3608
▁이들은	-3609
▁침대	-3610
지게	-3611
웠다	-3612
▁기울	-3613
▁원인	-3614
물은	-3615
▁먹는	-3616
▁2010	-3617
▁이론	-3618
았던	-3619
▁마음이	-3620
▁병원	-3621
코로나	-3622
▁유치	-3623
▁차이가	-3624
▁꼬	-3625
▁모두가	-3626
ite	-3627
▁캠페	-3628
유의	-3629
▁꽤	-3630
▁선발	-3631
가락	-3632
위의	-3633
학적	-3634
▁맞아	-3635
▁공항	-3636
▁취득	-3637
처리	-3638
치지	-3639
공간	-3640
▁주인공	-3641
▁월드	-3642
▁만들고	-3643
율을	-3644
▁트럼프	-3645
▁길을	-3646
▁태양	-3647
▁나타났다	-3648
oft	-3649
년까지	-3650
ES	-3651
opy	-3652
▁민주당	-3653
▁어떠	-3654
수로	-3655
▁재료	-3656
▁덜	-3657
▁qu	-3658
▁멈	-3659
▁때까지	-3660
가족	-3661
▁농업	-3662
▁밖에	-3663
ord	-3664
▁2000	-3665
▁올려	-3666
타이	-3667
▁비롯해	-3668
▁상품을	-3669
▁처음으로	-3670
리며	-3671
▁미술	-3672
▁사람들의	-3673
인들이	-3674
시민	-3675
▁사람들에게	-3676
▁확정	-3677
▁왔다	-3678
▁분쟁	-3679
ire	-3680
시킨	-3681
금액	-3682
봅니다	-3683
▁상당히	-3684
선거	-3685
▁주말	-3686
▁얘기	-3687
▁짜	-3688
지면	-3689
▁싶다	-3690
류를	-3691
아시아	-3692
▁접속	-3693
▁말한다	-3694
기능	-3695
시키고	-3696
▁SNS	-3697
▁간편	-3698
▁철저	-3699
▁위협	-3700
▁수사	-3701
▁스위	-3702
▁펀	-3703
ork	-3704
▁이탈	-3705
▁마음에	-3706
타민	-3707
점에	-3708
▁대통령은	-3709
▁휘	-3710
▁무선	-3711
▁소리	-3712
일리	-3713
▁지역의	-3714
▁좋을	-3715
▁아닐	-3716
주가	-3717
)'	-3718
▁기도	-3719
▁us	-3720
▁가치를	-3721
▁듣고	-3722
률이	-3723
▁저렴한	-3724
▁받으	-3725
버스	-3726
하겠습니다	-3727
▁특성	-3728
▁사이에	-3729
진을	-3730
사용	-3731
▁흑	-3732
?”	-3733
이에요	-3734
화에	-3735
▁토토	-3736
년이	-3737
▁하겠습니다	-3738
▁시스템을	-3739
▁장치	-3740
재를	-3741
44	-3742
받고	-3743
▁척	-3744
▁레스토랑	-3745
▁배치	-3746
운드	-3747
▁들고	-3748
▁)	-3749
▁결론	-3750
수도	-3751
정으로	-3752
지능	-3753
▁누군	-3754
▁깨끗	-3755
▁갑자기	-3756
.12	-3757
실에서	-3758
▁중요합니다	-3759
▁묘	-3760
▁아내	-3761
타임	-3762
형을	-3763
ID	-3764
▁꼽	-3765
상으로	-3766
▁했던	-3767
▁바닥	-3768
관련	-3769
▁꾸준히	-3770
▁걸쳐	-3771
▁앨	-3772
움이	-3773
조선	-3774
▁탁	-3775
▁불과	-3776
▁실현	-3777
▁재판	-3778
▁지금은	-3779
▁전투	-3780
님을	-3781
시다	-3782
▁기업의	-3783
▁인근	-3784
▁it	-3785
민주당	-3786
결과	-3787
99	-3788
길을	-3789
▁발생하는	-3790
관의	-3791
▁다이어	-3792
▁베트남	-3793
공원	-3794
음이	-3795
전거	-3796
EO	-3797
▁십	-3798
▁트렌	-3799
ere	-3800
▁생각합니다	-3801
▁현금	-3802
해를	-3803
전화	-3804
indows	-3805
▁연계	-3806
▁테이블	-3807
▁상황이	-3808
▁소설	-3809
등급	-3810
▁그들이	-3811
이용	-3812
▁만남	-3813
▁종종	-3814
▁%	-3815
▁의혹	-3816
데요	-3817
▁차단	-3818
▁자동으로	-3819
▁구독	-3820
▁텍	-3821
나다	-3822
▁1)	-3823
종의	-3824
사에서	-3825
▁생태	-3826
명은	-3827
▁분양	-3828
▁슈퍼	-3829
도서	-3830
명으로	-3831
▁카테고	-3832
▁쏟	-3833
▁보였다	-3834
진이	-3835
2018	-3836
▁오프	-3837
▁선호	-3838
일까	-3839
35	-3840
시가	-3841
▁보세요	-3842
▁느낄	-3843
트가	-3844
▁시장의	-3845
함이	-3846
▁`	-3847
조차	-3848
▁윈	-3849
▁머리	-3850
제도	-3851
31	-3852
▁프레	-3853
▁챙	-3854
왼쪽	-3855
▁동일한	-3856
▁pre	-3857
하니	-3858
▁의심	-3859
분의	-3860
▁에서	-3861
지면서	-3862
트의	-3863
▁밝혀	-3864
▁이웃	-3865
하려고	-3866
파크	-3867
▁최대한	-3868
▁싫	-3869
▁구분	-3870
▁r	-3871
▁숫	-3872
▁번호	-3873
ory	-3874
▁이슈	-3875
ult	-3876
IP	-3877
▁바란다	-3878
▁빠져	-3879
문에	-3880
▁짐	-3881
안내	-3882
ase	-3883
TS	-3884
estions	-3885
▁방역	-3886
▁물질	-3887
net	-3888
▁몸을	-3889
▁남북	-3890
▁고정	-3891
▁여유	-3892
▁인물	-3893
▁All	-3894
▁2011	-3895
▁안심	-3896
▁창출	-3897
▁달려	-3898
히는	-3899
▁어울	-3900
▁상황에	-3901
▁적절한	-3902
일은	-3903
▁민족	-3904
점으로	-3905
▁바이러스	-3906
▁굉	-3907
님께서	-3908
▁(0)||	-3909
▁외국인	-3910
하우	-3911
받을	-3912
▁조치	-3913
주민	-3914
었지만	-3915
선이	-3916
▁누가	-3917
▁35	-3918
▁완화	-3919
▁마이크	-3920
부모	-3921
▁굴	-3922
▁액세	-3923
명한	-3924
체인	-3925
▁패키	-3926
▁혈액	-3927
▁겁니다	-3928
▁포장	-3929
▁소식	-3930
▁주도	-3931
▁자료를	-3932
▁따로	-3933
▁차례	-3934
▁보조	-3935
▁인수	-3936
▁눈을	-3937
ree	-3938
데이터	-3939
▁건조	-3940
opyright	-3941
세기	-3942
int	-3943
45	-3944
kg	-3945
에요	-3946
▁런	-3947
▁뽑	-3948
▁쓰는	-3949
▁갈등	-3950
▁따뜻한	-3951
▁외에도	-3952
▁세부	-3953
▁유발	-3954
단은	-3955
계약	-3956
▁그를	-3957
▁포기	-3958
분야	-3959
▁힘든	-3960
▁Com	-3961
▁앞두고	-3962
단에	-3963
▁연예	-3964
▁모습이	-3965
▁권장	-3966
▁친환경	-3967
▁노트	-3968
학을	-3969
▁임대	-3970
▁프리미엄	-3971
▁at	-3972
대행	-3973
▁Cl	-3974
구는	-3975
iew	-3976
▁변화를	-3977
▁아는	-3978
▁나왔	-3979
▁중소기업	-3980
스러	-3981
니어	-3982
▁기부	-3983
▁일반적인	-3984
▁제품은	-3985
▁발생한	-3986
모델	-3987
▁생각한다	-3988
▁기회	-3989
▁단지	-3990
파이	-3991
▁굉장	-3992
샘플	-3993
▁아이폰	-3994
▁연습	-3995
종합	-3996
▁이들	-3997
▁자리를	-3998
▁향해	-3999
도체	-4000
▁이외	-4001
▁권한	-4002
▁끝나	-4003
AM	-4004
▁분리	-4005
단이	-4006
▁성격	-4007
▁쉬운	-4008
.11	-4009
▁명령	-4010
▁con	-4011
OM	-4012
▁비행	-4013
독교	-4014
스테	-4015
▁차이	-4016
▁무엇보다	-4017
▁나머	-4018
▁대통령이	-4019
▁사랑을	-4020
▁주제로	-4021
▁갖춘	-4022
▁위로	-4023
품질	-4024
io	-4025
▁발언	-4026
▁res	-4027
▁세포	-4028
▁채팅	-4029
▁배출	-4030
▁사과	-4031
▁공감	-4032
▁멋진	-4033
▁재정	-4034
▁아니면	-4035
▁응용	-4036
▁다루	-4037
인데요	-4038
▁앞에서	-4039
▁약간	-4040
▁대회	-4041
▁작년	-4042
▁엑	-4043
가와	-4044
▁규칙	-4045
▁했는데	-4046
▁출처	-4047
▁II	-4048
AI	-4049
▁법적	-4050
▁메모	-4051
.09	-4052
운영	-4053
▁대답	-4054
▁봉사	-4055
진흥	-4056
▁유아	-4057
▁적극적으로	-4058
▁다소	-4059
▁옛	-4060
OP	-4061
▁국회의	-4062
▁미세	-4063
?"	-4064
▁예비	-4065
부산	-4066
▁6.	-4067
소는	-4068
▁배포	-4069
▁힐	-4070
▁페이스북	-4071
▁발급	-4072
법인	-4073
▁저작권침해	-4074
▁텐	-4075
▁독특	-4076
전략	-4077
▁이제는	-4078
▁임신	-4079
▁포함되어	-4080
ef	-4081
▁못했다	-4082
77	-4083
▁내에	-4084
▁야외	-4085
▁방법으로	-4086
ication	-4087
리스트	-4088
▁교체	-4089
▁노인	-4090
.05	-4091
▁응답	-4092
▁파이	-4093
▁있음을	-4094
▁그것이	-4095
▁내에서	-4096
▁마이	-4097
▁비타민	-4098
▁벨	-4099
▁패턴	-4100
▁시작한	-4101
▁인간의	-4102
스티	-4103
지난	-4104
하이	-4105
▁목적으로	-4106
▁문재인	-4107
icro	-4108
▁덧붙였다	-4109
포트	-4110
▁덕분에	-4111
안이	-4112
지어	-4113
터를	-4114
무를	-4115
ign	-4116
▁곳에	-4117
▁방침	-4118
표를	-4119
공항	-4120
▁쿠폰	-4121
ater	-4122
▁갔	-4123
▁끌어	-4124
▁증거	-4125
▁울산	-4126
▁류	-4127
▁없다고	-4128
드에	-4129
▁반품	-4130
었을	-4131
역을	-4132
▁때마다	-4133
▁최초로	-4134
▁뷰	-4135
▁이재	-4136
▁것이라는	-4137
면서도	-4138
▁Sh	-4139
▁취약	-4140
▁넘는	-4141
▁먹을	-4142
▁2,	-4143
▁살고	-4144
기기	-4145
▁다녀	-4146
.03	-4147
▁집에	-4148
▁형태로	-4149
▁평소	-4150
▁쌍	-4151
화의	-4152
▁혜택을	-4153
▁복용	-4154
보자	-4155
베이	-4156
▁맞이	-4157
법에	-4158
▁짧은	-4159
▁가격이	-4160
럭시	-4161
▁명확	-4162
▁말하는	-4163
▁상징	-4164
▁간단한	-4165
코스	-4166
▁자원	-4167
ans	-4168
-19	-4169
그레이	-4170
▁수원	-4171
진은	-4172
▁아쉬	-4173
▁관람	-4174
▁냄	-4175
▁본인	-4176
▁발굴	-4177
▁두려	-4178
면에	-4179
▁놓고	-4180
▁^^	-4181
놓고	-4182
자격	-4183
국이	-4184
▁PDF	-4185
▁않게	-4186
▁세탁	-4187
▁로봇	-4188
▁통하여	-4189
비는	-4190
▁생각하는	-4191
.04	-4192
▁상처	-4193
ime	-4194
▁수용	-4195
▁했지만	-4196
▁선언	-4197
자산	-4198
토토	-4199
구에	-4200
▁외교	-4201
시의	-4202
▁부탁드립니다	-4203
▁자율	-4204
거든요	-4205
▁일은	-4206
▁잠재	-4207
▁제공됩니다	-4208
시켰	-4209
선의	-4210
▁주관	-4211
▁벗어나	-4212
und	-4213
▁어플	-4214
▁별도	-4215
▁KT	-4216
-01	-4217
▁방법이	-4218
▁무엇을	-4219
ave	-4220
▁아울	-4221
들어	-4222
▁사유	-4223
.06	-4224
목을	-4225
▁WiFi	-4226
▁곳이	-4227
.07	-4228
리학	-4229
▁모여	-4230
▁트립	-4231
▁환영	-4232
▁as	-4233
업소	-4234
혁명	-4235
권의	-4236
.08	-4237
▁2)	-4238
rou	-4239
▁부분이	-4240
▁198	-4241
▁뛰어난	-4242
▁통화	-4243
금지	-4244
▁투입	-4245
▁상상	-4246
▁성경	-4247
▁대규모	-4248
▁플레이어	-4249
▁사람들을	-4250
자들에게	-4251
학년	-4252
가에	-4253
▁청와	-4254
국은	-4255
미디어	-4256
인가요	-4257
▁책임을	-4258
▁가이드	-4259
상공	-4260
주로	-4261
물관	-4262
▁마감	-4263
▁대표적인	-4264
▁Windows	-4265
친구	-4266
▁can	-4267
▁노력을	-4268
시대	-4269
포인트	-4270
▁연장	-4271
▁수립	-4272
부와	-4273
▁통일	-4274
▁소셜	-4275
▁from	-4276
▁심각한	-4277
▁집에서	-4278
▁가서	-4279
▁스트레	-4280
▁j	-4281
▁식당	-4282
▁숲	-4283
▁늘어	-4284
▁적은	-4285
per	-4286
ace	-4287
▁시장에	-4288
일본	-4289
▁통계	-4290
▁세상을	-4291
어드바이	-4292
-12	-4293
▁기존의	-4294
▁09	-4295
na	-4296
ence	-4297
▁ch	-4298
▁지배	-4299
출장만남	-4300
▁임상	-4301
▁가게	-4302
▁만난	-4303
▁잡아	-4304
▁이용한	-4305
▁굉장히	-4306
도우	-4307
2021	-4308
▁무역	-4309
▁IP	-4310
▁깔끔	-4311
용품	-4312
인으로	-4313
ress	-4314
▁현황	-4315
▁호흡	-4316
▁까지	-4317
▁널	-4318
예약	-4319
력은	-4320
▁맞추	-4321
▁비중	-4322
▁주거	-4323
▁환경을	-4324
하시기	-4325
력의	-4326
▁기후	-4327
드릴	-4328
▁경남	-4329
▁대기	-4330
▁Exam	-4331
▁알려졌다	-4332
것도	-4333
질환	-4334
▁않으	-4335
▁목표로	-4336
▁드리	-4337
제한	-4338
▁평생	-4339
▁물을	-4340
▁띄	-4341
▁교수는	-4342
▁our	-4343
▁자전거	-4344
▁융	-4345
▁클라우드	-4346
군의	-4347
인터넷	-4348
량의	-4349
▁획득	-4350
▁교육을	-4351
대책	-4352
▁합격	-4353
▁이때	-4354
▁맛집	-4355
▁계획을	-4356
▁경우는	-4357
▁신선	-4358
▁마지막으로	-4359
율은	-4360
.02	-4361
▁고객이	-4362
▁탄생	-4363
ge	-4364
▁단순히	-4365
▁캡	-4366
키는	-4367
(1	-4368
▁과연	-4369
▁벌어	-4370
▁청구	-4371
전이	-4372
▁스피	-4373
▁시원	-4374
▁어려움을	-4375
ck	-4376
▁신호	-4377
ied	-4378
▁알려져	-4379
-11	-4380
호텔	-4381
▁준수	-4382
▁he	-4383
▁아니고	-4384
▁AP	-4385
▁모아	-4386
▁하실	-4387
▁점이	-4388
▁모르는	-4389
▁어깨	-4390
텔레	-4391
▁곤	-4392
▁늘어나	-4393
▁나왔다	-4394
▁Copyright	-4395
▁유니	-4396
▁협의	-4397
▁sit	-4398
▁(1	-4399
!!!	-4400
▁시장에서	-4401
▁식물	-4402
▁승리	-4403
▁파일을	-4404
▁보수	-4405
▁하나로	-4406
▁상관	-4407
▁혹시	-4408
트리	-4409
▁미치는	-4410
▁2008	-4411
▁2009	-4412
▁le	-4413
▁긴급	-4414
▁어떠한	-4415
했어요	-4416
▁알려진	-4417
▁사용하고	-4418
간다	-4419
▁장면	-4420
자원	-4421
▁or	-4422
▁경우에	-4423
문학	-4424
▁제어	-4425
▁코드	-4426
▁규모의	-4427
다니	-4428
▁전송	-4429
▁일어	-4430
▁능력을	-4431
erved	-4432
계의	-4433
금리	-4434
▁관련해	-4435
▁좋아요	-4436
방을	-4437
▁받지	-4438
사무	-4439
프레	-4440
▁내용이	-4441
산물	-4442
▁안에서	-4443
▁부분을	-4444
▁1000	-4445
▁회사는	-4446
▁지원하는	-4447
▁창조	-4448
러리	-4449
▁샌	-4450
펙트	-4451
약품	-4452
2017	-4453
확인	-4454
▁애니	-4455
▁이것이	-4456
북도	-4457
▁무게	-4458
gle	-4459
▁보여주	-4460
률을	-4461
▁남겨	-4462
▁소화	-4463
▁우수한	-4464
▁면역	-4465
문이	-4466
▁x	-4467
▁심사	-4468
▁보상	-4469
▁등급	-4470
▁오류	-4471
▁간의	-4472
▁유저	-4473
▁수준의	-4474
▁싶어	-4475
▁며	-4476
▁의미를	-4477
▁즐거	-4478
):	-4479
▁전년	-4480
▁스타트	-4481
▁청소	-4482
비아	-4483
하셨	-4484
에너지	-4485
ach	-4486
▁있을까	-4487
▁데뷔	-4488
▁나갈	-4489
duct	-4490
스에서	-4491
▁사항은	-4492
▁승인	-4493
▁해소	-4494
▁화려	-4495
▁쓰고	-4496
ertif	-4497
되어야	-4498
▁유기	-4499
연구소	-4500
자금	-4501
▁이미지를	-4502
ance	-4503
바로	-4504
보건	-4505
대구	-4506
▁나선	-4507
국가	-4508
보를	-4509
들께	-4510
▁관객	-4511
년의	-4512
▁낭	-4513
▁전공	-4514
▁담아	-4515
▁사용하면	-4516
▁이용하실	-4517
ated	-4518
연을	-4519
량은	-4520
봉사	-4521
▁아울러	-4522
▁저도	-4523
▁나아가	-4524
▁선택할	-4525
▁00	-4526
▁증권	-4527
▁소요	-4528
▁에이	-4529
▁추정	-4530
lay	-4531
.01	-4532
웨이	-4533
보장	-4534
▁메인	-4535
▁Qu	-4536
▁뛰어	-4537
66	-4538
▁길이	-4539
ey	-4540
▁인공지능	-4541
▁클럽	-4542
▁트레이	-4543
서가	-4544
▁진실	-4545
ET	-4546
▁트위	-4547
▁훌륭한	-4548
2,	-4549
회담	-4550
ood	-4551
▁세종	-4552
▁트립어드바이	-4553
군은	-4554
게요	-4555
▁날짜	-4556
▁마련되어	-4557
케어	-4558
▁남은	-4559
▁열고	-4560
▁우주	-4561
▁이용하여	-4562
sh	-4563
▁셔	-4564
▁접종	-4565
’(	-4566
;;	-4567
▁군사	-4568
▁포토	-4569
▁피해를	-4570
▁신문	-4571
▁초대	-4572
▁쏟아	-4573
화와	-4574
오피	-4575
르지	-4576
협력	-4577
상태	-4578
함에	-4579
▁곳에서	-4580
▁롤	-4581
더라구요	-4582
오늘	-4583
▁점에서	-4584
까지는	-4585
▁치료를	-4586
었어요	-4587
보드	-4588
▁출판	-4589
여성	-4590
관에서	-4591
▁넣어	-4592
▁찾고	-4593
직원	-4594
▁인기를	-4595
▁높이	-4596
▁Ad	-4597
향을	-4598
▁오늘날	-4599
당이	-4600
▁휴가	-4601
ick	-4602
로우	-4603
▁넷	-4604
리케이션	-4605
▁담은	-4606
▁인지	-4607
▁중복	-4608
▁제품의	-4609
AD	-4610
▁명이	-4611
-09	-4612
▁관절	-4613
식의	-4614
▁시기	-4615
▁묵	-4616
▁열어	-4617
▁있는데요	-4618
▁추구	-4619
AL	-4620
▁포스팅	-4621
현지	-4622
▁행복한	-4623
▁분야에서	-4624
▁국토	-4625
▁왼쪽	-4626
3)	-4627
일로	-4628
▁인권	-4629
나가	-4630
▁디스	-4631
▁조작	-4632
▁음식을	-4633
▁그러한	-4634
▁귀하의	-4635
▁마찬가지로	-4636
▁반려	-4637
▁충족	-4638
▁해양	-4639
신고	-4640
▁활발	-4641
시티	-4642
▁쌀	-4643
▁장관	-4644
▁지속적인	-4645
▁엄청난	-4646
하면서도	-4647
▁하나는	-4648
▁고개를	-4649
▁비밀번호	-4650
▁이스	-4651
▁자금	-4652
직한	-4653
▁관찰	-4654
프로그램	-4655
ical	-4656
▁조언	-4657
▁운영하는	-4658
시피	-4659
▁보이지	-4660
편집	-4661
▁등은	-4662
어버	-4663
▁들었다	-4664
▁별도의	-4665
▁여행을	-4666
emap	-4667
▁하드	-4668
▁펜	-4669
지에서	-4670
▁쉽지	-4671
▁ᄒᄒ	-4672
▁홍콩	-4673
차가	-4674
▁일자리	-4675
▁파티	-4676
▁아무리	-4677
대전	-4678
자들을	-4679
form	-4680
48	-4681
▁테마	-4682
디아	-4683
ie	-4684
리게	-4685
▁적립	-4686
▁인스타	-4687
▁있나요	-4688
▁덮	-4689
▁보이고	-4690
,,	-4691
공동	-4692
▁소방	-4693
CC	-4694
내기	-4695
받아	-4696
하시고	-4697
▁나온다	-4698
▁33	-4699
사이	-4700
▁털	-4701
af	-4702
▁맞춤형	-4703
▁복합	-4704
▁창의	-4705
부장	-4706
▁크기	-4707
▁자체가	-4708
▁중국의	-4709
인에	-4710
▁면접	-4711
센터를	-4712
최고	-4713
▁가치가	-4714
▁오른쪽	-4715
▁공무원	-4716
▁그렇다면	-4717
soft	-4718
상과	-4719
행정	-4720
▁초과	-4721
계가	-4722
▁sitemap	-4723
해주는	-4724
▁이유가	-4725
식은	-4726
위원장	-4727
▁종류의	-4728
▁비상	-4729
▁눌	-4730
미터	-4731
▁케이블	-4732
▁방안	-4733
▁입고	-4734
▁시간에	-4735
▁목사	-4736
▁Sp	-4737
▁등록된	-4738
적이다	-4739
▁밴	-4740
스턴	-4741
▁물어	-4742
▁콘텐츠를	-4743
브리	-4744
이니	-4745
한의	-4746
라서	-4747
▁애완	-4748
▁핸드	-4749
▁집단	-4750
▁45	-4751
▁추가로	-4752
▁대선	-4753
책임	-4754
▁한글	-4755
?)	-4756
75	-4757
▁워크	-4758
▁전부	-4759
▁칠	-4760
▁파괴	-4761
▁기회가	-4762
▁화재	-4763
▁앨범	-4764
▁그려	-4765
▁인프라	-4766
▁입을	-4767
PC	-4768
▁배터리	-4769
▁감정	-4770
▁하시	-4771
▁●	-4772
▁재산	-4773
MS	-4774
대에서	-4775
(5	-4776
▁셈	-4777
자들	-4778
▁축하	-4779
▁나올	-4780
▁감각	-4781
▁32	-4782
▁전개	-4783
▁가격은	-4784
▁만한	-4785
▁시작으로	-4786
▁문을	-4787
▁국방	-4788
▁이탈리아	-4789
oogle	-4790
▁브라우	-4791
▁소녀	-4792
▁핫	-4793
▁기독교	-4794
▁맞게	-4795
▁그게	-4796
일의	-4797
성장	-4798
▁수영장	-4799
신이	-4800
▁흔들	-4801
▁생긴	-4802
ech	-4803
▁딜	-4804
향이	-4805
▁진입	-4806
▁아들	-4807
▁판결	-4808
제공	-4809
▁투표	-4810
▁별로	-4811
▁공지	-4812
▁Exp	-4813
▁동기	-4814
미국	-4815
▁대변	-4816
▁중고	-4817
~3	-4818
테인	-4819
▁힘이	-4820
▁실질	-4821
▁가까이	-4822
년생	-4823
OU	-4824
▁엉	-4825
▁호텔을	-4826
▁하였다	-4827
▁나머지	-4828
PG	-4829
▁익숙	-4830
▁동료	-4831
결제	-4832
ok	-4833
▁앤	-4834
49	-4835
▁캐나다	-4836
▁확실히	-4837
otel	-4838
▁이로	-4839
▁사항을	-4840
-03	-4841
판을	-4842
▁발표했다	-4843
▁집행	-4844
▁바이오	-4845
▁You	-4846
▁경우도	-4847
▁리그	-4848
ary	-4849
-05	-4850
있습니다	-4851
▁임시	-4852
▁대처	-4853
▁소송	-4854
감독	-4855
서에	-4856
▁느낌이	-4857
-04	-4858
▁스파	-4859
▁떠올	-4860
▁어디서	-4861
카이	-4862
▁활용한	-4863
▁트립어드바이저는	-4864
▁성과를	-4865
▁호주	-4866
▁지연	-4867
▁흰	-4868
▁문자	-4869
▁낸	-4870
▁그렇지	-4871
PS	-4872
▁독특한	-4873
가스	-4874
▁Tr	-4875
신용	-4876
▁이른	-4877
▁그에	-4878
▁읽어	-4879
▁반도체	-4880
▁갤럭시	-4881
▁화학	-4882
▁공간을	-4883
질이	-4884
▁일본의	-4885
▁풀어	-4886
▁나은	-4887
▁사장	-4888
▁거짓	-4889
▁기능이	-4890
▁말했습니다	-4891
▁약물	-4892
▁양성	-4893
▁제공한다	-4894
▁36	-4895
▁탑재	-4896
을까	-4897
활동을	-4898
▁천연	-4899
소의	-4900
▁매월	-4901
마켓	-4902
▁입장을	-4903
▁냉장	-4904
▁주최	-4905
▁찾기	-4906
▁수강	-4907
구매	-4908
▁전력	-4909
▁분위기	-4910
겠죠	-4911
▁김영	-4912
-9	-4913
-08	-4914
기지	-4915
▁구성된	-4916
▁가로	-4917
▁들여	-4918
▁이게	-4919
▁위기	-4920
ale	-4921
▁배달	-4922
▁전남	-4923
▁칭	-4924
****	-4925
화로	-4926
▁언제나	-4927
▁뜨거운	-4928
▁시장은	-4929
▁라는	-4930
▁무시	-4931
▁휴대폰	-4932
▁등과	-4933
▁손상	-4934
▁정도의	-4935
만으로	-4936
조를	-4937
▁조용	-4938
관에	-4939
▁올리	-4940
▁아빠	-4941
EL	-4942
▁동작	-4943
▁핀	-4944
▁생각해	-4945
▁제공할	-4946
신의	-4947
▁발송	-4948
▁팩	-4949
▁국정	-4950
▁변동	-4951
공개	-4952
▁will	-4953
icrosoft	-4954
▁버튼을	-4955
증이	-4956
▁안타	-4957
html	-4958
어플	-4959
년에는	-4960
▁비트코	-4961
서의	-4962
▁즐거운	-4963
▁라이프	-4964
▁회장은	-4965
▁분들은	-4966
▁팁	-4967
▁생존	-4968
▁좁	-4969
▁앞으로도	-4970
-07	-4971
납니다	-4972
▁단백	-4973
▁구속	-4974
카페	-4975
효과	-4976
▁고객의	-4977
회원	-4978
고는	-4979
치의	-4980
-02	-4981
▁기록했다	-4982
▁올바른	-4983
▁말이다	-4984
▁전면	-4985
▁개봉	-4986
요금	-4987
▁풍부한	-4988
▁사용자가	-4989
az	-4990
▁추억	-4991
라엘	-4992
▁내놓	-4993
▁not	-4994
▁장점	-4995
인들의	-4996
▁못할	-4997
▁조각	-4998
ich	-4999
패스	-5000
말로	-5001
▁열리는	-5002
▁게이	-5003
▁항공편	-5004
▁있습니까	-5005
▁심지어	-5006
▁앉아	-5007
기구	-5008
▁행위	-5009
▁기분	-5010
▁붉	-5011
▁투어	-5012
▁둘째	-5013
▁즐겨	-5014
▁말에	-5015
고기	-5016
▁끊임	-5017
권이	-5018
▁계좌	-5019
▁조심	-5020
간에	-5021
▁충격	-5022
▁단독	-5023
중국	-5024
-06	-5025
렸습니다	-5026
▁al	-5027
▁sh	-5028
화는	-5029
▁Res	-5030
▁한정	-5031
▁당사	-5032
미나	-5033
오고	-5034
▁사실상	-5035
▁경북	-5036
........	-5037
▁관광객	-5038
설팅	-5039
▁여러분의	-5040
▁최소화	-5041
로의	-5042
▁그럴	-5043
▁거듭	-5044
▁영상을	-5045
▁증명	-5046
▁부품	-5047
▁정당	-5048
드려	-5049
▁엔진	-5050
▁많습니다	-5051
작성	-5052
▁연간	-5053
▁쾌	-5054
와는	-5055
own	-5056
▁튀	-5057
▁넓은	-5058
▁너무나	-5059
▁사상	-5060
▁한반	-5061
▁개설	-5062
학습	-5063
▁섞	-5064
▁측은	-5065
▁음료	-5066
▁수백	-5067
▁장착	-5068
▁걸어	-5069
▁당연히	-5070
▁평가를	-5071
체험	-5072
▁스페셜	-5073
상황	-5074
▁꼼	-5075
▁돌려	-5076
주소	-5077
▁룸	-5078
리라	-5079
▁가볍	-5080
▁선사	-5081
검사	-5082
▁대단	-5083
▁Ar	-5084
▁대통령의	-5085
것이	-5086
▁처벌	-5087
내가	-5088
▁모임	-5089
▁유도	-5090
▁절반	-5091
심이	-5092
ish	-5093
▁진정한	-5094
▁입금	-5095
▁새벽	-5096
========	-5097
US	-5098
튜디오	-5099
▁사랑하는	-5100
목록	-5101
▁지역에	-5102
▁멀티	-5103
▁종목	-5104
▁부작용	-5105
통합	-5106
▁인구	-5107
▁한국경제	-5108
소한	-5109
▁전북	-5110
듭니다	-5111
▁아버지	-5112
▁비대	-5113
일간	-5114
▁통제	-5115
▁끝에	-5116
건의	-5117
▁적극적인	-5118
▁포트	-5119
▁일시	-5120
▁선도	-5121
▁셋	-5122
▁폭발	-5123
건축	-5124
▁시장을	-5125
▁인테	-5126
ph	-5127
▁셀프	-5128
▁그러면서	-5129
▁그러면	-5130
▁다행	-5131
▁지침	-5132
▁않았습니다	-5133
세포	-5134
▁날씨	-5135
▁충분한	-5136
▁등에서	-5137
▁축제	-5138
▁오랫	-5139
크라	-5140
▁바로가기	-5141
오프	-5142
▁법무	-5143
▁야구	-5144
▁적합한	-5145
대화	-5146
▁나중에	-5147
1,	-5148
영업	-5149
▁말할	-5150
▁보너	-5151
배를	-5152
▁나눔	-5153
▁그래픽	-5154
68	-5155
▁사업자	-5156
▁경고	-5157
▁분야의	-5158
가로	-5159
▁유의	-5160
ual	-5161
바카라	-5162
▁사용되는	-5163
그러	-5164
▁경제적	-5165
기획	-5166
▁선교	-5167
63	-5168
▁대로	-5169
▁고속	-5170
▁연령	-5171
▁ᆞ	-5172
생을	-5173
▁이건	-5174
64	-5175
수에	-5176
▁we	-5177
▁스타트업	-5178
▁라고	-5179
구역	-5180
하기에	-5181
▁냄새	-5182
석을	-5183
▁방안을	-5184
어져	-5185
이미	-5186
▁맛있는	-5187
수와	-5188
하겠다는	-5189
림을	-5190
78	-5191
▁보험료	-5192
▁해요	-5193
▁7.	-5194
▁살짝	-5195
▁KB	-5196
자이너	-5197
▁전주	-5198
▁있었고	-5199
▁프로모	-5200
전의	-5201
▁가구	-5202
다리	-5203
▁화이트	-5204
▁회사의	-5205
ian	-5206
억원을	-5207
드와	-5208
▁침해	-5209
라스틱	-5210
▁중요하다	-5211
함과	-5212
▁2007	-5213
▁챔	-5214
▁꿀	-5215
▁충남	-5216
▁세트	-5217
▁가능성을	-5218
지구	-5219
▁깊이	-5220
▁응원	-5221
히고	-5222
79	-5223
연구원	-5224
요소	-5225
▁쇼핑몰	-5226
ens	-5227
십니다	-5228
IA	-5229
▁것인가	-5230
▁◆	-5231
청소년	-5232
▁Un	-5233
해보세요	-5234
드리겠습니다	-5235
동의	-5236
았고	-5237
▁정규	-5238
더라고	-5239
▁사용해	-5240
지며	-5241
▁서류	-5242
▁않지만	-5243
log	-5244
▁우리에게	-5245
▁38	-5246
리즘	-5247
ome	-5248
▁조치를	-5249
▁게다가	-5250
▁이들이	-5251
군이	-5252
더군요	-5253
▁150	-5254
▁사이트를	-5255
▁그저	-5256
▁특허	-5257
쪽으로	-5258
▁다르게	-5259
▁공기	-5260
▁가고	-5261
당은	-5262
▁점은	-5263
▁모니터링	-5264
▁성분	-5265
테인먼트	-5266
▁인류	-5267
할수	-5268
▁곳곳	-5269
▁결과가	-5270
피언	-5271
▁나도	-5272
역시	-5273
▁수수료	-5274
▁단일	-5275
제주	-5276
▁신발	-5277
소에서	-5278
▁개혁	-5279
OT	-5280
▁세월	-5281
적으로는	-5282
▁정체	-5283
▁끈	-5284
▁An	-5285
▁감상	-5286
르신	-5287
▁Con	-5288
자체	-5289
▁멘	-5290
하여야	-5291
▁업그레이	-5292
식에	-5293
▁적응	-5294
▁메이저	-5295
▁위의	-5296
▁안전하게	-5297
▁더불어민주당	-5298
▁성장을	-5299
te	-5300
▁꿈을	-5301
▁결코	-5302
추가	-5303
▁없지만	-5304
▁진료	-5305
▁잡고	-5306
▁떠오	-5307
▁진행하고	-5308
▁기업이	-5309
▁발표한	-5310
▁상대로	-5311
▁사람에게	-5312
▁좋지	-5313
▁보입니다	-5314
린이	-5315
▁재활	-5316
▁함유	-5317
▁작품을	-5318
▁이달	-5319
▁계열	-5320
ox	-5321
현대	-5322
▁본다	-5323
TM	-5324
▁즐기는	-5325
2022	-5326
석이	-5327
▁보유하고	-5328
실에	-5329
▁연락처	-5330
▁일주	-5331
▁접촉	-5332
미술	-5333
클럽	-5334
▁경험이	-5335
▁주장했다	-5336
▁미래를	-5337
▁지적했다	-5338
▁가능성	-5339
▁폰	-5340
▁가수	-5341
▁유효	-5342
▁실적	-5343
▁부분은	-5344
▁이끌어	-5345
▁방법에	-5346
파일	-5347
▁버스	-5348
시즌	-5349
▁불리는	-5350
▁층	-5351
▁그만큼	-5352
▁원활	-5353
로스	-5354
▁해당하는	-5355
▁범위	-5356
▁정책을	-5357
▁촉진	-5358
▁뚜	-5359
▁컨텐츠	-5360
▁않아도	-5361
▁KBS	-5362
▁10%	-5363
▁느낌을	-5364
▁음성	-5365
▁Kore	-5366
▁채택	-5367
▁육성	-5368
▁심장	-5369
▁스케	-5370
▁간호	-5371
▁너희	-5372
▁행사를	-5373
▁개인회생	-5374
력에	-5375
력으로	-5376
▁상장	-5377
▁썼	-5378
▁유일한	-5379
▁올림픽	-5380
▁말씀을	-5381
,9	-5382
▁들려	-5383
▁뮤지	-5384
는가	-5385
▁빚	-5386
▁브라우저	-5387
▁재무	-5388
▁외에	-5389
oud	-5390
▁가벼	-5391
▁놀라운	-5392
▁거기	-5393
▁의존	-5394
산화	-5395
▁처방	-5396
▁멀리	-5397
▁첫째	-5398
법이	-5399
▁득	-5400
▁뜻을	-5401
쇼핑	-5402
▁노하우	-5403
▁인재	-5404
▁08	-5405
▁예약을	-5406
정치	-5407
▁뒤에	-5408
▁촉구	-5409
.[	-5410
중인	-5411
▁신앙	-5412
▁전략을	-5413
▁쳐	-5414
워서	-5415
정상	-5416
봐야	-5417
▁이처럼	-5418
법은	-5419
였고	-5420
▁전기차	-5421
▁마주	-5422
https	-5423
▁당뇨	-5424
▁흘러	-5425
제작	-5426
▁근데	-5427
yst	-5428
▁오랫동안	-5429
▁인쇄	-5430
▁헤어	-5431
▁여론	-5432
▁소중한	-5433
▁끄	-5434
디자인	-5435
▁낳	-5436
▁어쩌	-5437
심으로	-5438
▁최우	-5439
사업자	-5440
메이션	-5441
당을	-5442
▁성적	-5443
리적인	-5444
실이	-5445
▁형태의	-5446
▁발휘	-5447
아버	-5448
▁선생님	-5449
▁당선	-5450
▁깜	-5451
▁문제에	-5452
'(	-5453
▁씨는	-5454
▁택배	-5455
▁추적	-5456
단지	-5457
▁사이의	-5458
▁this	-5459
▁보여주는	-5460
▁이스라엘	-5461
▁몽	-5462
▁검은	-5463
▁국무	-5464
플러스	-5465
마스	-5466
▁개요	-5467
당의	-5468
레이션	-5469
질의	-5470
38	-5471
아리	-5472
▁죽음	-5473
▁받게	-5474
▁앱을	-5475
▁데스크	-5476
▁연말	-5477
▁당일	-5478
▁비용을	-5479
▁상태를	-5480
▁요금이	-5481
▁이중	-5482
▁]	-5483
▁성남	-5484
▁Am	-5485
▁아래의	-5486
▁전망이다	-5487
▁학생들이	-5488
▁때도	-5489
트에	-5490
▁아직도	-5491
▁공사	-5492
술을	-5493
▁역대	-5494
▁계절	-5495
▁어제	-5496
▁대학생	-5497
▁right	-5498
▁이들의	-5499
▁않을까	-5500
해져	-5501
▁세대	-5502
▁구체적인	-5503
▁프린	-5504
▁www	-5505
▁점차	-5506
▁르	-5507
▁탓	-5508
포르	-5509
▁모텔	-5510
▁활용해	-5511
▁실무	-5512
▁브라	-5513
▁콩	-5514
▁별도로	-5515
▁전세계	-5516
▁돋	-5517
▁돌파	-5518
▁당부	-5519
▁34	-5520
▁분위기를	-5521
고객	-5522
:30	-5523
바이오	-5524
▁부터	-5525
▁화장품	-5526
리면	-5527
▁이용하는	-5528
▁베스트	-5529
ram	-5530
▁개방	-5531
▁지역사회	-5532
망을	-5533
▁근본	-5534
▁움직임	-5535
pe	-5536
▁연주	-5537
▁판매자	-5538
▁뼈	-5539
▁암호화폐	-5540
조직	-5541
▁노트북	-5542
▁부족한	-5543
▁지역에서	-5544
잖아요	-5545
진의	-5546
▁상위	-5547
▁아르	-5548
▁가능하며	-5549
▁서비스가	-5550
▁자연스럽게	-5551
▁계속해서	-5552
:1	-5553
▁전날	-5554
▁ID	-5555
▁변환	-5556
ne	-5557
▁캘	-5558
▁생각하고	-5559
연합뉴스	-5560
ber	-5561
ug	-5562
▁인스타그램	-5563
근혜	-5564
▁맛있	-5565
▁무기	-5566
▁이행	-5567
님께서는	-5568
▁공통	-5569
▁사회복지	-5570
▁돌아가	-5571
▁한마	-5572
해서는	-5573
트롤	-5574
란드	-5575
▁나쁜	-5576
▁되기	-5577
▁업무를	-5578
▁예고	-5579
수수	-5580
▁현장에서	-5581
▁수단	-5582
▁질문에	-5583
▁속도	-5584
▁후반	-5585
▁손해	-5586
▁국내외	-5587
▁매장	-5588
▁기사를	-5589
▁매매	-5590
률은	-5591
명에	-5592
▁마이크로	-5593
▁추세	-5594
39	-5595
시길	-5596
의원	-5597
▁대리	-5598
▁이전에	-5599
300	-5600
▁효과적인	-5601
▁핑	-5602
▁빵	-5603
시로	-5604
만원을	-5605
여서	-5606
▁?	-5607
▁것이고	-5608
▁대기업	-5609
GB	-5610
▁50%	-5611
터테인먼트	-5612
등을	-5613
소리	-5614
▁나눠	-5615
고가	-5616
아의	-5617
민의	-5618
(4	-5619
▁요약	-5620
나게	-5621
생산	-5622
▁뭔가	-5623
▁초반	-5624
보증	-5625
여자	-5626
▁살펴보	-5627
음악	-5628
▁수익을	-5629
▁장난	-5630
▁역사를	-5631
▁담긴	-5632
르몬	-5633
▁것인지	-5634
▁계정	-5635
▁정확히	-5636
▁도달	-5637
▁증상	-5638
▁것이며	-5639
▁과도	-5640
▁비난	-5641
▁재난	-5642
▁정보가	-5643
▁방식을	-5644
▁아프리카	-5645
▁공용	-5646
▁혐의로	-5647
▁말합니다	-5648
▁우울	-5649
▁닭	-5650
하였고	-5651
WS	-5652
▁개인의	-5653
물에	-5654
▁물류	-5655
소비	-5656
▁공장	-5657
▁Re	-5658
▁하자	-5659
책을	-5660
▁cont	-5661
월까지	-5662
▁와서	-5663
렀다	-5664
▁만날	-5665
▁보존	-5666
속에	-5667
▁오르	-5668
▁ᄏᄏ	-5669
▁상업	-5670
사업을	-5671
▁SAP	-5672
▁정치적	-5673
▁스트레스	-5674
ata	-5675
▁무엇이	-5676
▁씻	-5677
▁잭	-5678
▁작성일	-5679
▁정보는	-5680
▁주방	-5681
▁운영하고	-5682
▁의미가	-5683
▁동네	-5684
바이러스	-5685
▁내고	-5686
옵니다	-5687
▁도쿄	-5688
▁초청	-5689
▁이내에	-5690
▁온도	-5691
▁때가	-5692
▁조기	-5693
▁방해	-5694
어의	-5695
▁@	-5696
일치	-5697
▁아이들이	-5698
인천	-5699
▁목표를	-5700
제에	-5701
▁훼손	-5702
▁제약	-5703
▁출입	-5704
▁세금	-5705
하므로	-5706
▁선택한	-5707
▁가공	-5708
St	-5709
▁읽고	-5710
▁사용한	-5711
2016	-5712
연금	-5713
▁부드럽	-5714
▁기본적으로	-5715
▁투자를	-5716
전쟁	-5717
ink	-5718
▁쓰레	-5719
▁세계에서	-5720
▁생겨	-5721
▁제주도	-5722
마크	-5723
▁여부를	-5724
▁좋고	-5725
▁문학	-5726
▁유연	-5727
▁곳은	-5728
▁하나가	-5729
▁저항	-5730
▁싶습니다	-5731
▁디스플레이	-5732
좋은	-5733
▁김정	-5734
물로	-5735
▁거리에	-5736
▁넣고	-5737
▁떨어져	-5738
▁체육	-5739
주기	-5740
▁운동을	-5741
▁안마	-5742
▁직무	-5743
월드	-5744
▁변화가	-5745
▁부르	-5746
현재	-5747
▁편안한	-5748
대와	-5749
▁듯한	-5750
▁★	-5751
▁끓	-5752
자유	-5753
뱅크	-5754
▁흉	-5755
▁춘	-5756
차례	-5757
▁MBC	-5758
▁!	-5759
ics	-5760
▁그만	-5761
▁최초의	-5762
▁계신	-5763
▁SS	-5764
▁오염	-5765
법의	-5766
▁수도권	-5767
▁당첨	-5768
par	-5769
▁사기	-5770
씨의	-5771
▁삽	-5772
-00	-5773
회견	-5774
▁입학	-5775
▁보급	-5776
▁머물	-5777
▁교사	-5778
▁환자의	-5779
▁잘못된	-5780
개가	-5781
▁북한의	-5782
청은	-5783
69	-5784
있을	-5785
▁있으나	-5786
봤다	-5787
▁거예요	-5788
▁취급	-5789
▁연합뉴스	-5790
▁했고	-5791
▁공포	-5792
▁맹	-5793
ank	-5794
▁널리	-5795
▁픽	-5796
▁협업	-5797
▁샘플	-5798
▁묶	-5799
anc	-5800
CP	-5801
▁반응을	-5802
▁풍경	-5803
▁상태에서	-5804
▁전원	-5805
페이스	-5806
주년	-5807
fer	-5808
범죄	-5809
▁다리	-5810
▁증상이	-5811
▁박사	-5812
전에서	-5813
국을	-5814
▁주기	-5815
edia	-5816
pl	-5817
▁되도록	-5818
라이언	-5819
마자	-5820
▁매주	-5821
aw	-5822
공단	-5823
▁손에	-5824
장애인	-5825
▁수소	-5826
▁출범	-5827
ax	-5828
▁장르	-5829
▁Google	-5830
▁믿고	-5831
준비	-5832
▁저작권자	-5833
▁집을	-5834
▁분노	-5835
식과	-5836
되었으며	-5837
▁발전을	-5838
▁기름	-5839
선수	-5840
계층	-5841
▁가야	-5842
▁여성의	-5843
락을	-5844
미를	-5845
전한	-5846
▁밸	-5847
▁벌써	-5848
▁아름다	-5849
▁추출	-5850
▁쉽고	-5851
▁친절	-5852
▁IS	-5853
▁메시지를	-5854
▁상반기	-5855
▁투명	-5856
코드	-5857
▁사용하지	-5858
37	-5859
조정	-5860
▁얼굴을	-5861
▁보일	-5862
▁말은	-5863
▁텍스트	-5864
▁나섰다	-5865
800	-5866
▁이상이	-5867
안은	-5868
했기	-5869
더라고요	-5870
aterial	-5871
▁게재	-5872
▁가끔	-5873
▁눈이	-5874
▁사실이	-5875
▁맺고	-5876
▁이르	-5877
▁소식을	-5878
▁눌러	-5879
캠퍼	-5880
▁정비	-5881
▁all	-5882
▁영원	-5883
했으나	-5884
투데이	-5885
▁언제든지	-5886
▁We	-5887
▁릴	-5888
에서만	-5889
▁낼	-5890
광고	-5891
▁생기	-5892
▁Hotel	-5893
▁알레	-5894
▁원을	-5895
.|	-5896
▁만들어진	-5897
▁쥐	-5898
▁영광	-5899
▁우리를	-5900
▁금리	-5901
▁점심	-5902
▁회원가입	-5903
UM	-5904
조의	-5905
▁신설	-5906
▁긴장	-5907
▁부드러운	-5908
▁강제	-5909
▁않기	-5910
▁조금씩	-5911
34	-5912
▁몸에	-5913
▁희생	-5914
▁다를	-5915
▁일에	-5916
▁배팅	-5917
▁교류	-5918
▁참석한	-5919
▁→	-5920
▁절차를	-5921
인에게	-5922
개혁	-5923
32	-5924
▁디자이너	-5925
▁그랬	-5926
(19	-5927
시부터	-5928
감과	-5929
ath	-5930
▁조명	-5931
▁EU	-5932
▁그곳	-5933
▁점유	-5934
▁FA	-5935
마저	-5936
▁혼란	-5937
았는데	-5938
▁수학	-5939
▁맘	-5940
▁바꿔	-5941
▁나타난	-5942
▁관련한	-5943
▁활용할	-5944
▁명예훼손	-5945
FC	-5946
▁상태로	-5947
ll	-5948
▁천안	-5949
체계	-5950
ond	-5951
ake	-5952
▁가스	-5953
생명	-5954
▁종이	-5955
▁애플리케이션	-5956
▁누리	-5957
▁보완	-5958
▁윈도우	-5959
미래	-5960
▁분명히	-5961
▁Microsoft	-5962
▁어려워	-5963
▁들어서	-5964
▁랜	-5965
▁정확하게	-5966
▁게시판	-5967
온라인	-5968
ys	-5969
▁헤드	-5970
▁프로필	-5971
협의	-5972
▁논문	-5973
무료	-5974
▁제품이	-5975
세의	-5976
▁믿음	-5977
조트	-5978
▁LED	-5979
(0	-5980
▁있었는데	-5981
▁오프라인	-5982
선에	-5983
▁갖추고	-5984
▁함께하는	-5985
격한	-5986
▁지표	-5987
▁매니	-5988
▁스티	-5989
▁37	-5990
▁향한	-5991
으신	-5992
적입니다	-5993
▁물건	-5994
▁시작된	-5995
▁높다	-5996
▁복잡한	-5997
즈를	-5998
▁듀	-5999
▁계약을	-6000
▁마음으로	-6001
▁유료	-6002
▁트위터	-6003
수한	-6004
▁ES	-6005
▁독자	-6006
▁포항	-6007
▁바라보	-6008
▁젖	-6009
▁상대적으로	-6010
▁무엇입니까	-6011
CS	-6012
드로이드	-6013
▁손가락	-6014
▁나아	-6015
▁복사	-6016
▁구역	-6017
▁블록체인	-6018
▁해상	-6019
▁체중	-6020
▁400	-6021
▁수십	-6022
▁낚	-6023
▁않으며	-6024
▁겪고	-6025
TH	-6026
양의	-6027
호가	-6028
▁챔피언	-6029
왔습니다	-6030
프리	-6031
▁자가	-6032
▁법인	-6033
이었습니다	-6034
▁그럼에도	-6035
▁연관	-6036
해지는	-6037
▁진정	-6038
▁무조건	-6039
▁부상	-6040
▁입증	-6041
▁누적	-6042
(?)	-6043
국에	-6044
하우스	-6045
arket	-6046
해드립니다	-6047
▁데이	-6048
▁39	-6049
(2	-6050
주얼	-6051
소프트	-6052
▁받아들	-6053
치게	-6054
▁취임	-6055
ition	-6056
▁에너	-6057
▁무릎	-6058
ode	-6059
최근	-6060
냅니다	-6061
▁다이어트	-6062
▁코리아	-6063
▁상품의	-6064
▁48	-6065
▁즐겁	-6066
▁운용	-6067
님과	-6068
ix	-6069
▁흔히	-6070
▁액세스	-6071
▁하니	-6072
▁월드컵	-6073
하겠다고	-6074
lect	-6075
▁플라스틱	-6076
완료	-6077
▁수령	-6078
▁수면	-6079
▁대화를	-6080
▁스토리	-6081
담보	-6082
ount	-6083
▁시사	-6084
▁말해	-6085
▁닿	-6086
PU	-6087
▁줄어들	-6088
▁20%	-6089
라운드	-6090
▁나에게	-6091
▁혼합	-6092
▁아마도	-6093
▁방향으로	-6094
▁수치	-6095
성한	-6096
OL	-6097
▁변호사	-6098
나의	-6099
▁학술	-6100
▁3)	-6101
▁안정적인	-6102
IM	-6103
▁당장	-6104
▁고양이	-6105
▁찌	-6106
▁prov	-6107
▁녹색	-6108
▁멜	-6109
▁엘리	-6110
산의	-6111
▁플래	-6112
리한	-6113
IG	-6114
▁마침	-6115
▁신한	-6116
▁아기	-6117
▁예전	-6118
나마	-6119
▁꼼꼼	-6120
▁소상공	-6121
▁명시	-6122
▁이민	-6123
▁tr	-6124
▁감안	-6125
▁북미	-6126
......	-6127
▁이래	-6128
하다가	-6129
▁안심하고	-6130
▁경기를	-6131
일반	-6132
▁순위	-6133
▁샤워	-6134
▁have	-6135
▁주어	-6136
▁치열	-6137
▁기자회견	-6138
TA	-6139
화학	-6140
▁다섯	-6141
▁이거	-6142
▁도심	-6143
교환	-6144
▁티켓	-6145
▁나름	-6146
▁연구를	-6147
동에	-6148
▁압박	-6149
▁커버	-6150
▁아니지만	-6151
마이	-6152
▁없어서	-6153
▁생활을	-6154
쪽에	-6155
성으로	-6156
연이	-6157
▁잉	-6158
▁균형	-6159
▁사용하기	-6160
▁어르신	-6161
▁미만	-6162
▁과제	-6163
차는	-6164
▁세워	-6165
일과	-6166
▁(1)	-6167
▁만화	-6168
겠습니까	-6169
▁인테리어	-6170
▁준다	-6171
마토	-6172
▁종사	-6173
▁2005	-6174
▁무엇인가	-6175
▁사로	-6176
▁관련하여	-6177
▁55	-6178
▁이야기가	-6179
로도	-6180
▁확인하고	-6181
▁떡	-6182
▁타입	-6183
▁자유롭게	-6184
▁결정을	-6185
▁편하게	-6186
36	-6187
▁맑	-6188
▁몬	-6189
▁멸	-6190
▁up	-6191
▁기쁨	-6192
▁정원	-6193
▁떨어진	-6194
▁놀라	-6195
이프	-6196
▁2006	-6197
낸다	-6198
▁대해서도	-6199
종을	-6200
CD	-6201
▁선고	-6202
▁머리를	-6203
▁만들었다	-6204
▁교과	-6205
액을	-6206
아니	-6207
▁거야	-6208
남도	-6209
▁신분	-6210
▁붕	-6211
▁이정	-6212
▁것보다	-6213
▁어렵다	-6214
EM	-6215
▁진행된	-6216
▁재배	-6217
▁아닌가	-6218
▁거대한	-6219
쉽게	-6220
▁사이에서	-6221
비의	-6222
전체	-6223
▁◇	-6224
▁아웃	-6225
재생	-6226
위치	-6227
▁de	-6228
▁숙소	-6229
동이	-6230
.,	-6231
요한	-6232
▁커플	-6233
▁옆에	-6234
천시	-6235
인들은	-6236
▁중독	-6237
부문	-6238
▁어른	-6239
났습니다	-6240
으니까	-6241
▁흡수	-6242
▁지닌	-6243
▁큐	-6244
지사	-6245
▁장식	-6246
설명	-6247
▁포함된	-6248
팀은	-6249
▁대법	-6250
순위	-6251
▁미세먼	-6252
석은	-6253
▁직후	-6254
▁심리	-6255
▁복귀	-6256
▁보며	-6257
▁건강을	-6258
드리고	-6259
▁결과는	-6260
▁세계를	-6261
▁곁	-6262
▁비교적	-6263
▁제품에	-6264
-21	-6265
▁아우	-6266
안의	-6267
▁05	-6268
▁참여한	-6269
▁유행	-6270
▁주행	-6271
cl	-6272
▁된다는	-6273
▁청약	-6274
▁유엔	-6275
것은	-6276
▁냉장고	-6277
▁im	-6278
금의	-6279
▁옮겨	-6280
▁가속	-6281
▁Or	-6282
▁상당한	-6283
성급	-6284
▁유형의	-6285
▁할머니	-6286
▁합병	-6287
NA	-6288
▁하반기	-6289
▁잎	-6290
화점	-6291
3.	-6292
▁보지	-6293
▁아이가	-6294
▁민감	-6295
▁설명과	-6296
ystem	-6297
ents	-6298
▁가면	-6299
▁농촌	-6300
기념	-6301
4)	-6302
선은	-6303
시까지	-6304
구니	-6305
▁예정입니다	-6306
나이	-6307
권은	-6308
사례	-6309
▁세상에	-6310
▁시간은	-6311
학회	-6312
폭력	-6313
체에	-6314
▁기술이	-6315
▁인기가	-6316
▁룰	-6317
▁HD	-6318
▁허리	-6319
고속	-6320
▁아이콘	-6321
▁아티	-6322
▁지하철	-6323
▁오토	-6324
쁘게	-6325
▁정식	-6326
▁오래된	-6327
▁자아	-6328
▁검사를	-6329
▁팝	-6330
▁가질	-6331
▁아무런	-6332
▁관리자	-6333
▁나오고	-6334
▁넥	-6335
▁로마	-6336
▁충돌	-6337
정과	-6338
카데	-6339
▁기재	-6340
▁단어	-6341
▁적절	-6342
▁원격	-6343
▁봅니다	-6344
▁심한	-6345
겠어요	-6346
▁레벨	-6347
계에	-6348
▁남녀	-6349
▁더보기	-6350
연히	-6351
▁절약	-6352
▁문제로	-6353
▁오늘의	-6354
전은	-6355
▁입주	-6356
▁창원	-6357
권에	-6358
하였으며	-6359
야합니다	-6360
축제	-6361
스피	-6362
▁패스	-6363
▁소리를	-6364
▁맛이	-6365
▁일치	-6366
▁내내	-6367
▁부착	-6368
▁외환	-6369
ash	-6370
리핀	-6371
축구	-6372
양을	-6373
해지고	-6374
ru	-6375
올림픽	-6376
관과	-6377
▁레드	-6378
DA	-6379
구청	-6380
▁타임	-6381
▁많고	-6382
▁탄소	-6383
old	-6384
▁같아	-6385
▁생물	-6386
▁크림	-6387
검색	-6388
사인	-6389
사이즈	-6390
▁CEO	-6391
▁시상	-6392
모를	-6393
▁120	-6394
▁첨단	-6395
석열	-6396
시키기	-6397
▁론	-6398
▁사이버	-6399
주시면	-6400
▁상환	-6401
▁해피	-6402
BA	-6403
▁프레임	-6404
▁그녀가	-6405
▁끊임없이	-6406
현지시간	-6407
▁컨설팅	-6408
▁And	-6409
▁목차	-6410
체는	-6411
▁미사	-6412
▁입은	-6413
▁것만	-6414
▁06	-6415
라의	-6416
▁창작	-6417
▁어찌	-6418
▁시범	-6419
▁용인	-6420
▁영화를	-6421
디션	-6422
▁—	-6423
▁신용카드	-6424
스토리	-6425
▁대학교	-6426
▁해변	-6427
소개팅	-6428
▁이승	-6429
▁업그레이드	-6430
▁분이	-6431
olog	-6432
▁끝까지	-6433
▁안보	-6434
셔도	-6435
▁자리에	-6436
산시	-6437
박스	-6438
십니까	-6439
▁청와대	-6440
▁책은	-6441
▁일자	-6442
크라이나	-6443
▁아래와	-6444
▁악화	-6445
▁만성	-6446
▁자리에서	-6447
▁배당	-6448
▁드는	-6449
하기를	-6450
▁권리	-6451
▁기본적인	-6452
▁첨부	-6453
스포	-6454
▁일찍	-6455
ock	-6456
갑니다	-6457
▁이벤트를	-6458
▁머신	-6459
▁여부	-6460
오류	-6461
협의회	-6462
▁무려	-6463
~2	-6464
산이	-6465
▁대사	-6466
▁프로모션	-6467
▁단순한	-6468
▁발매	-6469
▁정착	-6470
배우	-6471
▁65	-6472
▁가방	-6473
▁회사가	-6474
CT	-6475
인사	-6476
▁이상을	-6477
ous	-6478
▁없었	-6479
▁고객을	-6480
렉션	-6481
▁위에서	-6482
▁선임	-6483
▁유출	-6484
▁스크린	-6485
▁내는	-6486
67	-6487
▁세계적인	-6488
▁국회의원	-6489
▁기원	-6490
▁당신을	-6491
▁타이틀	-6492
▁폐기	-6493
▁거래를	-6494
2.	-6495
▁입찰	-6496
▁솔직	-6497
▁인력	-6498
래도	-6499
▁컨트롤	-6500
▁취재	-6501
▁스튜디오	-6502
▁화려한	-6503
▁받기	-6504
▁질문을	-6505
▁불교	-6506
▁횡	-6507
▁제외한	-6508
▁얻은	-6509
▁내용에	-6510
▁보면서	-6511
미가	-6512
합니까	-6513
로가	-6514
복을	-6515
▁긍정적인	-6516
▁곳을	-6517
▁활약	-6518
대문	-6519
▁지혜	-6520
지않	-6521
▁스페인	-6522
▁무너	-6523
으므로	-6524
기록	-6525
ool	-6526
▁사용됩니다	-6527
▁예능	-6528
물질	-6529
▁예상된다	-6530
▁안드로이드	-6531
▁모색	-6532
▁이유를	-6533
방향	-6534
▁행동을	-6535
▁없으며	-6536
▁철학	-6537
▁reserved	-6538
액은	-6539
이죠	-6540
▁오브	-6541
▁눈길을	-6542
해질	-6543
▁멈추	-6544
▁크다	-6545
▁49	-6546
▁연방	-6547
RE	-6548
▁부분에	-6549
▁04	-6550
▁ad	-6551
아는	-6552
▁추석	-6553
▁무한	-6554
▁코인	-6555
졌고	-6556
▁Man	-6557
▁무엇인지	-6558
▁금속	-6559
려서	-6560
▁급여	-6561
▁캔	-6562
▁학부모	-6563
▁현재의	-6564
▁For	-6565
▁3,	-6566
▁해제	-6567
세트	-6568
orld	-6569
▁떼	-6570
▁곳으로	-6571
▁고유	-6572
▁금지되어	-6573
시험대비	-6574
▁진화	-6575
▁으로	-6576
▁못해	-6577
▁lo	-6578
벤처	-6579
▁빙	-6580
▁밝은	-6581
▁방문해	-6582
ational	-6583
주에	-6584
▁준비를	-6585
▁적어도	-6586
토리	-6587
께서는	-6588
▁박근혜	-6589
▁느꼈	-6590
▁was	-6591
▁시장이	-6592
▁오직	-6593
▁협약	-6594
▁들이	-6595
▁얇	-6596
▁현재까지	-6597
▁경상	-6598
▁시내	-6599
▁07	-6600
줬다	-6601
름이	-6602
▁포커	-6603
기한	-6604
85	-6605
▁불일치	-6606
OC	-6607
▁진행할	-6608
▁일이다	-6609
말을	-6610
▁개막	-6611
르크	-6612
연의	-6613
▁얻고	-6614
84	-6615
..."	-6616
▁느낀	-6617
업무	-6618
▁사로잡	-6619
▁사용을	-6620
심의	-6621
유를	-6622
▁헬스	-6623
TC	-6624
0-10	-6625
▁쏘	-6626
▁조리	-6627
▁뒤로	-6628
▁간주	-6629
▁한다면	-6630
서로	-6631
▁시대에	-6632
▁시공	-6633
▁원내	-6634
▁선진	-6635
▁염증	-6636
ccess	-6637
▁이혼	-6638
되었고	-6639
가루	-6640
▁스웨	-6641
▁이익을	-6642
▁형사	-6643
▁치매	-6644
▁곰	-6645
▁붉은	-6646
서트	-6647
▁있었지만	-6648
부로	-6649
▁일환	-6650
▁억제	-6651
▁카카오톡	-6652
▁식사를	-6653
▁건너	-6654
▁비율	-6655
▁보유한	-6656
VD	-6657
▁그러므로	-6658
▁되는데	-6659
enc	-6660
▁옵션을	-6661
▁방어	-6662
창업	-6663
▁소개해	-6664
▁충북	-6665
▁평범	-6666
시켰다	-6667
등학생	-6668
The	-6669
▁출산	-6670
▁밝힌	-6671
▁rights	-6672
▁주신	-6673
2015	-6674
선으로	-6675
▁불법적	-6676
▁pr	-6677
▁메타	-6678
▁존중	-6679
▁놀이	-6680
▁후에는	-6681
▁의뢰	-6682
▁아름답	-6683
시한	-6684
▁귀여	-6685
본다	-6686
▁매각	-6687
sp	-6688
▁모으	-6689
▁논란이	-6690
명과	-6691
▁개편	-6692
천만	-6693
▁하나입니다	-6694
▁서서	-6695
▁아예	-6696
▁맛을	-6697
▁국가의	-6698
▁제공해	-6699
었다고	-6700
▁이름이	-6701
▁부인	-6702
▁역량	-6703
▁8.	-6704
▁몸이	-6705
▁에어컨	-6706
▁고등학교	-6707
▁은혜	-6708
다음	-6709
▁틈	-6710
▁올해는	-6711
서와	-6712
▁강아	-6713
▁춤	-6714
▁아닐까	-6715
▁진행하는	-6716
재배포	-6717
▁지식을	-6718
▁차를	-6719
▁발생합니다	-6720
삼성	-6721
▁해보	-6722
주행	-6723
▁단기	-6724
▁진행되는	-6725
스키	-6726
스마트	-6727
타운	-6728
▁목소리를	-6729
▁지출	-6730
▁뭘	-6731
▁호르몬	-6732
음에도	-6733
▁분석을	-6734
셨다	-6735
▁지자체	-6736
▁애니메이션	-6737
▁캠페인	-6738
워드	-6739
▁줍니다	-6740
용으로	-6741
▁포함하여	-6742
▁선배	-6743
천히	-6744
▁감독은	-6745
____	-6746
농업	-6747
▁고령	-6748
▁없애	-6749
절을	-6750
▁신종	-6751
▁아시	-6752
▁전형	-6753
▁분들	-6754
ound	-6755
▁SBS	-6756
▁비용이	-6757
gh	-6758
실한	-6759
언론	-6760
▁알아보기	-6761
▁탁월	-6762
누리	-6763
검증	-6764
자료를	-6765
인치	-6766
▁자세히보기	-6767
▁의하여	-6768
▁며칠	-6769
TE	-6770
PE	-6771
▁대여	-6772
▁01	-6773
evel	-6774
▁녀	-6775
학원	-6776
▁느끼는	-6777
대생	-6778
▁진보	-6779
▁기기	-6780
▁30%	-6781
▁필요로	-6782
▁방침이다	-6783
▁특성을	-6784
▁도메	-6785
▁훈	-6786
런스	-6787
▁모델을	-6788
▁색상	-6789
▁삼성전자	-6790
아트	-6791
발을	-6792
밀한	-6793
하는지	-6794
▁한인	-6795
있어	-6796
▁간이	-6797
▁사람들과	-6798
▁동참	-6799
자도	-6800
국내	-6801
개로	-6802
▁땀	-6803
line	-6804
행사	-6805
▁부활	-6806
줘야	-6807
▁ab	-6808
▁패키지	-6809
▁매달	-6810
집을	-6811
이한	-6812
▁높여	-6813
▁유전	-6814
▁이름으로	-6815
▁호소	-6816
very	-6817
성인	-6818
▁성능을	-6819
▁단백질	-6820
능력	-6821
▁한국어	-6822
▁가벼운	-6823
▁투쟁	-6824
▁고위	-6825
▁부부	-6826
.25	-6827
하지는	-6828
▁칸	-6829
▁장학	-6830
▁관리를	-6831
▁사용합니다	-6832
길이	-6833
▁납부	-6834
▁출장마사지	-6835
udy	-6836
▁설문	-6837
▁문화를	-6838
74	-6839
네시아	-6840
▁Certif	-6841
▁무언	-6842
▁한화	-6843
BM	-6844
공업	-6845
▁손실	-6846
▁플라	-6847
▁유사한	-6848
리포	-6849
▁구성되어	-6850
해온	-6851
수술	-6852
▁폐쇄	-6853
▁가격을	-6854
▁전파	-6855
▁본격적인	-6856
것을	-6857
▁기분이	-6858
▁동생	-6859
▁세계적으로	-6860
▁Pr	-6861
프를	-6862
ject	-6863
지금	-6864
▁크고	-6865
▁법정	-6866
▁시작하는	-6867
▁표면	-6868
▁주지	-6869
▁측면에서	-6870
다시	-6871
▁발견시	-6872
제와	-6873
▁손님	-6874
가구	-6875
▁그리스도	-6876
마를	-6877
▁유용한	-6878
▁세련	-6879
▁고백	-6880
▁상황이다	-6881
▁44	-6882
▁예쁜	-6883
▁개발한	-6884
▁힐링	-6885
▁대만	-6886
▁채권	-6887
점과	-6888
▁약간의	-6889
▁천천히	-6890
▁세계의	-6891
▁비가	-6892
▁오디오	-6893
tern	-6894
▁받는다	-6895
▁재밌	-6896
▁순환	-6897
ung	-6898
▁그들을	-6899
데일리	-6900
▁효능	-6901
져야	-6902
▁개입	-6903
서비스를	-6904
▁복구	-6905
▁더해	-6906
▁하루에	-6907
▁필요할	-6908
▁주간	-6909
▁낯	-6910
놀이	-6911
▁옷을	-6912
▁출력	-6913
킵니다	-6914
가능한	-6915
▁연애	-6916
▁조사를	-6917
▁김성	-6918
카데미	-6919
ext	-6920
▁sp	-6921
▁회계	-6922
▁진행한다	-6923
▁영업이익	-6924
▁포르	-6925
2023	-6926
les	-6927
▁닦	-6928
▁지상	-6929
배포는	-6930
▁임금	-6931
▁마스터	-6932
▁켜	-6933
메이	-6934
▁경계	-6935
▁낮아	-6936
▁물리	-6937
▁지금도	-6938
▁태국	-6939
▁잊지	-6940
▁가죽	-6941
▁싱가	-6942
▁휠	-6943
▁영혼	-6944
▁나타나는	-6945
▁운행	-6946
!”	-6947
▁분쟁요소	-6948
▁Questions	-6949
▁정책에	-6950
▁없기	-6951
선택	-6952
FA	-6953
▁프로젝트를	-6954
광역시	-6955
▁것이라	-6956
▁발사	-6957
▁넘치는	-6958
▁손으로	-6959
결을	-6960
▁신청을	-6961
▁예배	-6962
▁포스트	-6963
▁아트	-6964
1000	-6965
▁모듈	-6966
동안마	-6967
▁청주	-6968
▁구간	-6969
피해	-6970
▁간담	-6971
▁그걸	-6972
개국	-6973
▁확인해	-6974
▁관심과	-6975
▁대장	-6976
▁위치를	-6977
전기	-6978
.15	-6979
▁원자	-6980
▁이번에는	-6981
▁패널	-6982
▁쫓	-6983
로서의	-6984
ade	-6985
95	-6986
조회	-6987
MC	-6988
▁높이고	-6989
▁현상	-6990
▁보실	-6991
무역	-6992
▁상품은	-6993
▁체크아웃	-6994
▁개발을	-6995
▁위험이	-6996
▁토요일	-6997
▁사회의	-6998
아파트	-6999
▁들어간	-7000
전시	-7001
▁2004	-7002
▁깨달	-7003
▁한미	-7004
▁사랑의	-7005
▁중심의	-7006
▁CJ	-7007
▁격려	-7008
▁럭	-7009
사장	-7010
▁오피	-7011
▁출전	-7012
매매	-7013
▁부처	-7014
때문에	-7015
▁고객에게	-7016
▁김종	-7017
▁폴더	-7018
된다는	-7019
▁일하는	-7020
▁하나를	-7021
▁솔루션을	-7022
된다면	-7023
▁아이를	-7024
론을	-7025
▁유입	-7026
▁소매	-7027
▁국민의힘	-7028
▁Ap	-7029
▁경주	-7030
▁단단	-7031
러스트	-7032
▁결과에	-7033
▁갖는	-7034
▁시선을	-7035
티비	-7036
평양	-7037
▁빗	-7038
▁차가	-7039
▁역량을	-7040
▁우크라이나	-7041
▁끝난	-7042
▁어두	-7043
▁쿠키	-7044
esign	-7045
끼리	-7046
▁줄어	-7047
치기	-7048
▁인용	-7049
▁Sc	-7050
▁Pre	-7051
▁사무실	-7052
▁있을까요	-7053
▁때에는	-7054
.5%	-7055
작업	-7056
개선	-7057
▁필터	-7058
▁사람과	-7059
ower	-7060
▁부채	-7061
▁올린	-7062
▁대표가	-7063
와서	-7064
▁속도를	-7065
▁하였	-7066
▁매입	-7067
▁참여할	-7068
▁화성	-7069
▁제정	-7070
▁수리	-7071
▁questions	-7072
▁과일	-7073
eth	-7074
In	-7075
▁AS	-7076
PL	-7077
eed	-7078
▁전세	-7079
되거나	-7080
▁링크를	-7081
▁다들	-7082
투어	-7083
▁생각보다	-7084
▁캠핑	-7085
▁전부터	-7086
▁Wh	-7087
▁서비스는	-7088
▁왜냐	-7089
3,	-7090
▁싱글	-7091
▁시계	-7092
▁USB	-7093
▁탭	-7094
▁저자	-7095
▁광범	-7096
▁받아들이	-7097
▁카드를	-7098
——	-7099
경이	-7100
▁셈이다	-7101
리다	-7102
▁스프	-7103
참여	-7104
▁경력	-7105
▁굿	-7106
▁채워	-7107
재료	-7108
▁한국에서	-7109
▁시작할	-7110
양이	-7111
!!!!	-7112
▁사업에	-7113
▁최적화	-7114
▁담겨	-7115
▁반대로	-7116
바닥	-7117
▁와인	-7118
▁동원	-7119
▁높이는	-7120
▁사건을	-7121
일자	-7122
▁주가	-7123
▁런던	-7124
▁음악을	-7125
▁||	-7126
▁소리가	-7127
▁하더라도	-7128
▁가졌다	-7129
글로벌	-7130
▁이틀	-7131
▁올랐다	-7132
소재	-7133
erm	-7134
후보	-7135
미니	-7136
▁같은데	-7137
▁본격적으로	-7138
▁방사	-7139
▁욕실	-7140
▁의미합니다	-7141
▁효과적으로	-7142
▁민주주의	-7143
▁돈이	-7144
▁하던	-7145
▁된다고	-7146
▁게임의	-7147
순환	-7148
수원	-7149
▁아니었다	-7150
▁실시간으로	-7151
이로	-7152
▁재능	-7153
▁이해할	-7154
OD	-7155
시코	-7156
▁참여하는	-7157
▁치유	-7158
▁드라이브	-7159
▁스탠	-7160
호를	-7161
▁비치	-7162
▁들어가는	-7163
예산	-7164
▁프로그램은	-7165
ise	-7166
우기	-7167
▁초등학교	-7168
지수	-7169
▁생겼	-7170
▁것이었다	-7171
oy	-7172
▁담고	-7173
공학	-7174
ement	-7175
심한	-7176
▁여러가지	-7177
▁찰	-7178
oint	-7179
국인	-7180
▁바른	-7181
▁주력	-7182
▁경로	-7183
▁의식	-7184
▁가려	-7185
롭고	-7186
▁메일	-7187
▁마십시오	-7188
구성	-7189
트와	-7190
▁칼럼	-7191
비교	-7192
▁보낼	-7193
▁말로	-7194
▁치아	-7195
▁SC	-7196
▁김포	-7197
▁섬유	-7198
▁최근에는	-7199
▁사전에	-7200
모임	-7201
▁대안	-7202
▁연극	-7203
▁위험을	-7204
▁성공적으로	-7205
▁알아야	-7206
▁어려울	-7207
▁비대면	-7208
▁시대의	-7209
있고	-7210
▁디자인을	-7211
RL	-7212
▁모른다	-7213
형이	-7214
▁무관	-7215
공연	-7216
▁본인의	-7217
▁고성	-7218
▁보고서는	-7219
비에	-7220
들에게는	-7221
▁It	-7222
▁이르기	-7223
주신	-7224
▁오퍼	-7225
▁한반도	-7226
▁:)	-7227
▁Ph	-7228
이었던	-7229
▁생생	-7230
중계	-7231
▁지향	-7232
▁클래식	-7233
.18	-7234
냐고	-7235
ital	-7236
원장	-7237
▁챙겨	-7238
우리는	-7239
자연	-7240
▁미친	-7241
▁왔습니다	-7242
▁진행된다	-7243
▁실제내용	-7244
igh	-7245
▁필리핀	-7246
▁product	-7247
싱턴	-7248
▁전화를	-7249
▁이것을	-7250
▁본문내용	-7251
▁en	-7252
▁축소	-7253
호는	-7254
▁초점을	-7255
▁고향	-7256
▁공개했다	-7257
▁꿈꾸	-7258
크를	-7259
광주	-7260
▁뮤지컬	-7261
▁영웅	-7262
▁사이트에	-7263
▁응급	-7264
조에	-7265
▁엠	-7266
▁material	-7267
▁갱	-7268
▁좋겠다	-7269
의도	-7270
▁부담을	-7271
▁부서	-7272
생활을	-7273
▁제품으로	-7274
▁이기	-7275
▁내세	-7276
▁공인	-7277
iss	-7278
▁업로드	-7279
FT	-7280
▁굳이	-7281
▁피드	-7282
ann	-7283
방침	-7284
▁App	-7285
위기	-7286
테일	-7287
▁가리	-7288
축은행	-7289
▁un	-7290
▁진행했다	-7291
▁1/	-7292
▁파일오류	-7293
ubl	-7294
미널	-7295
▁우려가	-7296
▁제공하기	-7297
점의	-7298
▁당뇨병	-7299
▁Bl	-7300
▁경쟁력	-7301
▁시나	-7302
인권	-7303
았어요	-7304
바람	-7305
▁하나님이	-7306
▁고대	-7307
▁한층	-7308
ah	-7309
sc	-7310
▁중복자료	-7311
고한	-7312
▁No	-7313
▁삼성전	-7314
승을	-7315
▁실용	-7316
▁박물관	-7317
▁컵	-7318
▁스킨	-7319
▁의원이	-7320
지자	-7321
우가	-7322
▁개인정보를	-7323
▁출간	-7324
▁이해하고	-7325
▁싶다면	-7326
▁보내는	-7327
▁쟁	-7328
정신	-7329
▁건립	-7330
▁무대	-7331
▁포함해	-7332
▁보자	-7333
▁지분	-7334
▁그건	-7335
목적	-7336
조원	-7337
▁지휘	-7338
▁수요가	-7339
▁노력하고	-7340
▁마세요	-7341
~!	-7342
▁댄	-7343
▁마치고	-7344
etw	-7345
지니어	-7346
▁사람도	-7347
ional	-7348
▁그중	-7349
▁강원도	-7350
▁때부터	-7351
▁되며	-7352
▁얻는	-7353
▁사이트에서	-7354
머스	-7355
▁이자	-7356
▁고객센터의	-7357
경쟁	-7358
▁미국에서	-7359
▁ᅲᅲ	-7360
▁트리	-7361
▁내게	-7362
▁다음은	-7363
ervice	-7364
감은	-7365
셔츠	-7366
▁MS	-7367
타워	-7368
▁성령	-7369
▁탐색	-7370
▁어떨	-7371
려야	-7372
▁하겠다	-7373
▁아무도	-7374
▁개인적으로	-7375
▁자격증	-7376
▁아이디	-7377
▁산책	-7378
숨을	-7379
겠지	-7380
▁오피스	-7381
드라마	-7382
600	-7383
▁빠르고	-7384
▁것들이	-7385
ins	-7386
▁낮추	-7387
▁적어	-7388
운용	-7389
▁학생들의	-7390
▁신고센터를	-7391
▁피트	-7392
▁행사는	-7393
▁선박	-7394
▁선택하는	-7395
▁위대한	-7396
주식	-7397
놓은	-7398
▁세미나	-7399
된다고	-7400
▁상대방	-7401
에서부터	-7402
▁빨간	-7403
겨진	-7404
주차	-7405
▁장관은	-7406
ors	-7407
▁Pl	-7408
▁끌고	-7409
▁보낸	-7410
▁헌법	-7411
▁수준으로	-7412
▁사우	-7413
▁가격에	-7414
▁유지하고	-7415
직을	-7416
▁한달	-7417
▁단축	-7418
pro	-7419
▁그날	-7420
감사	-7421
ons	-7422
다란	-7423
▁임명	-7424
정보를	-7425
져서	-7426
기본	-7427
▁600	-7428
▁터치	-7429
▁때로는	-7430
▁모드	-7431
▁사진이	-7432
▁me	-7433
▁분야에	-7434
oney	-7435
조가	-7436
▁아무것도	-7437
▁하우스	-7438
▁복원	-7439
OV	-7440
▁시대를	-7441
▁오버	-7442
61	-7443
▁없었던	-7444
to	-7445
예방	-7446
▁이어지는	-7447
▁이수	-7448
▁공원	-7449
▁소형	-7450
▁애완동물	-7451
▁급증	-7452
▁SU	-7453
▁프라이	-7454
스티벌	-7455
▁사용이	-7456
▁액션	-7457
모든	-7458
▁공공기관	-7459
다이	-7460
영은	-7461
▁가깝	-7462
▁매력적인	-7463
세로	-7464
▁로드	-7465
▁이란	-7466
▁댓글이	-7467
번에	-7468
▁출장샵	-7469
▁징역	-7470
미는	-7471
▁임원	-7472
올해	-7473
▁자궁	-7474
잖아	-7475
▁위치에	-7476
▁뿌리	-7477
여야	-7478
▁방향을	-7479
▁로맨	-7480
▁있죠	-7481
▁완벽하게	-7482
▁인사를	-7483
▁비록	-7484
일에는	-7485
▁각각의	-7486
▁▷	-7487
등의	-7488
▁식별	-7489
▁할지	-7490
▁가볍게	-7491
담보대출	-7492
▁제외하고	-7493
▁그에게	-7494
▁김태	-7495
naver	-7496
▁받아야	-7497
▁라디오	-7498
▁등도	-7499
건이	-7500
▁재미있는	-7501
▁감지	-7502
▁운송	-7503
▁비전	-7504
▁앞장	-7505
▁최적의	-7506
▁신선한	-7507
▁대표하는	-7508
▁증가하고	-7509
▁아티스트	-7510
종이	-7511
급여	-7512
치에	-7513
▁제재	-7514
▁배려	-7515
▁1,000	-7516
▁목소리가	-7517
▁이르기까지	-7518
▁핏	-7519
았을	-7520
▁거기에	-7521
▁드디어	-7522
이게	-7523
따라	-7524
▁토대로	-7525
란히	-7526
베이스	-7527
▁(2)	-7528
ild	-7529
▁닮	-7530
▁합류	-7531
EST	-7532
▁스키	-7533
▁본인이	-7534
▁열었다	-7535
적한	-7536
▁활용하여	-7537
▁현재는	-7538
ings	-7539
led	-7540
▁AM	-7541
로지	-7542
▁찾으	-7543
▁공간이	-7544
▁가격으로	-7545
주간	-7546
▁관련이	-7547
쾌한	-7548
▁드릴	-7549
▁깨닫	-7550
▁한경	-7551
SS	-7552
장기	-7553
드려요	-7554
▁젤	-7555
▁연휴	-7556
▁이성	-7557
▁자치	-7558
사실	-7559
평균	-7560
▁식으로	-7561
▁요구하는	-7562
▁본질	-7563
▁감정을	-7564
주년을	-7565
위원회는	-7566
▁안전을	-7567
야구	-7568
▁최근에	-7569
▁재개	-7570
▁회전	-7571
▁게임은	-7572
▁골드	-7573
▁허가	-7574
▁물에	-7575
▁만나는	-7576
▁출장안마	-7577
형의	-7578
▁보도했다	-7579
▁소스	-7580
▁저지	-7581
▁들을	-7582
▁유동	-7583
투스	-7584
▁김정은	-7585
▁독서	-7586
▁활동에	-7587
▁레시피	-7588
강의	-7589
▁마사	-7590
▁브로	-7591
▁돋보	-7592
▁밟	-7593
▁가격대	-7594
▁대폭	-7595
임금	-7596
▁알림	-7597
▁99	-7598
▁아무래도	-7599
▁신입	-7600
▁한마디	-7601
온다	-7602
▁받았습니다	-7603
go	-7604
▁리얼	-7605
연대	-7606
▁밝히	-7607
▁위탁	-7608
AG	-7609
▁iP	-7610
▁무서	-7611
▁제보	-7612
▁어려움	-7613
▁처음에는	-7614
.1%	-7615
부터는	-7616
▁생길	-7617
대체	-7618
▁압축	-7619
reat	-7620
아동	-7621
▁모자	-7622
신은	-7623
연맹	-7624
▁뷰티	-7625
▁특별히	-7626
▁넘게	-7627
▁하거나	-7628
▁CC	-7629
▁파리	-7630
▁게스트	-7631
▁특유의	-7632
▁봐야	-7633
소서	-7634
행위	-7635
▁스킬	-7636
▁앙	-7637
▁공개된	-7638
▁사용자의	-7639
~4	-7640
▁물이	-7641
▁신중	-7642
▁품목	-7643
▁75	-7644
예정	-7645
즈는	-7646
▁머리카	-7647
▁지역을	-7648
▁su	-7649
▁지원하고	-7650
▁En	-7651
▁올라가	-7652
▁햇살론	-7653
이와	-7654
자들과	-7655
▁차원에서	-7656
▁계시	-7657
사항을	-7658
▁하시는	-7659
▁호텔에서	-7660
▁지금의	-7661
ve	-7662
▁플러스	-7663
▁즉각	-7664
▁그렇다고	-7665
▁꺼내	-7666
▁들어오	-7667
any	-7668
▁가득한	-7669
▁절감	-7670
냐는	-7671
미팅	-7672
▁토지	-7673
콘텐츠	-7674
놀이터	-7675
▁전화번호	-7676
▁이어질	-7677
▁부정적인	-7678
▁플러	-7679
▁플랫폼을	-7680
▁수석	-7681
▁기다리고	-7682
▁관내	-7683
화하는	-7684
혈압	-7685
▁마친	-7686
▁집계	-7687
▁감동	-7688
사들이	-7689
▁내리	-7690
▁웰	-7691
방안	-7692
▁능력이	-7693
담당	-7694
하에	-7695
담을	-7696
▁명품	-7697
▁Dumps	-7698
▁가동	-7699
▁융합	-7700
▁언니	-7701
▁얻어	-7702
▁밝혔습니다	-7703
load	-7704
▁Book	-7705
▁설명을	-7706
89	-7707
기만	-7708
▁2003	-7709
▁지니	-7710
▁셰	-7711
▁매력을	-7712
터가	-7713
액이	-7714
백을	-7715
▁산림	-7716
▁차세대	-7717
▁날이	-7718
▁아마존	-7719
▁이슬	-7720
물과	-7721
브라	-7722
호의	-7723
▁템	-7724
▁관측	-7725
▁폐지	-7726
▁유해	-7727
▁조례	-7728
▁자꾸	-7729
▁내일	-7730
▁OS	-7731
▁10.	-7732
름을	-7733
▁되돌	-7734
”,	-7735
oci	-7736
▁햇	-7737
경은	-7738
바다	-7739
▁묻는	-7740
렬한	-7741
▁예외	-7742
▁환경에서	-7743
▁선택을	-7744
▁해결할	-7745
▁2002	-7746
▁제공되는	-7747
▁모습으로	-7748
▁에스	-7749
▁농협	-7750
▁대량	-7751
▁윤석열	-7752
▁뿐이다	-7753
▁뚫	-7754
▁황금	-7755
▁위생	-7756
▁03	-7757
▁자신에게	-7758
멕시코	-7759
▁매수	-7760
▁펴	-7761
▁몇몇	-7762
▁초래	-7763
▁철저히	-7764
47	-7765
▁수록	-7766
▁사실은	-7767
▁조회수	-7768
news	-7769
▁9.	-7770
만족	-7771
유럽	-7772
팀이	-7773
row	-7774
▁리조트	-7775
▁포함됩니다	-7776
▁토토사이트	-7777
▁갖게	-7778
▁금액을	-7779
▁마법	-7780
▁겉	-7781
▁갔다	-7782
▁노후	-7783
▁코로나바이러스	-7784
TF	-7785
▁가시	-7786
▁극대화	-7787
▁코드를	-7788
62	-7789
설을	-7790
▁다음에	-7791
▁건강에	-7792
▁구매할	-7793
▁유지하는	-7794
▁사항이	-7795
▁새해	-7796
소와	-7797
▁살아가는	-7798
▁고품질	-7799
▁섹션	-7800
▁죽은	-7801
▁환경에	-7802
oh	-7803
심사	-7804
▁의도	-7805
▁원인이	-7806
레인	-7807
▁종로	-7808
▁소장	-7809
▁상생	-7810
▁미래에	-7811
혔다	-7812
▁2024	-7813
▁덩	-7814
▁시간과	-7815
해왔다	-7816
▁라이트	-7817
학의	-7818
해양	-7819
▁그림을	-7820
▁기대된다	-7821
청년	-7822
교수	-7823
▁가기	-7824
▁우유	-7825
▁’	-7826
▁인도네시아	-7827
▁스트리	-7828
▁보여주고	-7829
차로	-7830
▁책임은	-7831
▁먹어	-7832
tr	-7833
▁기준을	-7834
▁피부에	-7835
▁상담을	-7836
수사	-7837
▁듣는	-7838
▁get	-7839
▁압도	-7840
▁유익	-7841
▁정지	-7842
민이	-7843
▁다채	-7844
▁족	-7845
기계	-7846
▁편리한	-7847
▁수준을	-7848
▁일어난	-7849
ther	-7850
▁말한	-7851
할지	-7852
▁자살	-7853
무는	-7854
씨를	-7855
▁이곳은	-7856
▁창립	-7857
▁계기로	-7858
▁돕는	-7859
어린이	-7860
느라	-7861
클리	-7862
▁덤프공부	-7863
▁이주	-7864
▁일환으로	-7865
▁여수	-7866
",	-7867
센터에서	-7868
6)	-7869
▁250	-7870
앵커	-7871
통을	-7872
시와	-7873
▁친구가	-7874
▁경찰은	-7875
▁기록을	-7876
▁롱	-7877
인도	-7878
▁괜찮은	-7879
▁테크	-7880
▁고려해	-7881
▁이른바	-7882
▁피로	-7883
▁읽기	-7884
▁선출	-7885
▁과도한	-7886
▁간단하게	-7887
▁합리적인	-7888
▁김동	-7889
코올	-7890
▁구미	-7891
피아	-7892
3%	-7893
점검	-7894
▁리스트	-7895
런트	-7896
▁저의	-7897
억원으로	-7898
▁불어	-7899
▁마시	-7900
▁신제품	-7901
▁떨어지는	-7902
수익	-7903
▁빅데이터	-7904
▁출근	-7905
군을	-7906
▁오일	-7907
▁일관	-7908
▁_	-7909
소로	-7910
▁시는	-7911
소방	-7912
▁대우	-7913
▁알고리즘	-7914
▁더블	-7915
▁칭찬	-7916
까지도	-7917
잡고	-7918
▁다르다	-7919
▁찾은	-7920
▁싫어	-7921
▁온라인으로	-7922
▁비싼	-7923
EX	-7924
▁인터넷을	-7925
amp	-7926
색을	-7927
연은	-7928
디지털	-7929
▁응시	-7930
비와	-7931
▁평택	-7932
비로	-7933
▁않는다는	-7934
재산	-7935
▁오리	-7936
land	-7937
▁가난	-7938
▁조건을	-7939
았지만	-7940
▁비트코인	-7941
▁”	-7942
▁내장	-7943
▁고기	-7944
▁유산	-7945
▁연구는	-7946
▁동아	-7947
▁{	-7948
크로	-7949
▁동남	-7950
세는	-7951
협약	-7952
▁vs	-7953
▁놈	-7954
▁미국과	-7955
DP	-7956
페이지를	-7957
마케팅	-7958
▁달콤	-7959
▁저작	-7960
▁다수의	-7961
.2%	-7962
▁충청	-7963
▁하나님을	-7964
▁Se	-7965
거리는	-7966
▁잠깐	-7967
▁수급	-7968
▁직장인	-7969
▁소외	-7970
▁기반의	-7971
짜리	-7972
▁쿨	-7973
ric	-7974
▁주변에	-7975
▁보인	-7976
선물	-7977
▁연봉	-7978
6%	-7979
PN	-7980
▁리더십	-7981
▁트래	-7982
▁64	-7983
▁포럼	-7984
대통령	-7985
▁나가는	-7986
▁직면	-7987
감으로	-7988
이므로	-7989
▁적당한	-7990
▁공직	-7991
▁구체적으로	-7992
▁카운	-7993
링을	-7994
▁있는가	-7995
▁He	-7996
▁보게	-7997
▁말하고	-7998
▁Cont	-7999
교육을	-8000
화이트	-8001
▁말도	-8002
▁은퇴	-8003
▁가맹	-8004
됐습니다	-8005
▁보다는	-8006
퍼펙트	-8007
일까요	-8008
▁무척	-8009
▁사례를	-8010
)|	-8011
★★	-8012
-15	-8013
▁여기에서	-8014
▁공화	-8015
▁여겨	-8016
로마	-8017
기반	-8018
▁최신버전	-8019
][	-8020
▁일요일	-8021
▁싱가포르	-8022
▁북한이	-8023
▁쇠	-8024
▁내린	-8025
▁와이	-8026
또는	-8027
▁보내고	-8028
▁수여	-8029
▁한국에	-8030
▁맞은	-8031
진과	-8032
▁진행됐다	-8033
▁시기에	-8034
▁드래	-8035
▁그들	-8036
▁time	-8037
RA	-8038
할인	-8039
진단	-8040
▁붙여	-8041
72	-8042
러가	-8043
웠던	-8044
블릿	-8045
▁어쩔	-8046
적이며	-8047
▁수신	-8048
▁명칭	-8049
러진	-8050
이던	-8051
ware	-8052
에이	-8053
▁성공적인	-8054
▁낫	-8055
릭스	-8056
▁했다고	-8057
▁전통적인	-8058
▁붓	-8059
장치	-8060
▁닥	-8061
▁월요일	-8062
▁다릅니다	-8063
.’	-8064
현장	-8065
이든	-8066
▁작성한	-8067
▁텔레	-8068
에게도	-8069
▁기소	-8070
키스	-8071
▁퀄	-8072
▁허브	-8073
▁금요일	-8074
나와	-8075
▁AD	-8076
▁전반적인	-8077
▁포도	-8078
roid	-8079
▁주문이	-8080
7%	-8081
월의	-8082
라가	-8083
▁벤처	-8084
버린	-8085
▁봐도	-8086
▁미칠	-8087
▁크리스마스	-8088
▁수능	-8089
니까요	-8090
▁구멍	-8091
▁구경	-8092
▁연료	-8093
▁윌	-8094
▁반환	-8095
이슈	-8096
▁막기	-8097
▁포괄	-8098
하셔야	-8099
▁리스크	-8100
▁신뢰할	-8101
▁설득	-8102
▁적당	-8103
▁되었고	-8104
판이	-8105
호와	-8106
부에서	-8107
매일	-8108
규칙	-8109
8%	-8110
▁레이저	-8111
NG	-8112
방지	-8113
▁믿을	-8114
▁이명	-8115
▁김민	-8116
▁톤	-8117
▁마켓	-8118
▁기대한다	-8119
높은	-8120
뉴시스	-8121
▁관점에서	-8122
▁다양하게	-8123
▁밖으로	-8124
▁대북	-8125
▁으	-8126
▁기상	-8127
▁강하게	-8128
▁과정이	-8129
주문	-8130
▁DB	-8131
화하고	-8132
▁공략	-8133
▁고전	-8134
▁산업의	-8135
▁올렸다	-8136
▁판촉	-8137
▁취향	-8138
▁42	-8139
▁없으면	-8140
▁운영을	-8141
▁확신	-8142
하기가	-8143
▁cl	-8144
▁다수	-8145
!"	-8146
▁승리를	-8147
ike	-8148
▁둥	-8149
▁후보는	-8150
eo	-8151
▁gu	-8152
▁날아	-8153
만명	-8154
▁커다란	-8155
▁GS	-8156
▁여행자들이	-8157
방에	-8158
▁읽는	-8159
수산	-8160
▁출고	-8161
▁턱	-8162
▁당황	-8163
▁대상이	-8164
채널	-8165
▁객관	-8166
700	-8167
▁생기는	-8168
▁확실한	-8169
MA	-8170
▁점이다	-8171
▁거제	-8172
▁달하는	-8173
세이	-8174
-30	-8175
▁서울대	-8176
ivers	-8177
안녕하세요	-8178
▁준비가	-8179
ull	-8180
▁비싸	-8181
▁반발	-8182
▁콜라	-8183
▁Korea	-8184
인트를	-8185
전환	-8186
관계를	-8187
▁보충	-8188
세에	-8189
▁시술	-8190
▁일제	-8191
박물관	-8192
▁작성자	-8193
펀드	-8194
▁채무	-8195
▁되면서	-8196
▁수의	-8197
▁색깔	-8198
▁per	-8199
ights	-8200
▁관계가	-8201
민족	-8202
체로	-8203
트라	-8204
▁위험한	-8205
공급	-8206
▁지능	-8207
▁자는	-8208
▁왜냐하면	-8209
▁경쟁력을	-8210
교육청	-8211
~5	-8212
▁래	-8213
▁sc	-8214
▁최상의	-8215
렉스	-8216
▁사업은	-8217
색이	-8218
▁칩	-8219
▁팀이	-8220
▁|[	-8221
▁완전한	-8222
▁김해	-8223
▁효율적인	-8224
▁않았지만	-8225
▁단위	-8226
▁바디	-8227
▁설탕	-8228
▁네가	-8229
▁마리	-8230
상에서	-8231
르트	-8232
폴리오	-8233
▁랭	-8234
역에서	-8235
▁합성	-8236
▁전설	-8237
북한	-8238
▁배터	-8239
▁prepar	-8240
▁치과	-8241
▁메모리	-8242
편의	-8243
▁서비스의	-8244
▁거친	-8245
▁척추	-8246
▁옳	-8247
유산	-8248
내에	-8249
나고	-8250
ize	-8251
▁업종	-8252
공장	-8253
근로	-8254
해외	-8255
포럼	-8256
▁파라	-8257
IV	-8258
▁이지	-8259
▁요소를	-8260
▁하는지	-8261
운전	-8262
▁김현	-8263
환불	-8264
▁공고	-8265
▁이상으로	-8266
▁율	-8267
▁처음부터	-8268
해졌다	-8269
▁모험	-8270
들과의	-8271
▁웅	-8272
▁추진하고	-8273
▁주사	-8274
▁등등	-8275
400	-8276
SC	-8277
▁합법	-8278
▁후속	-8279
▁시티	-8280
루션	-8281
▁경험과	-8282
제보	-8283
▁아메	-8284
▁개발에	-8285
▁서비스에	-8286
▁소년	-8287
월에는	-8288
겠네요	-8289
설계	-8290
합격	-8291
▁사건이	-8292
▁옛날	-8293
하가	-8294
▁빠진	-8295
이거나	-8296
▁변화에	-8297
타이마사지	-8298
ube	-8299
▁부천	-8300
▁강릉	-8301
▁철도	-8302
▁스피커	-8303
▁작가의	-8304
인당	-8305
저히	-8306
▁알지	-8307
재가	-8308
▁확인하는	-8309
렸던	-8310
▁분산	-8311
▁컬렉션	-8312
▁의학	-8313
받지	-8314
수준	-8315
2014	-8316
▁und	-8317
▁고객님	-8318
▁공연을	-8319
▁아래에	-8320
콜걸후기	-8321
▁물건을	-8322
▁인하여	-8323
▁독점	-8324
▁comp	-8325
▁트랙	-8326
▁많았다	-8327
▁복음	-8328
▁갖춰	-8329
▁이후에	-8330
▁제조업체	-8331
서류	-8332
▁주주	-8333
품이	-8334
역사	-8335
▁동해	-8336
▁상태가	-8337
단과	-8338
▁핸드폰	-8339
▁태그	-8340
재로	-8341
▁계기가	-8342
▁5000	-8343
IL	-8344
▁에피	-8345
▁좌우	-8346
▁말라	-8347
▁뭉	-8348
▁여러분이	-8349
강남	-8350
차별	-8351
▁신축	-8352
▁구조를	-8353
분간	-8354
프는	-8355
▁동영	-8356
하라고	-8357
▁부과될	-8358
EA	-8359
토록	-8360
▁맡은	-8361
민은	-8362
▁환자가	-8363
▁이용자	-8364
을때	-8365
▁프로그래	-8366
사전	-8367
▁참고로	-8368
▁보너스	-8369
임대	-8370
할까	-8371
▁고생	-8372
▁명절	-8373
▁물러	-8374
▁심의	-8375
▁마라	-8376
▁과학기술	-8377
정규	-8378
실로	-8379
모텔	-8380
▁원장	-8381
▁배제	-8382
▁메시지	-8383
MW	-8384
▁파워볼	-8385
▁겹	-8386
등포	-8387
▁것들을	-8388
달라고	-8389
▁전염	-8390
▁않아서	-8391
▁존재하는	-8392
버그	-8393
Ch	-8394
▁트레	-8395
▁프로토	-8396
▁Inst	-8397
▁시점	-8398
▁LA	-8399
▁때에	-8400
선에서	-8401
▁Cloud	-8402
▁시키	-8403
▁전후	-8404
▁소금	-8405
야말로	-8406
▁한국인	-8407
▁해주는	-8408
▁보편	-8409
사건	-8410
▁민원	-8411
▁원내대표	-8412
▁참여를	-8413
▁상임	-8414
유통	-8415
메달	-8416
게시	-8417
▁하였습니다	-8418
▁열매	-8419
▁현대차	-8420
▁기간이	-8421
▁몰랐	-8422
▁수업을	-8423
▁게임이	-8424
▁태어나	-8425
▁시험대비	-8426
▁결승	-8427
▁양산	-8428
▁횟	-8429
드리는	-8430
치며	-8431
▁진심으로	-8432
작성자	-8433
ai	-8434
▁펌	-8435
공정	-8436
▁진주	-8437
▁기대를	-8438
▁태양광	-8439
▁부르는	-8440
▁프로그램이	-8441
▁증가한	-8442
▁이르는	-8443
▁경향이	-8444
▁간편하게	-8445
▁하셨	-8446
▁폴리	-8447
▁사설	-8448
▁탑승	-8449
▁국내에서	-8450
▁내외	-8451
▁준비하고	-8452
bal	-8453
▁하신	-8454
서도	-8455
▁피부를	-8456
▁하나인	-8457
▁막을	-8458
▁Mar	-8459
하더라도	-8460
련의	-8461
▁피고	-8462
출장업소	-8463
라이트	-8464
부동산	-8465
▁높일	-8466
▁모래	-8467
▁댓글목록	-8468
▁있거나	-8469
특히	-8470
하셔서	-8471
▁안전하고	-8472
조는	-8473
▁기아	-8474
▁회원님께서는	-8475
ump	-8476
됐고	-8477
▁한계	-8478
하셨습니다	-8479
▁워낙	-8480
▁번에	-8481
터는	-8482
해지	-8483
평화	-8484
가며	-8485
시킵니다	-8486
▁방법입니다	-8487
▁팽	-8488
한데	-8489
▁쏠	-8490
▁데려	-8491
71	-8492
▁그간	-8493
▁씨가	-8494
▁중에서도	-8495
▁배울	-8496
▁권리를	-8497
red	-8498
▁요인	-8499
▁부담이	-8500
bo	-8501
스런	-8502
▁하느	-8503
▁활성화를	-8504
▁pl	-8505
▁담보	-8506
▁변형	-8507
▁드라이버	-8508
ION	-8509
출처	-8510
▁삽입	-8511
▁디스크	-8512
II	-8513
▁메이크	-8514
바지	-8515
▁없었습니다	-8516
▁크루	-8517
▁옹	-8518
▁자라	-8519
▁흥미로운	-8520
▁양도	-8521
▁한해	-8522
▁깜짝	-8523
▁곱	-8524
▁브리	-8525
▁아이들	-8526
pen	-8527
▁아파	-8528
키로	-8529
행복	-8530
▁교육과	-8531
만은	-8532
▁ᄋ	-8533
▁생각할	-8534
하나요	-8535
▁서민	-8536
▁나누어	-8537
▁사내	-8538
▁뒤집	-8539
▁멕시코	-8540
▁지시	-8541
.....	-8542
▁당부했다	-8543
▁학생들은	-8544
▁뻔	-8545
▁양의	-8546
▁사이트는	-8547
▁안양	-8548
▁아이디어를	-8549
이랑	-8550
▁치킨	-8551
▁나라의	-8552
▁문제의	-8553
▁PL	-8554
▁동시	-8555
▁총괄	-8556
▁늘어난	-8557
달라	-8558
까지의	-8559
람회	-8560
푸드	-8561
▁이름은	-8562
▁협력을	-8563
▁신속하게	-8564
희는	-8565
▁재발	-8566
▁통보	-8567
사회의	-8568
▁형식	-8569
▁경우에도	-8570
evelop	-8571
▁권고	-8572
면의	-8573
▁인텔	-8574
시설을	-8575
개인회생	-8576
끄러	-8577
▁인하	-8578
▁푸른	-8579
아직	-8580
▁유대	-8581
▁줄이고	-8582
▁굽	-8583
왔던	-8584
령을	-8585
▁입원	-8586
▁사진은	-8587
▁부적	-8588
▁그러니까	-8589
▁워싱턴	-8590
▁【	-8591
브랜드	-8592
▁정상적인	-8593
▁나타납니다	-8594
▁1:1	-8595
▁음식점	-8596
들이다	-8597
▁편리하게	-8598
▁의지	-8599
▁없다면	-8600
터의	-8601
양주	-8602
▁브라질	-8603
▁아이돌	-8604
결정	-8605
시간이	-8606
OO	-8607
▁허위	-8608
2011	-8609
▁살펴보면	-8610
▁하드웨어	-8611
ife	-8612
▁지갑	-8613
▁여드	-8614
▁Eng	-8615
▁체포	-8616
▁공약	-8617
▁흐름을	-8618
▁몰아	-8619
▁조달	-8620
할때	-8621
▁최저가와	-8622
▁수를	-8623
▁역사적	-8624
▁시설을	-8625
▁델	-8626
▁찍어	-8627
▁공시	-8628
마리	-8629
▁평범한	-8630
▁52	-8631
▁물었다	-8632
min	-8633
▁건의	-8634
움과	-8635
▁부대	-8636
▁마약	-8637
▁탁월한	-8638
역에	-8639
세한	-8640
▁쓰레기	-8641
산은	-8642
▁more	-8643
메뉴	-8644
use	-8645
▁출장시에	-8646
▁동향	-8647
▁선두	-8648
실험	-8649
▁맥주	-8650
.21	-8651
시간을	-8652
골프	-8653
하루	-8654
됐으며	-8655
59	-8656
그리고	-8657
되도록	-8658
▁축적	-8659
▁진행한	-8660
▁스트리밍	-8661
으로서의	-8662
박한	-8663
셔널	-8664
스카	-8665
▁기운	-8666
▁선정된	-8667
▁오늘도	-8668
법으로	-8669
▁탱	-8670
▁빛을	-8671
▁개인적인	-8672
▁답답	-8673
성도	-8674
▁발음	-8675
여명이	-8676
즈의	-8677
▁고마	-8678
받았다	-8679
공을	-8680
천만원	-8681
그런	-8682
▁자문	-8683
▁직전	-8684
0-	-8685
농협	-8686
센터는	-8687
▁모습은	-8688
▁참여해	-8689
▁기술과	-8690
▁시작합니다	-8691
▁이상한	-8692
였는데	-8693
▁의지를	-8694
권도	-8695
▁어쩌면	-8696
▁환영합니다	-8697
▁어우	-8698
▁과정에	-8699
▁연동	-8700
▁않았던	-8701
▁전문의	-8702
▁차이를	-8703
▁멘토	-8704
▁모르고	-8705
▁시험을	-8706
전지	-8707
▁일일	-8708
▁시켜	-8709
▁아이들의	-8710
학기	-8711
▁박정	-8712
였지만	-8713
▁상관없이	-8714
▁미래의	-8715
▁자금을	-8716
▁플로	-8717
▁주시	-8718
▁한국은	-8719
▁수비	-8720
Cl	-8721
echn	-8722
▁없게	-8723
자본	-8724
▁ST	-8725
▁분위기가	-8726
▁전문가들은	-8727
ays	-8728
그림	-8729
oth	-8730
▁기능은	-8731
▁선수가	-8732
단으로	-8733
됐다고	-8734
▁장점이	-8735
▁고객님의	-8736
▁금연	-8737
▁이렇	-8738
▁협상	-8739
▁미안	-8740
▁뮤직	-8741
▁기술의	-8742
현실	-8743
▁일러스트	-8744
장인	-8745
파워	-8746
-18	-8747
▁계정을	-8748
▁미국은	-8749
▁임직원	-8750
자로서	-8751
▁보호를	-8752
▁데일리	-8753
▁혈관	-8754
▁군산	-8755
▁깨끗한	-8756
▁편안하게	-8757
소설	-8758
▁저희가	-8759
경북	-8760
▁지방자치	-8761
시장의	-8762
▁형제	-8763
▁공부자료	-8764
▁바르	-8765
▁목포	-8766
▁밀어	-8767
됨에	-8768
등록번호	-8769
▁다음날	-8770
▁탈출	-8771
▁감시	-8772
▁줄일	-8773
▁아이의	-8774
작가	-8775
포먼	-8776
▁컸	-8777
데모	-8778
▁Ag	-8779
상거래	-8780
선과	-8781
▁실습	-8782
ience	-8783
▁매체	-8784
앞으로도	-8785
▁설정을	-8786
소송	-8787
소통	-8788
▁증정	-8789
▁폭력	-8790
▁보건복지	-8791
평을	-8792
▁현행	-8793
▁이외에도	-8794
원하는	-8795
▁저를	-8796
대학원	-8797
▁59	-8798
▁발의	-8799
,900	-8800
재는	-8801
▁영입	-8802
▁유지할	-8803
장관	-8804
▁단속	-8805
노트	-8806
마가	-8807
스타빗	-8808
▁얼굴이	-8809
분은	-8810
▁일어나는	-8811
영어	-8812
비트	-8813
▁해결하기	-8814
제약	-8815
ery	-8816
▁전라	-8817
▁무리	-8818
▁공부를	-8819
▁180	-8820
▁일주일	-8821
▁철저한	-8822
atch	-8823
▁기록한	-8824
절차	-8825
금으로	-8826
▁환자는	-8827
악의	-8828
▁Ass	-8829
▁조립	-8830
리뷰	-8831
교사	-8832
허가	-8833
▁호환	-8834
보험료	-8835
4%	-8836
▁고도	-8837
▁혁명	-8838
▁배우는	-8839
특별시	-8840
▁탄탄	-8841
PT	-8842
▁거리두	-8843
▁육아	-8844
▁아니라는	-8845
MB	-8846
▁웹툰	-8847
▁지원할	-8848
▁시나리오	-8849
▁노래를	-8850
▁이들을	-8851
▁개최했다	-8852
▁카톡	-8853
▁주셔서	-8854
▁매니저	-8855
▁일종의	-8856
뉴얼	-8857
▁목소리	-8858
▁트랜	-8859
리포니아	-8860
▁용산	-8861
▁고발	-8862
▁눈으로	-8863
▁준비하는	-8864
▁뚜렷	-8865
▁튼	-8866
▁사법	-8867
▁신장	-8868
대중	-8869
라이브	-8870
73	-8871
당에서	-8872
7)	-8873
▁콜걸	-8874
▁강사	-8875
▁기존에	-8876
▁김치	-8877
면으로	-8878
▁미세먼지	-8879
6,	-8880
▁의류	-8881
▁판매하는	-8882
▁전체를	-8883
▁악성	-8884
▁하네요	-8885
▁원인을	-8886
ould	-8887
▁같았다	-8888
그라	-8889
▁선별	-8890
법과	-8891
▁도덕	-8892
▁규모가	-8893
▁문화예술	-8894
▁달아	-8895
▁석유	-8896
▁셋째	-8897
팩트	-8898
들기	-8899
HD	-8900
▁Be	-8901
▁드론	-8902
▁사업의	-8903
▁썰	-8904
면에서	-8905
▁당초	-8906
▁가성	-8907
▁출석	-8908
▁알레르기	-8909
작은	-8910
▁광고를	-8911
망이	-8912
▁쿠팡	-8913
▁기온	-8914
고자	-8915
▁대략	-8916
▁인간이	-8917
roup	-8918
▁포트폴리오	-8919
▁AR	-8920
▁(2	-8921
▁인증시험	-8922
ari	-8923
.16	-8924
▁겪는	-8925
▁do	-8926
▁1~2	-8927
▁비교해	-8928
▁퇴직	-8929
▁수동	-8930
pg	-8931
▁휴식	-8932
각을	-8933
-22	-8934
▁순수	-8935
▁질의	-8936
▁메이커	-8937
▁|▲	-8938
로에	-8939
▁3000	-8940
▁일으키	-8941
▁아나	-8942
▁덤프자료	-8943
▁가라	-8944
▁URL	-8945
▁CD	-8946
▁개선을	-8947
▁피트니스	-8948
▁창을	-8949
▁핑크	-8950
▁1.5	-8951
▁시작해	-8952
오니	-8953
▁소개합니다	-8954
조사를	-8955
yn	-8956
▁시스템의	-8957
????	-8958
▁케이스	-8959
▁관해	-8960
▁고통을	-8961
▁나면	-8962
▁랩	-8963
▁킹	-8964
머리	-8965
▁4,	-8966
으시면	-8967
mer	-8968
▁Gu	-8969
▁했을	-8970
밀리	-8971
▁현상이	-8972
▁카테고리	-8973
국에서	-8974
▁경우를	-8975
▁Co	-8976
숙한	-8977
▁과목	-8978
하자면	-8979
▁만든다	-8980
▁증상을	-8981
▁덤프문제	-8982
▁강좌	-8983
▁알코올	-8984
▁움직이는	-8985
▁즐겁게	-8986
▁용량	-8987
▁가족이	-8988
▁행위를	-8989
▁중계	-8990
▁과정은	-8991
▁소규모	-8992
41	-8993
ina	-8994
▁□	-8995
▁기업은	-8996
영의	-8997
▁쪽으로	-8998
눈에	-8999
▁삶에	-9000
▁개척	-9001
▁상품이	-9002
▁궁극	-9003
일러	-9004
▁신임	-9005
▁작곡	-9006
▁파견	-9007
함으로	-9008
리콘	-9009
내며	-9010
▁죄송	-9011
패드	-9012
▁의약품	-9013
ownload	-9014
면적	-9015
▁인민	-9016
▁이해를	-9017
▁집으로	-9018
▁Ser	-9019
▁거절	-9020
▁미용	-9021
▁고민을	-9022
스레	-9023
▁서초	-9024
▁정성	-9025
당에	-9026
▁API	-9027
▁없어요	-9028
▁솔로	-9029
▁한참	-9030
▁홈페이지를	-9031
▁이하의	-9032
▁토큰	-9033
▁고소	-9034
등이	-9035
감에	-9036
▁학원	-9037
일랜드	-9038
▁물품	-9039
▁포털	-9040
▁감독이	-9041
▁떠난	-9042
▁소중	-9043
▁〈	-9044
ient	-9045
▁소상공인	-9046
▁짝	-9047
▁2~3	-9048
▁정도가	-9049
▁게임에	-9050
▁마음의	-9051
▁거두	-9052
▁코너	-9053
▁정말로	-9054
?’	-9055
▁알리	-9056
중심	-9057
▁귀여운	-9058
루미	-9059
▁사례가	-9060
▁VR	-9061
▁사이트의	-9062
▁급격	-9063
▁클라이언	-9064
대사	-9065
▁들은	-9066
▁그녀를	-9067
라리	-9068
▁경기에서	-9069
장비	-9070
▁열렸다	-9071
진한	-9072
▁입장에서	-9073
76	-9074
구로	-9075
▁싶지	-9076
▁키워드	-9077
▁하위	-9078
▁Col	-9079
▁이해하기	-9080
▁결의	-9081
연한	-9082
주면	-9083
▁통증이	-9084
▁합동	-9085
▁지원한다	-9086
▁성취	-9087
▁아가	-9088
스트라	-9089
▁출생	-9090
▁지어	-9091
▁궤	-9092
▁상속	-9093
▁의미한다	-9094
▁김경	-9095
▁수확	-9096
라이프	-9097
▁설치된	-9098
▁혁신적인	-9099
인력	-9100
▁도모	-9101
▁입국	-9102
▁나이가	-9103
▁app	-9104
고등학교	-9105
▁대다	-9106
▁재활용	-9107
▁바라는	-9108
▁얘기를	-9109
층의	-9110
▁럭셔	-9111
▁인턴	-9112
▁계란	-9113
▁인터뷰에서	-9114
▁의하면	-9115
▁되어야	-9116
58	-9117
▁두께	-9118
▁어울리는	-9119
▁시험덤프	-9120
▁이다	-9121
▁어려움이	-9122
▁오랜만에	-9123
군에	-9124
▁느끼고	-9125
여름	-9126
주지	-9127
▁거죠	-9128
▁줄여	-9129
▁클리	-9130
▁2001	-9131
선생	-9132
ility	-9133
보안	-9134
▁다짐	-9135
▁법을	-9136
▁드리겠습니다	-9137
하네요	-9138
로워	-9139
▁이끄	-9140
▁마시고	-9141
▁주변의	-9142
▁태블릿	-9143
▁두려워	-9144
▁성공을	-9145
소스	-9146
▁술을	-9147
afe	-9148
4,	-9149
▁구성원	-9150
▁상용	-9151
▁보았다	-9152
▁1990	-9153
천원	-9154
클래	-9155
▁첫번째	-9156
크림	-9157
▁my	-9158
▁추구하는	-9159
권과	-9160
철도	-9161
▁일도	-9162
43	-9163
▁제고	-9164
hone	-9165
▁열린다	-9166
▁흰색	-9167
▁이영	-9168
▁화가	-9169
기업의	-9170
오기	-9171
▁5%	-9172
▁싸움	-9173
▁할까	-9174
▁골목	-9175
▁생각했다	-9176
▁마크	-9177
신한	-9178
▁들어갈	-9179
▁린	-9180
▁공동체	-9181
▁기술은	-9182
너무	-9183
.19	-9184
▁손흥	-9185
▁둘러싼	-9186
▁안되는	-9187
▁저희는	-9188
▁우리나라의	-9189
▁정신을	-9190
차량	-9191
▁갤러리	-9192
▁생명을	-9193
회계	-9194
▁있을지	-9195
▁프로그램에	-9196
ier	-9197
▁많지	-9198
▁하이브리	-9199
▁정한	-9200
파산	-9201
플릿	-9202
▁NH	-9203
ates	-9204
▁손쉽게	-9205
▁미국이	-9206
▁맞지	-9207
▁평창	-9208
공무원	-9209
▁소재로	-9210
ality	-9211
▁패러	-9212
▁주제에	-9213
센스	-9214
▁이태	-9215
▁감독의	-9216
▁분할	-9217
▁통상	-9218
드린다	-9219
▁관계없이	-9220
▁원료	-9221
이도	-9222
▁공산	-9223
▁톡	-9224
▁PR	-9225
····	-9226
▁않으니	-9227
생물	-9228
쿠폰	-9229
▁pass	-9230
▁박스	-9231
치로	-9232
▁피해자	-9233
▁질병의	-9234
▁치즈	-9235
형으로	-9236
▁시원한	-9237
▁자발	-9238
▁못한다	-9239
ology	-9240
▁김진	-9241
인드	-9242
▁아니라고	-9243
▁경과	-9244
과장	-9245
▁관리하는	-9246
토론	-9247
▁목적을	-9248
▁진지	-9249
계좌	-9250
수정	-9251
▁놓은	-9252
▁의견이	-9253
▁정상회담	-9254
98	-9255
▁세무	-9256
▁발을	-9257
▁감염증	-9258
▁도서관	-9259
▁공중	-9260
▁야생	-9261
▁퍼포먼	-9262
▁dumps	-9263
▁43	-9264
DS	-9265
▁툴	-9266
란색	-9267
▁그러다	-9268
▁희망을	-9269
MP	-9270
경의	-9271
▁초보	-9272
▁여성이	-9273
▁홀로	-9274
▁Comp	-9275
oT	-9276
▁그것도	-9277
위원회의	-9278
▁아끼	-9279
▁내지	-9280
▁간단히	-9281
▁시스템이	-9282
▁벼	-9283
에게서	-9284
▁실망	-9285
▁▼	-9286
▁효율적으로	-9287
▁안동	-9288
노인	-9289
▁입사	-9290
▁포켓	-9291
▁배우고	-9292
▁선택합니다	-9293
▁노무	-9294
되지만	-9295
▁누군가	-9296
▁저소득	-9297
티지	-9298
▁그릇	-9299
▁어디에	-9300
▁세계에	-9301
▁휴식을	-9302
▁재고	-9303
▁바라보는	-9304
▁ᅵ	-9305
국장	-9306
인증시험	-9307
회와	-9308
arn	-9309
▁점도	-9310
ustom	-9311
마의	-9312
복합	-9313
스토어	-9314
베이터	-9315
안보	-9316
▁보드	-9317
▁붕괴	-9318
▁study	-9319
변화	-9320
▁일정을	-9321
▁호텔스	-9322
▁모음	-9323
▁앓	-9324
프라이	-9325
▁에피소	-9326
▁클래스	-9327
▁PS	-9328
▁표기	-9329
view	-9330
패를	-9331
▁일부는	-9332
판에	-9333
▁전략적	-9334
▁불확	-9335
▁서명	-9336
▁터키	-9337
▁다루는	-9338
이제	-9339
하죠	-9340
▁회사에	-9341
▁회장이	-9342
irect	-9343
arant	-9344
▁길게	-9345
되는데	-9346
▁화상	-9347
enter	-9348
총장	-9349
▁목욕	-9350
▁알파	-9351
▁구매한	-9352
도서관	-9353
cel	-9354
▁이해가	-9355
▁활동이	-9356
톨릭	-9357
▁MC	-9358
▁포스코	-9359
▁수행하는	-9360
▁#[	-9361
타를	-9362
▁사회에	-9363
개정	-9364
▁테러	-9365
저널	-9366
▁증가했다	-9367
▁설교	-9368
▁4)	-9369
▁일부를	-9370
▁포스터	-9371
▁바꿀	-9372
▁답변을	-9373
한국당	-9374
▁만듭니다	-9375
모가	-9376
▁남부	-9377
▁볼륨	-9378
▁나타날	-9379
▁지원합니다	-9380
▁가해	-9381
▁위성	-9382
▁마우스	-9383
▁시가	-9384
▁아픈	-9385
▁그나마	-9386
회복	-9387
▁컨셉	-9388
▁원천	-9389
▁쉐	-9390
▁태풍	-9391
▁거리를	-9392
▁오빠	-9393
4.	-9394
되게	-9395
하기는	-9396
▁겨우	-9397
▁음주	-9398
2-	-9399
▁법령	-9400
▁번째로	-9401
실히	-9402
▁믿는	-9403
▁Booking	-9404
▁진행되고	-9405
힌다	-9406
▁On	-9407
▁특성상	-9408
▁자원봉사	-9409
▁번의	-9410
▁수분	-9411
▁시작했습니다	-9412
현은	-9413
▁룰렛	-9414
었다는	-9415
▁하는데요	-9416
▁MB	-9417
▁화장실	-9418
액의	-9419
지인	-9420
기부	-9421
▁궁금한	-9422
▁에너지를	-9423
HE	-9424
장한	-9425
▁la	-9426
▁고무	-9427
레이트	-9428
▁대출을	-9429
▁그와	-9430
▁->	-9431
증과	-9432
▁높게	-9433
▁땐	-9434
▁넷플	-9435
▁모터	-9436
이야기	-9437
▁공을	-9438
캠퍼스는	-9439
▁대행	-9440
▁This	-9441
▁분은	-9442
low	-9443
▁반려동물	-9444
rap	-9445
▁정밀	-9446
▁보냈	-9447
▁같아서	-9448
▁콘서트	-9449
▁장소에서	-9450
▁전문적인	-9451
▁커뮤니케이션	-9452
▁멍	-9453
레이크	-9454
▁웃음을	-9455
▁김재	-9456
▁전체적으로	-9457
▁보여준다	-9458
석의	-9459
▁농구	-9460
악한	-9461
나갈	-9462
▁쓰기	-9463
ᄏᄏᄏᄏᄏᄏᄏᄏ	-9464
선언	-9465
sw	-9466
함은	-9467
▁도망	-9468
▁피아	-9469
▁속도가	-9470
5)	-9471
활성	-9472
.20	-9473
▁살해	-9474
시장에서	-9475
acle	-9476
▁아래로	-9477
▁플러그	-9478
▁흙	-9479
▁저하	-9480
수요	-9481
음에	-9482
▁에디	-9483
▁관계자	-9484
▁중에는	-9485
탄을	-9486
층에	-9487
테이너	-9488
TT	-9489
자마자	-9490
▁태어난	-9491
▁정기적으로	-9492
▁아까	-9493
▁엉덩	-9494
▁주소를	-9495
▁캘리포니아	-9496
▁똑같은	-9497
ices	-9498
▁곳이다	-9499
▁Br	-9500
▁된다면	-9501
▁노력이	-9502
▁실업	-9503
▁왜곡	-9504
보도	-9505
▁41	-9506
lobal	-9507
자고	-9508
▁강연	-9509
▁이루어진	-9510
PA	-9511
▁so	-9512
▁퀴	-9513
▁캠프	-9514
▁2,000	-9515
▁껍	-9516
▁긍정적	-9517
▁덴	-9518
▁의결	-9519
▁양식	-9520
▁안타까	-9521
아래	-9522
▁상태에	-9523
▁불량	-9524
01	-9525
▁병행	-9526
▁시작한다	-9527
▁깃	-9528
▁어쨌	-9529
경우	-9530
화한	-9531
▁호기	-9532
.3%	-9533
▁수백만	-9534
42	-9535
스텔	-9536
▁크리에	-9537
mg	-9538
▁휩	-9539
산업의	-9540
버리	-9541
▁그러니	-9542
▁46	-9543
▁글은	-9544
▁편성	-9545
▁다채로운	-9546
▁개발자	-9547
▁전까지	-9548
▁네이	-9549
46	-9550
모바일	-9551
입력	-9552
▁맡고	-9553
▁has	-9554
▁한경닷컴	-9555
텔레콤	-9556
렉트	-9557
▁위원장은	-9558
.17	-9559
▁Mac	-9560
했는지	-9561
▁보여줍니다	-9562
▁안산	-9563
▁다니는	-9564
▁확인하세요	-9565
▁New	-9566
▁보아	-9567
▁상실	-9568
▁플랜	-9569
나눔	-9570
진에	-9571
▁링	-9572
주의를	-9573
▁광명	-9574
분들이	-9575
-16	-9576
▁내용과	-9577
▁실질적인	-9578
돼야	-9579
리얼	-9580
▁차트	-9581
▁적지	-9582
시리즈	-9583
▁tv	-9584
▁화폐	-9585
형은	-9586
▁발병	-9587
비보험	-9588
-17	-9589
▁기억이	-9590
uc	-9591
▁생일	-9592
▁야간	-9593
NT	-9594
▁방치	-9595
▁협조	-9596
속에서	-9597
▁70%	-9598
▁먹으면	-9599
▁정부와	-9600
▁구원	-9601
▁곽	-9602
▁가짜	-9603
▁기사가	-9604
빌딩	-9605
▁국토교통	-9606
.4%	-9607
▁붙어	-9608
▁As	-9609
▁유선	-9610
▁소독	-9611
▁숫자	-9612
▁팀의	-9613
eat	-9614
▁이걸	-9615
▁이같이	-9616
영이	-9617
졌던	-9618
▁머니	-9619
샐러	-9620
▁전신	-9621
so	-9622
마일	-9623
▁바람이	-9624
ux	-9625
렌트	-9626
▁any	-9627
고도	-9628
▁근처에	-9629
동구	-9630
바구니	-9631
▁좋겠습니다	-9632
ino	-9633
▁but	-9634
▁호텔스닷컴	-9635
▁에코	-9636
▁다행히	-9637
▁차지하는	-9638
▁팀을	-9639
▁기간을	-9640
▁시스템은	-9641
태를	-9642
▁주어진	-9643
▁기반을	-9644
uk	-9645
▁샀	-9646
▁등이다	-9647
▁교통사고	-9648
▁불가능한	-9649
▁정서	-9650
▁높이기	-9651
▁생각은	-9652
▁마늘	-9653
▁살아남	-9654
▁동부	-9655
▁공격을	-9656
▁많아서	-9657
▁해안	-9658
▁유전자	-9659
▁어두운	-9660
▁묘사	-9661
▁부지	-9662
▁80%	-9663
▁유로	-9664
오염	-9665
(10	-9666
▁택시	-9667
▁자랑하는	-9668
▁곧바로	-9669
출장서비스	-9670
▁필요하다고	-9671
▁성도	-9672
▁화물	-9673
▁얻기	-9674
iness	-9675
▁아침에	-9676
▁했어요	-9677
▁사용자는	-9678
▁스트레스를	-9679
▁고구	-9680
▁기술적	-9681
받침	-9682
19)	-9683
▁우아	-9684
▁SUV	-9685
▁연금	-9686
▁짚	-9687
▁김용	-9688
억원의	-9689
▁뛰어나	-9690
이론	-9691
▁중구	-9692
▁펀드	-9693
▁우편	-9694
▁고맙	-9695
수량	-9696
▁갈수록	-9697
▁살인	-9698
▁공익	-9699
▁위안	-9700
▁감성	-9701
음식	-9702
▁강요	-9703
증명	-9704
arch	-9705
국어	-9706
▁못했던	-9707
CE	-9708
▁사업이	-9709
친다	-9710
▁참석했다	-9711
지원센터	-9712
▁나쁘	-9713
▁넉	-9714
▁입법	-9715
되기도	-9716
▁출마	-9717
시험패스	-9718
▁느껴지는	-9719
▁뒤를	-9720
▁두번째	-9721
제조	-9722
86	-9723
▁800	-9724
▁광역	-9725
▁연구개발	-9726
▁과감	-9727
▁이종	-9728
ven	-9729
블랙	-9730
▁조직의	-9731
▁불필	-9732
▁고혈압	-9733
itt	-9734
▁기업을	-9735
▁피해가	-9736
▁꺾	-9737
▁지내	-9738
▁찾아가	-9739
빌리티	-9740
▁간다	-9741
센트	-9742
▁야채	-9743
▁중동	-9744
▁이끄는	-9745
발표	-9746
▁살려	-9747
▁신기	-9748
▁찍은	-9749
▁최상	-9750
▁못하게	-9751
▁감사의	-9752
ript	-9753
▁났	-9754
>,	-9755
렸고	-9756
TBC	-9757
위해	-9758
대리	-9759
▁누릴	-9760
ium	-9761
▁이겨	-9762
ator	-9763
행동	-9764
▁급속	-9765
▁그런지	-9766
비전	-9767
▁생각하면	-9768
고용	-9769
.9%	-9770
▁불리	-9771
▁엔지니어	-9772
재의	-9773
▁좋게	-9774
▁마침내	-9775
▁00:00	-9776
▁발효	-9777
▁일정한	-9778
▁iOS	-9779
류의	-9780
▁통과율	-9781
▁배가	-9782
책임자	-9783
디언	-9784
전문가	-9785
공공	-9786
▁동양	-9787
.29	-9788
▁km	-9789
디스	-9790
됐던	-9791
▁예산을	-9792
▁웨딩	-9793
▁사고가	-9794
▁중개	-9795
▁드림	-9796
▁수천	-9797
▁끝내	-9798
▁스캔	-9799
▁세련된	-9800
▁앞둔	-9801
.7%	-9802
▁기업들이	-9803
▁막아	-9804
ern	-9805
▁속으로	-9806
2013	-9807
▁47	-9808
▁도구를	-9809
▁진행될	-9810
▁Play	-9811
수입	-9812
세탁	-9813
urch	-9814
걸이	-9815
▁프라	-9816
▁발전에	-9817
▁엔터테인먼트	-9818
분들	-9819
▁쌓아	-9820
▁담배	-9821
▁인원	-9822
▁부회	-9823
▁괴롭	-9824
▁진로	-9825
-25	-9826
▁극단	-9827
82	-9828
졌다고	-9829
▁높습니다	-9830
▁촛	-9831
▁커지고	-9832
히며	-9833
-23	-9834
▁걸려	-9835
▁낚시	-9836
THR	-9837
▁정도는	-9838
▁1999	-9839
▁매트	-9840
.22	-9841
Hz	-9842
▁갑작	-9843
▁한강	-9844
▁여의도	-9845
화장	-9846
▁빼앗	-9847
▁올랐	-9848
쓰기	-9849
▁용어	-9850
▁부드럽게	-9851
▁어렵습니다	-9852
ᅳᅳ	-9853
▁정권	-9854
▁크레	-9855
▁ro	-9856
▁강의를	-9857
▁그렇지만	-9858
▁간에	-9859
▁회사를	-9860
▁if	-9861
▁한쪽	-9862
▁제로	-9863
시킨다	-9864
▁타이어	-9865
맛집	-9866
▁자율주행	-9867
▁고지	-9868
▁추후	-9869
가치	-9870
▁공동으로	-9871
▁40%	-9872
▁퀄리티	-9873
formation	-9874
▁해피캠퍼스는	-9875
▁그레이	-9876
▁2.5	-9877
▁적용됩니다	-9878
▁털어	-9879
▁구별	-9880
▁적발	-9881
하라는	-9882
▁싶어요	-9883
▁아이들을	-9884
보가	-9885
me	-9886
▁확진자	-9887
▁회의를	-9888
▁평점	-9889
도에서	-9890
bs	-9891
▁조항	-9892
▁잡은	-9893
▁준비한	-9894
▁슬라이	-9895
▁대표이사	-9896
피탈	-9897
.28	-9898
ND	-9899
▁개월	-9900
▁쓰지	-9901
퍼런스	-9902
거리를	-9903
가정	-9904
▁자동화	-9905
▁노동자	-9906
함께	-9907
▁보라	-9908
데믹	-9909
▁도메인	-9910
방문	-9911
▁용이	-9912
▁들여다	-9913
▁하다가	-9914
▁특징이다	-9915
▁포지	-9916
▁범위를	-9917
▁상태다	-9918
▁페이지를	-9919
전용	-9920
▁속의	-9921
▁작업이	-9922
노조	-9923
팅을	-9924
SK	-9925
▁한가	-9926
▁이은	-9927
▁이사회	-9928
ᅮᅮ	-9929
▁선포	-9930
▁논쟁	-9931
▁갈아	-9932
▁처럼	-9933
▁이어지고	-9934
▁화합	-9935
차게	-9936
-14	-9937
보다도	-9938
▁활용하는	-9939
커피	-9940
업에	-9941
▁줄이는	-9942
켰다	-9943
▁권력	-9944
▁발간	-9945
ange	-9946
▁않다는	-9947
시청	-9948
▁글이	-9949
▁성별	-9950
▁칼로	-9951
▁생각에	-9952
▁만드	-9953
재해	-9954
5000	-9955
▁제공하며	-9956
▁든든	-9957
▁나오지	-9958
▁오리지	-9959
주와	-9960
▁그렇다	-9961
upport	-9962
▁맡아	-9963
▁성명	-9964
▁인생을	-9965
.27	-9966
테스트	-9967
▁이모	-9968
▁남긴	-9969
찾기	-9970
▁내다	-9971
▁웃음	-9972
▁쿼	-9973
isco	-9974
▁할아버	-9975
이라서	-9976
▁않았고	-9977
우드	-9978
▁로고	-9979
▁위기를	-9980
▁퓨	-9981
▁풀이	-9982
나를	-9983
ations	-9984
거진	-9985
▁환상	-9986
▁배운	-9987
▁전담	-9988
▁가지는	-9989
▁차지했다	-9990
.13	-9991
▁다름	-9992
▁상단	-9993
▁샴	-9994
▁셔틀	-9995
▁동성	-9996
▁서양	-9997
▁700	-9998
▁때의	-9999
▁마시기	-10000
▁연구에	-10001
해주고	-10002
▁이같은	-10003
▁강화를	-10004
감염	-10005
검찰	-10006
▁바쁜	-10007
▁선택하고	-10008
▁열람	-10009
커스	-10010
▁해운	-10011
인간	-10012
▁안녕	-10013
▁없도록	-10014
▁바깥	-10015
▁통찰	-10016
대응	-10017
▁값을	-10018
▁돌입	-10019
차이즈	-10020
▁경기가	-10021
했었다	-10022
▁회원이	-10023
위와	-10024
▁대외	-10025
▁오지	-10026
▁중지	-10027
▁나타내는	-10028
lp	-10029
▁서구	-10030
▁거론	-10031
▁선호하는	-10032
▁일대	-10033
역의	-10034
▁랜드	-10035
olut	-10036
ype	-10037
호선	-10038
▁사운드	-10039
▁방송된	-10040
질랜드	-10041
09	-10042
▁톱	-10043
마는	-10044
▁사회를	-10045
▁하나님께서	-10046
립을	-10047
▁평양	-10048
▁시급	-10049
▁웨이	-10050
어지는	-10051
▁거다	-10052
▁후보가	-10053
변경	-10054
재판	-10055
▁부딪	-10056
회의를	-10057
▁뻗	-10058
▁엿	-10059
hed	-10060
▁태어	-10061
▁am	-10062
▁심화	-10063
목이	-10064
▁곤란	-10065
▁놓치지	-10066
▁사장은	-10067
▁모를	-10068
ron	-10069
콜릿	-10070
증의	-10071
▁원인은	-10072
▁사냥	-10073
▁한때	-10074
었으며	-10075
▁개념을	-10076
▁오고	-10077
▁팀은	-10078
▁유아용	-10079
▁걸린	-10080
▁딜러	-10081
▁중반	-10082
210	-10083
▁분당	-10084
▁오해	-10085
▁대학원	-10086
▁재해	-10087
▁빌딩	-10088
elf	-10089
▁콤	-10090
▁이해하는	-10091
▁눈빛	-10092
▁주체	-10093
▁들면	-10094
네트워크	-10095
▁적용된	-10096
티즌	-10097
▁방문한	-10098
▁파는	-10099
▁₩	-10100
중의	-10101
▁되길	-10102
▁제도를	-10103
▁몰려	-10104
▁확인하기	-10105
견을	-10106
▁스포	-10107
시장은	-10108
▁기대하고	-10109
.8%	-10110
▁현장을	-10111
▁가만	-10112
건으로	-10113
▁헌신	-10114
▁요양	-10115
▁교정	-10116
대한민국	-10117
믹스	-10118
평등	-10119
▁유래	-10120
▁문서를	-10121
들로부터	-10122
PD	-10123
▁자신들의	-10124
fir	-10125
LG	-10126
▁누락	-10127
커뮤니	-10128
▁De	-10129
▁트렌드	-10130
?!	-10131
▁열정	-10132
▁가족의	-10133
air	-10134
▁밴드	-10135
▁갓	-10136
▁녹음	-10137
NC	-10138
▁정해진	-10139
▁고려하여	-10140
▁세션	-10141
RI	-10142
▁일방	-10143
▁보육	-10144
(6	-10145
▁당신에게	-10146
▁시민들의	-10147
▁의정부	-10148
▁시뮬	-10149
▁존경	-10150
▁투여	-10151
▁강화하고	-10152
▁이곳에서	-10153
했다면	-10154
과도	-10155
▁이젠	-10156
기금	-10157
▁상의	-10158
여러	-10159
베스트	-10160
▁백업	-10161
▁HP	-10162
2012	-10163
기에서	-10164
▁정보통신	-10165
▁늦게	-10166
이런	-10167
▁도내	-10168
▁재현	-10169
▁원활한	-10170
▁국산	-10171
▁해킹	-10172
▁장치를	-10173
▁몰입	-10174
▁규모로	-10175
▁흡연	-10176
▁비용은	-10177
▁Manag	-10178
탄소	-10179
플란	-10180
▁공무	-10181
▁반응이	-10182
정리	-10183
▁읽을	-10184
출을	-10185
▁셔츠	-10186
▁늘고	-10187
▁든다	-10188
▁여야	-10189
▁호텔의	-10190
사회복지	-10191
▁구리	-10192
▁조국	-10193
▁갚	-10194
▁볶	-10195
▁표현을	-10196
▁바이든	-10197
▁거라고	-10198
▁III	-10199
▁체인	-10200
▁직원이	-10201
렸을	-10202
▁폼	-10203
▁감당	-10204
▁중의	-10205
▁대륙	-10206
포스트	-10207
▁열기	-10208
.6%	-10209
▁포착	-10210
▁조지	-10211
기관의	-10212
▁치열한	-10213
머신	-10214
스럽고	-10215
식에서	-10216
▁테스트를	-10217
▁땅에	-10218
▁Im	-10219
▁사각	-10220
출판	-10221
▁금방	-10222
포를	-10223
▁아쉽	-10224
최신버전	-10225
▁다하겠다	-10226
▁매도	-10227
▁분해	-10228
았다고	-10229
▁가족과	-10230
▁솔직히	-10231
고의	-10232
▁있어도	-10233
▁불가피	-10234
안정	-10235
▁인증을	-10236
부담	-10237
▁스타일을	-10238
▁명을	-10239
▁받으며	-10240
▁하나하나	-10241
요청	-10242
▁수험	-10243
변호	-10244
ely	-10245
▁경매	-10246
▁나옵니다	-10247
주인	-10248
be	-10249
막을	-10250
침을	-10251
▁많을	-10252
우며	-10253
▁습관	-10254
▁젠	-10255
문은	-10256
▁정작	-10257
▁보시면	-10258
▁아카데미	-10259
▁NS	-10260
▁대결	-10261
▁노력하겠다	-10262
▁김지	-10263
하러	-10264
▁답을	-10265
풀이	-10266
▁5,	-10267
▁Web	-10268
▁할수	-10269
▁호응	-10270
▁드리고	-10271
▁있겠	-10272
년째	-10273
▁해지	-10274
▁아이들은	-10275
iel	-10276
색의	-10277
연합회	-10278
▁램	-10279
▁시달	-10280
▁Act	-10281
▁작품은	-10282
▁장기간	-10283
▁행운	-10284
▁교수가	-10285
▁하이브리드	-10286
▁인적	-10287
▁십자가	-10288
▁단점	-10289
▁로컬	-10290
▁음반	-10291
▁의사를	-10292
증은	-10293
▁실리콘	-10294
▁있으신	-10295
~~~	-10296
▁호텔에	-10297
셀러	-10298
▁돼지	-10299
▁춘천	-10300
▁광범위한	-10301
▁슬로	-10302
▁양육	-10303
▁추측	-10304
프가	-10305
▁장을	-10306
▁분들도	-10307
▁주목을	-10308
우의	-10309
▁깔끔한	-10310
▁인기있는	-10311
▁네덜	-10312
보수	-10313
▁코디	-10314
▁내렸다	-10315
▁자신만의	-10316
pr	-10317
▁견적	-10318
▁배워	-10319
NUM	-10320
▁장례	-10321
미한	-10322
▁프런트	-10323
▁언젠	-10324
▁확충	-10325
▁집안	-10326
▁포인트를	-10327
실은	-10328
▁많이보기	-10329
▁영화는	-10330
미의	-10331
파로	-10332
엔터테인먼트	-10333
▁무인	-10334
▁알리는	-10335
▁플레이어는	-10336
▁후회	-10337
▁다해	-10338
▁제공하여	-10339
▁서울특별시	-10340
▁여행객	-10341
▁왠	-10342
즈니	-10343
드림	-10344
▁매번	-10345
app	-10346
▁원작	-10347
▁케어	-10348
지다	-10349
-13	-10350
uth	-10351
▁세상의	-10352
▁안으로	-10353
▁하나씩	-10354
▁페스티벌	-10355
▁주시면	-10356
▁머리카락	-10357
▁하얀	-10358
▁개성	-10359
세종	-10360
▁베이징	-10361
▁하려고	-10362
.26	-10363
▁생애	-10364
하늘	-10365
와이	-10366
▁반짝	-10367
▁보고서를	-10368
▁확인하십시오	-10369
let	-10370
공헌	-10371
▁기간은	-10372
▁인상을	-10373
1]	-10374
앞으로	-10375
▁관여	-10376
▁신세계	-10377
멘트	-10378
▁영구	-10379
▁징후	-10380
▁해방	-10381
▁CPU	-10382
▁알아두	-10383
스틱	-10384
▁추첨	-10385
▁최우수	-10386
▁SM	-10387
ebook	-10388
▁각자	-10389
▁그랜드	-10390
▁올리고	-10391
pd	-10392
▁목회	-10393
▁이야기는	-10394
즈가	-10395
▁한데	-10396
사도	-10397
▁안고	-10398
bit	-10399
▁허락	-10400
▁정해	-10401
▁클릭합니다	-10402
살을	-10403
▁티셔츠	-10404
▁사양	-10405
▁문제와	-10406
동조합	-10407
▁중요성을	-10408
화물	-10409
▁플레이어가	-10410
▁심플	-10411
▁바람에	-10412
▁전도	-10413
▁돌봄	-10414
▁불행	-10415
▁피곤	-10416
▁재미를	-10417
▁이재명	-10418
▁트로	-10419
▁목표는	-10420
▁일상생활	-10421
▁각자의	-10422
▁영역을	-10423
스타일	-10424
▁거래소	-10425
▁튜	-10426
조치	-10427
추진	-10428
▁스코	-10429
투표	-10430
tect	-10431
▁속도로	-10432
▁제품입니다	-10433
▁양파	-10434
▁Android	-10435
blog	-10436
▁걸릴	-10437
▁분들께	-10438
▁향상을	-10439
천안	-10440
▁차별화된	-10441
▁1980	-10442
QL	-10443
▁치명	-10444
▁차량을	-10445
▁디자인으로	-10446
전국	-10447
출장대행	-10448
▁튼튼	-10449
▁영감을	-10450
ily	-10451
▁이용이	-10452
▁정보와	-10453
ose	-10454
▁연결된	-10455
▁전해졌다	-10456
감도	-10457
▁진술	-10458
▁확률	-10459
▁냉동	-10460
);	-10461
▁선보인	-10462
▁양념	-10463
▁잦	-10464
▁수술을	-10465
▁현장에	-10466
▁부합	-10467
▁Expedia	-10468
▁나라를	-10469
▁신뢰를	-10470
근무	-10471
▁성공한	-10472
▁연대	-10473
홍보	-10474
임에도	-10475
본을	-10476
now	-10477
NUMX	-10478
▁블로그를	-10479
▁건강보험	-10480
종은	-10481
닉스	-10482
게도	-10483
접한	-10484
▁임의	-10485
▁free	-10486
▁등장하는	-10487
▁넘어서	-10488
▁불편한	-10489
초등학교	-10490
▁입술	-10491
▁전반에	-10492
▁적정	-10493
▁나만의	-10494
▁마포	-10495
▁방송을	-10496
▁중점을	-10497
▁생리	-10498
▁한일	-10499
사스	-10500
▁고시	-10501
▁비중이	-10502
▁영국의	-10503
DI	-10504
표준	-10505
▁흠	-10506
▁상처를	-10507
▁한번에	-10508
ateg	-10509
▁운전자	-10510
▁상영	-10511
▁디렉	-10512
벚꽃	-10513
병을	-10514
arm	-10515
▁고수	-10516
▁외모	-10517
▁자회사	-10518
전과	-10519
▁12.	-10520
▁후배	-10521
▁냈다	-10522
▁기업에	-10523
▁한눈에	-10524
▁신생	-10525
▁정품	-10526
시마	-10527
▁se	-10528
▁높고	-10529
▁해가	-10530
▁두산	-10531
▁혐의를	-10532
▁잃어버	-10533
▁헛	-10534
시지	-10535
▁취약계층	-10536
▁힙	-10537
문자	-10538
복음	-10539
반응	-10540
티켓	-10541
▁캠퍼	-10542
▁보여준	-10543
||0	-10544
▁해설	-10545
사업에	-10546
▁2.0	-10547
▁문제점	-10548
▁특징을	-10549
▁마르	-10550
▁네티즌	-10551
▁패배	-10552
▁엽	-10553
▁세척	-10554
▁자사	-10555
HO	-10556
▁프로그래밍	-10557
베리	-10558
▁명백	-10559
▁싶었다	-10560
▁기출	-10561
(200	-10562
▁순으로	-10563
▁라운	-10564
▁첨가	-10565
▁지키는	-10566
▁청춘	-10567
▁결정하는	-10568
열을	-10569
▁환급	-10570
랜차이즈	-10571
부스타빗	-10572
니라	-10573
▁넘어가	-10574
81	-10575
▁만났	-10576
레이터	-10577
▁학생들에게	-10578
▁목숨을	-10579
투자증권	-10580
초에	-10581
들고	-10582
▁이슬람	-10583
음파	-10584
▁벌금	-10585
▁책상	-10586
▁소아	-10587
유치	-10588
▁온갖	-10589
▁순천	-10590
정원	-10591
5,	-10592
플루	-10593
▁상황은	-10594
▁실력	-10595
ecur	-10596
▁생태계	-10597
ble	-10598
▁11.	-10599
▁주식을	-10600
▁말하면	-10601
렌지	-10602
▁preparation	-10603
이동	-10604
con	-10605
▁FAQ	-10606
▁사모	-10607
▁돌아온	-10608
▁감사드립니다	-10609
alk	-10610
▁지역은	-10611
▁ESG	-10612
▁요즘은	-10613
▁모두에게	-10614
▁접목	-10615
▁석사	-10616
▁TOP	-10617
▁과거의	-10618
▁대한민국의	-10619
▁모범	-10620
▁소수	-10621
▁손이	-10622
▁위기에	-10623
▁한국을	-10624
웠습니다	-10625
먹는	-10626
▁성장할	-10627
▁하시면	-10628
▁생각해보	-10629
▁표시됩니다	-10630
심은	-10631
▁수주	-10632
▁답했다	-10633
봤습니다	-10634
▁통영	-10635
▁냈	-10636
프의	-10637
▁맞춘	-10638
usiness	-10639
회관	-10640
▁지원이	-10641
▁추천합니다	-10642
▁호스트	-10643
Pro	-10644
▁스토어	-10645
▁1998	-10646
되었던	-10647
LA	-10648
▁Le	-10649
▁여백	-10650
▁다음으로	-10651
▁선보였다	-10652
▁선물을	-10653
▁잘하는	-10654
▁Inter	-10655
강을	-10656
▁무상	-10657
▁연수	-10658
▁느끼게	-10659
어링	-10660
▁싶을	-10661
▁한국과	-10662
▁선수들이	-10663
노총	-10664
면이	-10665
▁스웨덴	-10666
▁요구를	-10667
▁결과적으로	-10668
▁원하시는	-10669
생태	-10670
▁새끼	-10671
▁총장	-10672
▁참석해	-10673
▁수행할	-10674
▁올리는	-10675
▁최소한	-10676
.'	-10677
▁도시의	-10678
공유	-10679
▁걸음	-10680
▁다룬	-10681
▁카지노사이트	-10682
타는	-10683
▁곳입니다	-10684
ict	-10685
프리카	-10686
▁주차장	-10687
▁영화의	-10688
은행은	-10689
▁높아지고	-10690
▁나누는	-10691
▁스틸	-10692
▁거리가	-10693
까지만	-10694
▁서론	-10695
▁사후	-10696
▁위원장	-10697
▁이의	-10698
▁강아지	-10699
▁장비를	-10700
▁후에도	-10701
고요	-10702
▁스펙	-10703
▁치료가	-10704
▁위축	-10705
해주신	-10706
▁좋다고	-10707
▁차지하고	-10708
▁지정된	-10709
▁왕복	-10710
▁예금	-10711
▁test	-10712
▁단계에서	-10713
================	-10714
ING	-10715
▁요소가	-10716
경에	-10717
▁영주	-10718
▁훈련을	-10719
▁꼴	-10720
▁요리를	-10721
구와	-10722
▁모의	-10723
▁럭셔리	-10724
라피	-10725
▁단계를	-10726
방식	-10727
▁부각	-10728
▁흐르는	-10729
▁꽉	-10730
.23	-10731
정규직	-10732
▁생각하지	-10733
▁보도자료	-10734
▁만일	-10735
▁메뉴를	-10736
▁배송비	-10737
azon	-10738
▁채널을	-10739
▁디바이	-10740
▁가능하게	-10741
▁인생의	-10742
▁주문을	-10743
earch	-10744
실의	-10745
▁하남	-10746
▁010	-10747
▁one	-10748
▁프로그램의	-10749
차의	-10750
▁초고속	-10751
▁go	-10752
시간에	-10753
▁원의	-10754
스톤	-10755
몬드	-10756
fess	-10757
▁근처에서	-10758
▁어릴	-10759
유아	-10760
7,	-10761
▁대통령과	-10762
보며	-10763
▁알바	-10764
▁윤리	-10765
▁딥	-10766
aster	-10767
▁있기를	-10768
해진다	-10769
▁매치	-10770
강원	-10771
연수	-10772
▁도대체	-10773
▁않는다면	-10774
wit	-10775
▁소변	-10776
▁중학교	-10777
▁면제	-10778
▁일어날	-10779
▁자연스러운	-10780
▁수련	-10781
▁소감을	-10782
추어	-10783
.14	-10784
▁2030	-10785
▁선제	-10786
림이	-10787
▁넉넉	-10788
역이	-10789
▁예쁘	-10790
▁있나	-10791
▁혈압	-10792
▁트럭	-10793
▁그들에게	-10794
▁있답니다	-10795
▁세일	-10796
체제	-10797
▁서비스로	-10798
▁아쉬운	-10799
하길	-10800
효율	-10801
▁형식으로	-10802
가게	-10803
엑스	-10804
셨나요	-10805
▁의사가	-10806
▁주입	-10807
▁숭	-10808
▁바꾸는	-10809
정비	-10810
총리	-10811
▁우연히	-10812
hy	-10813
루미늄	-10814
▁대책을	-10815
▁SW	-10816
▁고려해야	-10817
▁제공되며	-10818
▁심판	-10819
스쿨	-10820
▁도보	-10821
구에서	-10822
etwork	-10823
▁스카	-10824
▁고속도로	-10825
▁고추	-10826
▁미사일	-10827
퍼니	-10828
류가	-10829
▁Ed	-10830
▁중국은	-10831
인들	-10832
▁이라	-10833
▁메르	-10834
▁행복을	-10835
▁격리	-10836
▁약을	-10837
▁점수를	-10838
▁교육의	-10839
▁모르겠다	-10840
깁니다	-10841
▁사실이다	-10842
▁--	-10843
생각	-10844
끄럽	-10845
▁바닷	-10846
▁줄이기	-10847
▁얼굴에	-10848
▁현실을	-10849
▁뭐가	-10850
▁소위	-10851
▁좀더	-10852
항에	-10853
▁방영	-10854
▁성폭	-10855
▁어렵게	-10856
▁비율이	-10857
▁provide	-10858
▁무엇인가요	-10859
▁상향	-10860
▁워터	-10861
▁자존	-10862
▁텐데	-10863
▁바닥에	-10864
▁자기소개	-10865
▁시트	-10866
▁첫날	-10867
▁어쨌든	-10868
▁김기	-10869
▁모은	-10870
▁당연한	-10871
▁실시하고	-10872
▁Fr	-10873
처를	-10874
▁비례	-10875
▁서로의	-10876
▁했다는	-10877
▁김상	-10878
EV	-10879
TX	-10880
▁아들이	-10881
▁급성	-10882
▁감싸	-10883
겨울	-10884
▁빛나는	-10885
희가	-10886
그린	-10887
▁마스크를	-10888
▁맞서	-10889
▁파우	-10890
▁밀려	-10891
▁삶이	-10892
▁파악하고	-10893
희망	-10894
▁원리	-10895
▁체제	-10896
▁감수	-10897
▁사고를	-10898
▁순서	-10899
▁약한	-10900
▁90%	-10901
축산	-10902
리면서	-10903
▁Cor	-10904
ove	-10905
▁부가	-10906
▁아키	-10907
▁방식이	-10908
레드	-10909
▁권한을	-10910
▁영향으로	-10911
▁위치해	-10912
▁나선다	-10913
▁이준	-10914
▁콘셉	-10915
▁기다려	-10916
시험을	-10917
오를	-10918
▁수료	-10919
▁모른	-10920
ton	-10921
▁시그	-10922
서리	-10923
▁오리지널	-10924
▁크로	-10925
▁킬	-10926
▁방식의	-10927
▁버리고	-10928
▁거치	-10929
▁눈물	-10930
▁Reserved	-10931
▁폭행	-10932
rad	-10933
▁수렴	-10934
▁지은	-10935
▁학과	-10936
▁영문	-10937
▁두드	-10938
ha	-10939
사회적	-10940
교의	-10941
LL	-10942
▁통증을	-10943
살이	-10944
▁등산	-10945
위원회가	-10946
▁소비자의	-10947
▁신청할	-10948
▁위치하고	-10949
서구	-10950
환자	-10951
▁소액	-10952
타지	-10953
DB	-10954
▁부근	-10955
▁USD	-10956
▁배경으로	-10957
87	-10958
the	-10959
▁없는데	-10960
만화	-10961
▁회사에서	-10962
▁경찰에	-10963
보상	-10964
▁고객은	-10965
▁성형	-10966
차에	-10967
▁역임	-10968
▁점유율	-10969
외과	-10970
인원	-10971
▁자체를	-10972
▁싹	-10973
경험	-10974
▁쓰러	-10975
▁주민들의	-10976
위험	-10977
▁신혼	-10978
▁dis	-10979
위에서	-10980
기에는	-10981
▁유망	-10982
CO	-10983
▁그릴	-10984
▁승객	-10985
비즈	-10986
▁저렴하게	-10987
▁축복	-10988
전으로	-10989
▁위주로	-10990
▁밤에	-10991
▁뷔	-10992
▁유리한	-10993
▁확률이	-10994
▁which	-10995
현황	-10996
▁데이터베이스	-10997
▁즐기실	-10998
리안	-10999
▁전자상거래	-11000
▁어둠	-11001
생의	-11002
▁부모님	-11003
▁동맹	-11004
▁몸의	-11005
mart	-11006
▁이후로	-11007
▁보러	-11008
.00	-11009
▁감자	-11010
▁크기가	-11011
저축은행	-11012
건은	-11013
▁안성	-11014
▁판매를	-11015
▁혁	-11016
▁러브	-11017
ible	-11018
페라	-11019
▁미션	-11020
man	-11021
▁연상	-11022
▁공주	-11023
▁씨앗	-11024
기술을	-11025
▁동화	-11026
계산	-11027
반품	-11028
수업	-11029
▁브랜드를	-11030
근한	-11031
관으로	-11032
프레스	-11033
관절	-11034
▁유혹	-11035
▁늘었다	-11036
▁고등	-11037
ms	-11038
▁돕기	-11039
▁양해	-11040
▁의장	-11041
▁소환	-11042
▁크로스	-11043
인들에게	-11044
귀포	-11045
소식	-11046
▁195	-11047
▁크롬	-11048
건에	-11049
▁근대	-11050
▁맵	-11051
더를	-11052
▁분들에게	-11053
▁신체의	-11054
▁하세요	-11055
▁탄핵	-11056
▁구입할	-11057
▁투자자	-11058
▁전에는	-11059
EW	-11060
▁자부	-11061
트넘	-11062
▁선보인다	-11063
▁72	-11064
▁노조	-11065
▁이룬	-11066
▁다중	-11067
▁시스템에	-11068
으시	-11069
▁타격	-11070
▁비서	-11071
▁시골	-11072
▁물고	-11073
▁기사는	-11074
▁공지사항	-11075
정부가	-11076
▁기뻐	-11077
가상	-11078
▁게이밍	-11079
해결	-11080
▁어린이집	-11081
▁85	-11082
▁혁신을	-11083
▁포함하는	-11084
▁띠	-11085
▁out	-11086
▁하나님은	-11087
▁최선의	-11088
▁초록	-11089
▁룩	-11090
▁김수	-11091
▁아픔	-11092
사업의	-11093
▁기여할	-11094
▁미성	-11095
▁브랜드의	-11096
▁전체적인	-11097
uy	-11098
▁개발하고	-11099
▁가르쳐	-11100
▁실시한	-11101
▁PM	-11102
▁여드름	-11103
만으로도	-11104
▁엘리베이터	-11105
료가	-11106
생이	-11107
유가	-11108
ner	-11109
▁부장	-11110
▁들어갔다	-11111
티드	-11112
▁CS	-11113
▁가능할	-11114
▁시민의	-11115
▁신부	-11116
▁모르게	-11117
▁바람직	-11118
acebook	-11119
▁촛불	-11120
▁전하는	-11121
편을	-11122
▁구름	-11123
심에	-11124
▁소파	-11125
▁끌어올	-11126
▁나타냅니다	-11127
▁자기가	-11128
▁잠을	-11129
▁맛있게	-11130
▁캐시	-11131
시장에	-11132
▁JTBC	-11133
ky	-11134
Ex	-11135
mun	-11136
▁모두를	-11137
▁몬스터	-11138
▁되게	-11139
▁이어졌다	-11140
IF	-11141
▁오신	-11142
후의	-11143
문제를	-11144
▁관하여	-11145
▁피아노	-11146
주셔서	-11147
용량	-11148
치와	-11149
▁까다	-11150
▁이더	-11151
arg	-11152
▁매개	-11153
▁서부	-11154
▁결과로	-11155
상선	-11156
정지	-11157
▁나뉘	-11158
▁내리는	-11159
▁무거운	-11160
▁발생했다	-11161
▁지나치게	-11162
▁소음	-11163
▁비핵	-11164
▁곳곳에	-11165
실장	-11166
▁연재	-11167
▁드레스	-11168
전주	-11169
▁클러	-11170
계획을	-11171
▁죽을	-11172
미사	-11173
▁필요하다는	-11174
어지	-11175
▁깊게	-11176
▁세균	-11177
▁서로를	-11178
▁홈런	-11179
ren	-11180
▁즐거움을	-11181
▁미네	-11182
▁소모	-11183
오일	-11184
▁프로세스	-11185
▁속한	-11186
▁전동	-11187
▁차기	-11188
적은	-11189
클릭	-11190
▁파산	-11191
▁짙	-11192
▁확립	-11193
▁직접적인	-11194
▁연락을	-11195
▁유방	-11196
당과	-11197
▁정답	-11198
▁차로	-11199
▁근로자	-11200
▁대부분은	-11201
▁행사가	-11202
▁도약	-11203
▁재직	-11204
▁설비	-11205
▁도출	-11206
▁실버	-11207
▁읍	-11208
▁다이아	-11209
랑이	-11210
▁베팅을	-11211
▁네트워크를	-11212
지역의	-11213
교를	-11214
▁이어진	-11215
▁자영업	-11216
▁날카	-11217
플러	-11218
▁110	-11219
▁립	-11220
▁앞장서	-11221
▁었	-11222
국으로	-11223
▁달러를	-11224
▁제작한	-11225
▁공유하고	-11226
나가는	-11227
▁여러분은	-11228
▁귀찮	-11229
▁캡처	-11230
비한	-11231
사카	-11232
오픈	-11233
▁다리를	-11234
▁보상을	-11235
▁☞	-11236
▁햄	-11237
▁몰라	-11238
▁빌려	-11239
▁대체로	-11240
▁날씨가	-11241
▁무더	-11242
▁모델은	-11243
대환	-11244
포항	-11245
▁제거하는	-11246
▁친구들과	-11247
▁인증덤프	-11248
▁방법과	-11249
▁전시회	-11250
▁초콜릿	-11251
석에	-11252
나라는	-11253
▁소식이	-11254
▁백성	-11255
정부의	-11256
▁유일하게	-11257
▁제품과	-11258
유효	-11259
속의	-11260
▁미국에	-11261
료는	-11262
심과	-11263
구리	-11264
▁들어갔	-11265
▁컷	-11266
▁초등	-11267
▁맑은	-11268
▁정상적으로	-11269
례를	-11270
한도	-11271
배상	-11272
▁Su	-11273
▁보행	-11274
▁책의	-11275
▁아산	-11276
▁규정에	-11277
있었습니다	-11278
타르	-11279
▁간접	-11280
▁신약	-11281
▁시민들이	-11282
유지	-11283
▁학교에서	-11284
천군	-11285
ava	-11286
▁방문객	-11287
▁시흥	-11288
▁저자는	-11289
▁이명박	-11290
임이	-11291
▁익산	-11292
▁수요일	-11293
▁하나님께	-11294
▁Rights	-11295
로로	-11296
▁작가는	-11297
난다	-11298
▁선을	-11299
▁다음달	-11300
▁시위	-11301
▁help	-11302
▁년에	-11303
▁관할	-11304
▁대면	-11305
▁활발한	-11306
외선	-11307
장소	-11308
청이	-11309
▁경험할	-11310
▁이집	-11311
KR	-11312
▁시정	-11313
▁안되	-11314
두에	-11315
작을	-11316
83	-11317
통상	-11318
일로부터	-11319
립선	-11320
▁수시로	-11321
97	-11322
교류	-11323
▁꾸준한	-11324
▁바뀐	-11325
▁목적이	-11326
코노	-11327
▁신속한	-11328
▁늦은	-11329
▁행사에	-11330
▁샌드	-11331
데스	-11332
ouse	-11333
alth	-11334
▁전문가의	-11335
▁컨테이너	-11336
▁항공편을	-11337
ecurity	-11338
asy	-11339
▁계층	-11340
PM	-11341
▁지점	-11342
중이	-11343
lication	-11344
▁잡는	-11345
▁메이크업	-11346
췄다	-11347
▁여대생	-11348
하시길	-11349
화재	-11350
▁무사	-11351
▁꾸며	-11352
▁스타일의	-11353
▁중국에서	-11354
▁1%	-11355
형태	-11356
▁모델로	-11357
크는	-11358
▁지루	-11359
son	-11360
▁봤다	-11361
▁이럴	-11362
▁감축	-11363
의사	-11364
▁불가능합니다	-11365
mail	-11366
▁기간에	-11367
▁주십시오	-11368
우주	-11369
▁슬픔	-11370
▁피할	-11371
▁BMW	-11372
▁고스	-11373
▁골라	-11374
▁싶어서	-11375
치아	-11376
2000	-11377
수집	-11378
ener	-11379
법률	-11380
▁정교	-11381
▁착수	-11382
▁1997	-11383
이날	-11384
졌다는	-11385
▁변신	-11386
▁(3)	-11387
리니	-11388
▁추진하는	-11389
▁분기	-11390
▁불확실	-11391
차피	-11392
▁늘어나고	-11393
▁말아야	-11394
▁뉴질랜드	-11395
▁정부에서	-11396
▁회수	-11397
다양	-11398
▁증언	-11399
어지고	-11400
스러워	-11401
▁학생이	-11402
▁넘겨	-11403
”(	-11404
후군	-11405
▁무렵	-11406
과정에서	-11407
▁나눌	-11408
▁한창	-11409
▁자식	-11410
▁전체가	-11411
▁필름	-11412
재정	-11413
▁My	-11414
▁원주	-11415
▁위와	-11416
▁가계	-11417
▁안정적으로	-11418
때는	-11419
▁세상이	-11420
외국인	-11421
▁상품에	-11422
▁지역경제	-11423
▁실력을	-11424
▁몫	-11425
▁상기	-11426
리자	-11427
▁단위로	-11428
▁다문화	-11429
▁System	-11430
▁마운	-11431
▁관람객	-11432
▁Certified	-11433
▁합쳐	-11434
▁누구도	-11435
▁먹튀검증	-11436
▁벗어	-11437
▁exp	-11438
없다	-11439
▁의외	-11440
fter	-11441
▁실태	-11442
br	-11443
분양	-11444
케이션을	-11445
방이	-11446
▁알기	-11447
수리	-11448
고에	-11449
▁농가	-11450
▁엄마가	-11451
▁제조업	-11452
▁강남구	-11453
하십니까	-11454
▁국민이	-11455
▁IM	-11456
진흥원	-11457
해볼	-11458
▁평면	-11459
▁둘러싸	-11460
설치	-11461
▁의해서	-11462
▁캐주얼	-11463
▁학문	-11464
캠프	-11465
▁서면	-11466
▁지수	-11467
없음	-11468
▁본사	-11469
▁균형을	-11470
92	-11471
ts	-11472
tv	-11473
▁머릿	-11474
챌린	-11475
IGH	-11476
▁해결하는	-11477
▁대거	-11478
설정	-11479
코인	-11480
▁올릴	-11481
자리에	-11482
으실	-11483
▁130	-11484
▁말입니다	-11485
▁신인	-11486
▁익스	-11487
▁돌아오	-11488
▁확인을	-11489
부처	-11490
ited	-11491
▁재단	-11492
▁자본주의	-11493
▁Apple	-11494
▁선착	-11495
▁주장을	-11496
이닝	-11497
▁세상에서	-11498
ream	-11499
▁작품이	-11500
▁몸매	-11501
▁센서	-11502
수지	-11503
▁대부분이	-11504
▁들었습니다	-11505
▁인종	-11506
▁숨을	-11507
ei	-11508
▁EUR	-11509
공화	-11510
▁다음의	-11511
국과	-11512
▁열려	-11513
만원의	-11514
지대	-11515
▁서식	-11516
▁놀이터	-11517
위원회를	-11518
▁노하우를	-11519
▁관세	-11520
▁눈앞	-11521
▁산하	-11522
▁who	-11523
회의에서	-11524
일정	-11525
걸음	-11526
재난	-11527
▁쳐다	-11528
▁알아볼	-11529
▁가전	-11530
▁되기를	-11531
▁사용자에게	-11532
첨단	-11533
▁특화	-11534
▁분들을	-11535
▁업데이트를	-11536
▁그러자	-11537
▁많은데	-11538
▁기다리는	-11539
▁타인의	-11540
옵션	-11541
▁좁은	-11542
▁학교에	-11543
LS	-11544
▁환율	-11545
▁스티커	-11546
▁이리	-11547
▁욕조	-11548
ty	-11549
▁면에서	-11550
▁구사	-11551
ular	-11552
의약품	-11553
▁언급한	-11554
▁처음에	-11555
▁쪼	-11556
▁개통	-11557
▁세운	-11558
▁프랜차이즈	-11559
fl	-11560
니즘	-11561
▁아버지의	-11562
▁DS	-11563
▁본래	-11564
▁책이	-11565
▁보여줄	-11566
▁추가적인	-11567
▁이색	-11568
▁갈라	-11569
▁급등	-11570
화할	-11571
▁하나도	-11572
TN	-11573
거야	-11574
▁적게	-11575
▁무지	-11576
▁무대를	-11577
▁중간에	-11578
TI	-11579
▁준공	-11580
▁비공개	-11581
▁기업으로	-11582
▁싼	-11583
▁날을	-11584
94	-11585
▁알아보겠습니다	-11586
.30	-11587
▁내의	-11588
▁신형	-11589
▁가져다	-11590
▁가능성도	-11591
▁공유하는	-11592
체와	-11593
중공업	-11594
▁요구에	-11595
▁내구	-11596
▁스팀	-11597
비디오	-11598
▁지역주민	-11599
▁역사와	-11600
크리에	-11601
▁인터뷰를	-11602
▁XNUMX	-11603
학술	-11604
-24	-11605
▁추모	-11606
기간이	-11607
ecial	-11608
▁과장	-11609
▁부당	-11610
▁Dr	-11611
수기	-11612
되므로	-11613
▁전체의	-11614
공제	-11615
▁조종	-11616
)·	-11617
놨다	-11618
레인지	-11619
▁충격을	-11620
▁잃은	-11621
▁규모는	-11622
▁만료	-11623
▁점에	-11624
어질	-11625
▁모발	-11626
ety	-11627
▁끝나고	-11628
▁조성을	-11629
▁보험사	-11630
▁사진과	-11631
그는	-11632
▁개시	-11633
▁서브	-11634
적이지	-11635
▁시설에	-11636
▁주었다	-11637
▁템플릿	-11638
▁최소한의	-11639
▁당한	-11640
▁대박	-11641
맛사지	-11642
▁끝이	-11643
레이시아	-11644
ments	-11645
듯한	-11646
보았다	-11647
▁리뷰를	-11648
▁약속을	-11649
▁이곳에	-11650
▁장바구니	-11651
▁51	-11652
▁탓에	-11653
있던	-11654
▁있기에	-11655
▁식사가	-11656
이면서	-11657
▁참으로	-11658
접종	-11659
▁part	-11660
▁연결하는	-11661
au	-11662
▁기자회견을	-11663
바이트	-11664
▁엄격한	-11665
▁마련했다	-11666
아주	-11667
▁Red	-11668
▁동영상을	-11669
OW	-11670
▁가까워	-11671
▁뒷받침	-11672
▁무료배송	-11673
칩니다	-11674
먹고	-11675
▁우승을	-11676
▁토마토	-11677
▁web	-11678
▁남자가	-11679
면허	-11680
▁백화점	-11681
에스	-11682
혈관	-11683
졌지만	-11684
백화점	-11685
플랫폼	-11686
답게	-11687
인구	-11688
▁고난	-11689
컴퓨터	-11690
▁개인이	-11691
▁추진할	-11692
▁치료에	-11693
▁알루미늄	-11694
작품	-11695
▁관리가	-11696
▁알아보고	-11697
▁연구원은	-11698
▁소개팅	-11699
▁호텔은	-11700
▁no	-11701
통일	-11702
▁해수	-11703
▁신경을	-11704
강화	-11705
▁검찰은	-11706
화면	-11707
(7	-11708
▁송파	-11709
.24	-11710
골을	-11711
▁중순	-11712
▁대상을	-11713
▁키보드	-11714
Sc	-11715
▁록	-11716
처분	-11717
▁없던	-11718
▁나설	-11719
▁조화	-11720
사무소	-11721
fessional	-11722
▁뽐	-11723
되자	-11724
▁추운	-11725
▁침묵	-11726
▁이들에게	-11727
▁교회의	-11728
▁흥행	-11729
▁사이트가	-11730
▁자유로운	-11731
▁강도	-11732
▁남는	-11733
▁방탄	-11734
▁성향	-11735
ative	-11736
▁촉촉	-11737
▁메가	-11738
▁샐러	-11739
ides	-11740
▁법원	-11741
▁파기	-11742
▁펄	-11743
텐데	-11744
▁보냈다	-11745
제목	-11746
▁SD	-11747
▁대개	-11748
▁치고	-11749
▁회장의	-11750
제일	-11751
▁일본에서	-11752
▁성분이	-11753
▁바퀴	-11754
▁입맛	-11755
ym	-11756
▁출현	-11757
▁않아요	-11758
었기	-11759
ards	-11760
udio	-11761
▁처분	-11762
▁마시는	-11763
▁설립된	-11764
화문	-11765
드린	-11766
rip	-11767
▁총선	-11768
▁글로	-11769
▁가만히	-11770
▁모양의	-11771
▁월급	-11772
~6	-11773
▁굵	-11774
원들이	-11775
둑이	-11776
▁국회에서	-11777
▁News	-11778
▁준비되어	-11779
학년도	-11780
▁적용해	-11781
▁디저	-11782
』,	-11783
시작	-11784
ute	-11785
EB	-11786
▁문화재	-11787
▁현상을	-11788
▁공간에	-11789
▁그렇기	-11790
▁호텔에는	-11791
▁진행됩니다	-11792
긴다	-11793
▁있겠지만	-11794
르며	-11795
▁건강하게	-11796
팀의	-11797
니언	-11798
▁자매	-11799
씨와	-11800
▁53	-11801
▁이길	-11802
▁란	-11803
▁토끼	-11804
▁확인한	-11805
벤트	-11806
▁사건의	-11807
예를	-11808
어와	-11809
▁최악의	-11810
▁크기의	-11811
▁흔한	-11812
▁Int	-11813
▁수준에	-11814
▁들어오는	-11815
reen	-11816
겁니다	-11817
▁징계	-11818
▁다하고	-11819
▁증가하는	-11820
▁땅을	-11821
▁이루는	-11822
시절	-11823
▁추락	-11824
▁Off	-11825
보조	-11826
:10	-11827
▁상자	-11828
▁자제	-11829
▁퀘	-11830
▁확진자가	-11831
▁사물	-11832
▁상주	-11833
▁최대의	-11834
▁안됩니다	-11835
▁캐릭터를	-11836
러블	-11837
연애	-11838
▁제네	-11839
▁친화	-11840
▁키우는	-11841
길래	-11842
▁기준이	-11843
▁죽음을	-11844
약관	-11845
▁화면을	-11846
널드	-11847
▁높였다	-11848
새로운	-11849
감의	-11850
▁나누고	-11851
▁일하고	-11852
측은	-11853
PR	-11854
▁적용할	-11855
by	-11856
▁연중	-11857
▁주장하는	-11858
▁58	-11859
▁눈물을	-11860
▁이력	-11861
▁룸서비스	-11862
▁암호화	-11863
통제	-11864
사들의	-11865
ource	-11866
▁점수	-11867
유로	-11868
▁영등포	-11869
▁캠페인을	-11870
▁렌즈	-11871
▁유력	-11872
▁편입	-11873
▁이라는	-11874
▁소비자가	-11875
▁참여하고	-11876
또한	-11877
▁블로	-11878
▁뜨겁	-11879
▁인터페이	-11880
▁사랑과	-11881
과정을	-11882
▁자유를	-11883
▁수제	-11884
▁등록일	-11885
웃음	-11886
▁경비	-11887
▁농민	-11888
▁기술로	-11889
▁미만의	-11890
▁기업과	-11891
▁계획이	-11892
▁동행	-11893
라이어	-11894
▁모으고	-11895
▁법칙	-11896
하게도	-11897
▁365	-11898
▁스카이	-11899
▁화요일	-11900
▁영원히	-11901
▁안타깝	-11902
▁국가에서	-11903
플라	-11904
▁내보	-11905
여명의	-11906
두는	-11907
식당	-11908
VC	-11909
▁거짓말	-11910
▁항목을	-11911
▁국가대표	-11912
-26	-11913
▁취미	-11914
▁방문하는	-11915
▁Ind	-11916
▁국가가	-11917
▁라이선	-11918
이었는데	-11919
만달러	-11920
▁확대를	-11921
▁말까지	-11922
▁서비스와	-11923
▁문장	-11924
지나	-11925
▁무작	-11926
인지를	-11927
▁편이다	-11928
▁됨	-11929
▁삶은	-11930
▁제시한	-11931
이었지만	-11932
동아	-11933
▁상세한	-11934
▁원정	-11935
인기	-11936
돌이	-11937
▁김제	-11938
▁드물	-11939
iversity	-11940
▁이어서	-11941
▁방문하여	-11942
럴드	-11943
중고	-11944
▁찬성	-11945
▁불을	-11946
firstname	-11947
맞춤	-11948
▁책임이	-11949
언니	-11950
▁진행해	-11951
▁말았다	-11952
▁웬	-11953
▁나노	-11954
▁their	-11955
신경	-11956
취업	-11957
▁고민이	-11958
▁조금만	-11959
결혼	-11960
▁맞고	-11961
▁시의	-11962
▁사이드	-11963
▁◎	-11964
▁구강	-11965
▁남원	-11966
▁알려드립니다	-11967
▁앰	-11968
융합	-11969
▁피부가	-11970
▁정하는	-11971
▁거대	-11972
의학	-11973
▁쾌적한	-11974
중소	-11975
▁골든	-11976
▁원본	-11977
▁라운드	-11978
크의	-11979
▁수직	-11980
색으로	-11981
▁권장합니다	-11982
▁메디	-11983
▁여기는	-11984
▁준비해	-11985
▁지나면	-11986
쓰고	-11987
▁윗	-11988
▁벡	-11989
▁클린	-11990
트랙	-11991
raind	-11992
▁얼음	-11993
▁잘라	-11994
▁대비해	-11995
하를	-11996
▁상한	-11997
▁할당	-11998
▁받으면	-11999
▁즐기고	-12000
▁기쁘	-12001
▁창은	-12002
관리를	-12003
▁달콤한	-12004
▁푹	-12005
▁56	-12006
▁사도	-12007
▁전액	-12008
▁회담	-12009
▁오면	-12010
▁벚꽃	-12011
▁하여금	-12012
공부자료	-12013
아가씨	-12014
▁지니고	-12015
▁갱신	-12016
▁걱정이	-12017
▁정신적	-12018
▁결정했다	-12019
▁이용자의	-12020
▁데리고	-12021
▁용도로	-12022
▁가중	-12023
▁inter	-12024
▁지방자치단체	-12025
▁발라	-12026
▁부패	-12027
방울	-12028
▁번도	-12029
▁체계적인	-12030
사상	-12031
욕을	-12032
▁일으킬	-12033
회로	-12034
2010	-12035
pass	-12036
▁단어를	-12037
▁모습에	-12038
▁움직임을	-12039
내역	-12040
▁가족을	-12041
▁using	-12042
▁선행	-12043
진료	-12044
▁거울	-12045
▁총리	-12046
▁놓여	-12047
블록	-12048
▁사회주의	-12049
▁설명이다	-12050
▁속에서도	-12051
▁써야	-12052
▁법안	-12053
거리가	-12054
대채팅	-12055
▁구상	-12056
▁찢	-12057
▁배정	-12058
▁집어	-12059
▁예전에	-12060
사들은	-12061
▁목요일	-12062
▁iPhone	-12063
▁꽂	-12064
▁탄력	-12065
▁버전을	-12066
▁게이머	-12067
▁방식은	-12068
▁기관의	-12069
▁운영에	-12070
▁사회공헌	-12071
▁의사는	-12072
▁잡을	-12073
▁부러	-12074
▁초음파	-12075
▁서울의	-12076
off	-12077
▁삼아	-12078
▁관리에	-12079
▁대표의	-12080
▁레몬	-12081
▁시설의	-12082
▁발생하고	-12083
▁국세	-12084
▁소개했다	-12085
▁호스팅	-12086
▁헐	-12087
▁주민들이	-12088
동기	-12089
▁의거	-12090
▁acc	-12091
▁사항에	-12092
JX	-12093
▁하나요	-12094
하긴	-12095
▁마땅	-12096
▁소개하는	-12097
▁블루투스	-12098
▁저런	-12099
가장	-12100
▁소멸	-12101
▁재미있게	-12102
ism	-12103
▁탈퇴	-12104
▁협조를	-12105
TO	-12106
▁편의를	-12107
▁54	-12108
▁들어온	-12109
▁증진	-12110
▁코트	-12111
▁훔	-12112
통화	-12113
Sh	-12114
시에서	-12115
▁아래에서	-12116
내지	-12117
.^^	-12118
che	-12119
리나	-12120
▁95	-12121
▁주제를	-12122
▁리버	-12123
▁서서히	-12124
▁누르면	-12125
▁스위트	-12126
▁사회에서	-12127
▁붙잡	-12128
▁중국이	-12129
▁중대	-12130
억달러	-12131
▁명령을	-12132
obe	-12133
▁낯선	-12134
▁너는	-12135
▁결제완료	-12136
피를	-12137
▁감소한	-12138
▁발생하지	-12139
산동	-12140
▁손실을	-12141
청에	-12142
▁놀랍	-12143
▁팬데믹	-12144
▁퇴근	-12145
▁제작된	-12146
▁디자인과	-12147
▁혀	-12148
▁파주	-12149
▁않나요	-12150
▁일련의	-12151
▁지붕	-12152
▁190	-12153
▁아이들에게	-12154
▁나열	-12155
▁먹기	-12156
▁직원들이	-12157
나서	-12158
▁시에	-12159
▁뛰어넘	-12160
++	-12161
▁커피를	-12162
▁홈페이지에서	-12163
지원금	-12164
▁고성능	-12165
▁개최한다	-12166
▁차이는	-12167
로만	-12168
▁원전	-12169
▁주의사항	-12170
맥스	-12171
▁사용해야	-12172
▁주된	-12173
우리가	-12174
러닝	-12175
▁검출	-12176
▁시행령	-12177
현의	-12178
▁꽃이	-12179
더스	-12180
바라	-12181
▁온천	-12182
▁조용히	-12183
▁그야말로	-12184
▁쉴	-12185
▁분석했다	-12186
폴리	-12187
▁사퇴	-12188
▁온실	-12189
▁기자의	-12190
▁정통	-12191
▁미소를	-12192
▁학생들을	-12193
▁락	-12194
▁같네요	-12195
때로	-12196
정기	-12197
▁데이터가	-12198
보지	-12199
우지	-12200
▁엄격	-12201
▁선택이	-12202
막이	-12203
사태	-12204
취를	-12205
▁산불	-12206
▁수납	-12207
매김	-12208
드리며	-12209
▁그룹의	-12210
습을	-12211
▁당당	-12212
군과	-12213
▁집합	-12214
~10	-12215
▁실종	-12216
사한	-12217
기간은	-12218
▁덤프데모	-12219
▁Korean	-12220
▁가량	-12221
경기도	-12222
▁이천	-12223
jpg	-12224
자격증	-12225
▁어렵지	-12226
▁시대가	-12227
▁인간은	-12228
▁똑같이	-12229
▁비판했다	-12230
▁Gr	-12231
▁그로	-12232
▁평일	-12233
▁병원에	-12234
계열	-12235
▁내릴	-12236
일지	-12237
▁계곡	-12238
▁Rep	-12239
▁등장한	-12240
법상	-12241
▁내용으로	-12242
▁온라인카지노	-12243
▁알리고	-12244
▁캄	-12245
▁그리스도의	-12246
▁제안을	-12247
▁브로커	-12248
▁지원해	-12249
▁유권	-12250
▁설명하고	-12251
저기	-12252
▁버려	-12253
라인을	-12254
▁중증	-12255
▁예정이며	-12256
메가	-12257
▁확인이	-12258
마당	-12259
▁브리핑	-12260
raindumps	-12261
과학기술	-12262
▁상가	-12263
▁위장	-12264
▁명확한	-12265
▁매출이	-12266
▁정리해	-12267
▁출시된	-12268
▁필요하지	-12269
▁about	-12270
▁효과는	-12271
▁마이너	-12272
▁철회	-12273
▁시야	-12274
▁CF	-12275
▁산정	-12276
교육의	-12277
▁레지	-12278
▁제이	-12279
▁미성년	-12280
▁재료를	-12281
▁수준이	-12282
▁출혈	-12283
▁것일까	-12284
▁부사	-12285
▁동의를	-12286
▁선보이는	-12287
rain	-12288
▁조언을	-12289
둥이	-12290
▁않는다고	-12291
▁강렬한	-12292
▁물리적	-12293
▁한도	-12294
▁스위스	-12295
▁끄덕	-12296
취소	-12297
▁여기에는	-12298
▁자리매김	-12299
▁보았습니다	-12300
▁샘	-12301
▁사람들도	-12302
▁이념	-12303
▁복제	-12304
취급	-12305
▁알았	-12306
버튼	-12307
레스테	-12308
저가	-12309
타입	-12310
패션	-12311
▁Top	-12312
▁정보에	-12313
▁잡지	-12314
풍이	-12315
집에	-12316
▁금고	-12317
▁승진	-12318
▁결심	-12319
▁미스터	-12320
▁비밀번호를	-12321
▁다큐	-12322
만들기	-12323
▁익숙한	-12324
▁되겠습니다	-12325
▁조건에	-12326
▁3.5	-12327
면안마	-12328
,500	-12329
▁노선	-12330
목표	-12331
형에	-12332
▁있네요	-12333
▁협회	-12334
▁말하며	-12335
파가	-12336
***	-12337
캐피탈	-12338
▁전반적으로	-12339
다보니	-12340
UN	-12341
전화번호	-12342
안타	-12343
▁결정할	-12344
하듯	-12345
▁공간으로	-12346
▁아일랜드	-12347
철수	-12348
▁광양	-12349
▁의의	-12350
년만에	-12351
▁림	-12352
이미지	-12353
거를	-12354
▁이루고	-12355
▁필요는	-12356
▁양이	-12357
▁건전한	-12358
▁꿈꾸는	-12359
시장을	-12360
플로	-12361
ction	-12362
밀히	-12363
▁목적은	-12364
▁한계가	-12365
▁주저	-12366
▁하려면	-12367
▁FC	-12368
▁가상화폐	-12369
블리	-12370
▁장소를	-12371
▁거주하는	-12372
▁실시했다	-12373
▁ass	-12374
중개	-12375
▁UN	-12376
체계를	-12377
▁것이란	-12378
문화를	-12379
졌으며	-12380
▁태평양	-12381
▁다가오는	-12382
▁임플란	-12383
▁사업으로	-12384
▁대학의	-12385
96	-12386
▁아스	-12387
디에	-12388
블루	-12389
전공	-12390
접수	-12391
▁명소	-12392
▁시점에서	-12393
▁일입니다	-12394
기타	-12395
▁귀를	-12396
화되고	-12397
▁갇	-12398
부대	-12399
Com	-12400
▁불만	-12401
▁col	-12402
▁일자리를	-12403
▁가이	-12404
사업은	-12405
▁듭니다	-12406
▁자유한국당	-12407
부지	-12408
▁이사장	-12409
운동을	-12410
-200	-12411
▁일상을	-12412
▁유지하기	-12413
arantee	-12414
▁탕	-12415
▁이용을	-12416
▁탐구	-12417
▁급격히	-12418
시스템을	-12419
시각	-12420
▁보람	-12421
▁죄를	-12422
▁파트너십	-12423
년은	-12424
▁이용해서	-12425
▁규정을	-12426
▁떠나는	-12427
▁실정	-12428
▁되찾	-12429
cess	-12430
▁노사	-12431
▁힘입	-12432
▁시간의	-12433
▁지리	-12434
불교	-12435
▁고교	-12436
▁겨울철	-12437
였다고	-12438
▁비주얼	-12439
/10	-12440
▁금강	-12441
▁북한은	-12442
▁이로써	-12443
ternational	-12444
▁거래가	-12445
산에	-12446
▁남을	-12447
▁모델이	-12448
.......	-12449
되었다고	-12450
조리	-12451
▁히트	-12452
개월간	-12453
정보가	-12454
계약을	-12455
▁디자인이	-12456
주일	-12457
▁도중	-12458
으십시오	-12459
▁압력	-12460
vail	-12461
론의	-12462
파티	-12463
▁푸드	-12464
rough	-12465
▁드러냈다	-12466
규제	-12467
산지	-12468
▁양국	-12469
경남	-12470
▁개인정보의	-12471
휴일	-12472
▁고장	-12473
▁감사를	-12474
▁상품으로	-12475
둘러	-12476
▁편의점	-12477
슨은	-12478
혜택	-12479
▁중입니다	-12480
▁토너	-12481
▁해결을	-12482
▁장점을	-12483
▁눈치	-12484
▁디자인의	-12485
청구	-12486
inal	-12487
▁절대로	-12488
▁댄스	-12489
관리자	-12490
정보통신	-12491
▁확인됐다	-12492
(15	-12493
▁비닐	-12494
gram	-12495
▁대중교통	-12496
▁근본적인	-12497
"...	-12498
▁기다리	-12499
주도	-12500
현이	-12501
▁확실하게	-12502
▁두통	-12503
▁베타	-12504
▁단말	-12505
▁목격	-12506
▁역사의	-12507
졌을	-12508
▁Oracle	-12509
icle	-12510
▁민감한	-12511
▁활동하고	-12512
▁댓글을	-12513
▁정도를	-12514
▁데이트코스	-12515
▁만나고	-12516
▁모인	-12517
▁얇은	-12518
▁예방을	-12519
방의	-12520
콜걸샵	-12521
▁얽	-12522
호에	-12523
day	-12524
9%	-12525
▁60%	-12526
ica	-12527
▁송금	-12528
▁코어	-12529
▁상품명	-12530
▁줄어든	-12531
:)	-12532
▁걷는	-12533
프로젝	-12534
vent	-12535
...)	-12536
▁꼼꼼히	-12537
▁한계를	-12538
모두	-12539
일으	-12540
▁과세	-12541
▁또다시	-12542
것입니다	-12543
이요	-12544
▁썼다	-12545
▁양자	-12546
▁가능하고	-12547
▁Air	-12548
▁끔	-12549
그러나	-12550
▁억울	-12551
▁아메리카	-12552
솔루션	-12553
개념	-12554
▁토양	-12555
odel	-12556
▁드리는	-12557
▁식민	-12558
▁주류	-12559
▁선정됐다	-12560
▁호남	-12561
▁출시한	-12562
가량	-12563
레스테롤	-12564
▁비자	-12565
▁물론이고	-12566
▁수수료를	-12567
▁뜬	-12568
전력	-12569
▁비로	-12570
되었을	-12571
소비자	-12572
▁부드럽고	-12573
▁프로그램으로	-12574
urn	-12575
▁힘들어	-12576
▁산업혁명	-12577
▁문화적	-12578
▁것들	-12579
▁총회	-12580
▁최다	-12581
▁소프트웨어를	-12582
▁해를	-12583
?'	-12584
oul	-12585
인들을	-12586
▁money	-12587
▁대충	-12588
ring	-12589
▁것이죠	-12590
▁간절	-12591
▁품질을	-12592
▁고려할	-12593
▁나라가	-12594
▁업체가	-12595
▁내달	-12596
▁씨의	-12597
▁득점	-12598
▁덤	-12599
▁ᄏᄏᄏ	-12600
뒀다	-12601
▁닫지	-12602
▁브라운	-12603
▁추천해	-12604
적의	-12605
▁마련해	-12606
▁어리	-12607
▁싶다는	-12608
▁사서	-12609
합의	-12610
▁신학	-12611
▁자연의	-12612
미노	-12613
▁주목할	-12614
▁work	-12615
▁정렬	-12616
였으며	-12617
▁항의	-12618
▁성적을	-12619
▁꽃을	-12620
▁반가	-12621
▁지명	-12622
▁항생	-12623
▁클릭하면	-12624
▁공존	-12625
.]	-12626
타임즈	-12627
▁습득	-12628
▁여름철	-12629
▁연구가	-12630
통장	-12631
▁수없는	-12632
lor	-12633
▁얻었다	-12634
▁대변인은	-12635
▁나섰	-12636
▁반찬	-12637
▁표정을	-12638
집이	-12639
▁CN	-12640
▁코미	-12641
▁만족하는	-12642
▁우측	-12643
▁폭넓	-12644
▁이마트	-12645
▁지는	-12646
▁성립	-12647
▁착한	-12648
▁CCTV	-12649
▁first	-12650
가야	-12651
▁미소	-12652
▁의미하는	-12653
▁승인을	-12654
att	-12655
▁일각	-12656
▁중부	-12657
▁불필요한	-12658
▁정보작성자	-12659
▁판정을	-12660
메일을	-12661
▁해체	-12662
▁주님의	-12663
▁걸리는	-12664
▁어차피	-12665
님들	-12666
▁중도	-12667
행이	-12668
▁z	-12669
▁협약을	-12670
▁차원의	-12671
▁세월호	-12672
▁본부	-12673
▁new	-12674
▁대립	-12675
▁분석한	-12676
▁일으키는	-12677
▁두꺼	-12678
▁테슬	-12679
▁작업에	-12680
▁키즈	-12681
▁연구의	-12682
▁진학	-12683
▁법무부	-12684
▁상무	-12685
▁토크	-12686
▁환전	-12687
▁기대할	-12688
▁슬림	-12689
▁시카	-12690
▁걸어서	-12691
(8	-12692
▁마쳤다	-12693
▁요청을	-12694
리움	-12695
▁외면	-12696
▁입장에서는	-12697
모의	-12698
ENT	-12699
▁끝으로	-12700
딩을	-12701
▁Free	-12702
▁전달하는	-12703
▁삼각	-12704
▁의회	-12705
▁장려	-12706
▁잡았다	-12707
모델링	-12708
▁개를	-12709
인재	-12710
대장	-12711
▁박지	-12712
▁반박	-12713
▁입체	-12714
네이버	-12715
시장이	-12716
▁기준에	-12717
▁사라진	-12718
▁임산	-12719
▁문화가	-12720
▁중점	-12721
의자	-12722
▁진단을	-12723
리츠	-12724
▁장면을	-12725
▁점포	-12726
으려고	-12727
▁디즈니	-12728
티스	-12729
▁선택하여	-12730
▁피드백	-12731
▁140	-12732
충전	-12733
한지	-12734
▁먹은	-12735
▁전달했다	-12736
.0%	-12737
▁나와서	-12738
과목	-12739
전남	-12740
···	-12741
시하는	-12742
▁네임	-12743
편에	-12744
▁극장	-12745
▁건강과	-12746
▁연설	-12747
▁뜯	-12748
슈퍼	-12749
ames	-12750
▁닫히며	-12751
▁토트넘	-12752
],	-12753
▁박성	-12754
▁않음	-12755
▁걷기	-12756
rist	-12757
▁표창	-12758
그룹은	-12759
▁유기농	-12760
▁기록하며	-12761
emo	-12762
▁무용	-12763
▁권한이	-12764
▁먹튀사이트	-12765
▁녀석	-12766
상환	-12767
▁로또	-12768
▁유학	-12769
▁전수	-12770
▁종양	-12771
최대	-12772
▁워크숍	-12773
▁찾아볼	-12774
▁나타나고	-12775
▁험	-12776
▁호출	-12777
▁만나볼	-12778
파는	-12779
▁protect	-12780
▁것인데	-12781
▁모두의	-12782
▁해주세요	-12783
▁Ro	-12784
▁의료기관	-12785
▁여섯	-12786
▁인문	-12787
있었다	-12788
▁시세	-12789
▁말레이시아	-12790
▁테라스	-12791
▁형태를	-12792
량에	-12793
▁맥락	-12794
직자	-12795
⠀⠀	-12796
▁간격	-12797
▁닫으시면	-12798
DC	-12799
▁트래픽	-12800
ident	-12801
▁달린	-12802
▁클로	-12803
▁랭킹	-12804
da	-12805
-27	-12806
▁소지	-12807
▁상호작용	-12808
▁클릭하시면	-12809
▁데모	-12810
▁비극	-12811
러시아	-12812
▁아니며	-12813
▁할까요	-12814
중입니다	-12815
▁VPN	-12816
해주시기	-12817
▁필요성을	-12818
▁흩	-12819
▁코팅	-12820
▁코스닥	-12821
봅시다	-12822
▁환경이	-12823
▁Te	-12824
▁공개한	-12825
과제	-12826
▁니트	-12827
희의	-12828
▁오너	-12829
부품	-12830
포지	-12831
▁감염병	-12832
▁밥을	-12833
OVID	-12834
▁샴푸	-12835
▁살펴보고	-12836
-28	-12837
▁줄을	-12838
▁쉼	-12839
늦게	-12840
▁미드	-12841
▁안팎	-12842
▁농산물	-12843
▁기사제보	-12844
▁하죠	-12845
▁수사를	-12846
▁클릭하여	-12847
▁썩	-12848
▁게이트	-12849
▁환자를	-12850
▁ph	-12851
▁지키고	-12852
▁무제한	-12853
단위	-12854
▁AWS	-12855
▁57	-12856
▁태도를	-12857
▁거리두기	-12858
정책을	-12859
▁되어서	-12860
▁존재하지	-12861
▁못하면	-12862
▁원장은	-12863
▁치료제	-12864
▁숨겨진	-12865
▁Associ	-12866
▁홈페이지에	-12867
▁서울에서	-12868
(9	-12869
▁off	-12870
▁대표이	-12871
▁시인	-12872
▁#30	-12873
▁달라질	-12874
달아	-12875
카카오	-12876
▁일본은	-12877
▁DNA	-12878
영리	-12879
신저	-12880
▁Market	-12881
▁가능성은	-12882
FL	-12883
했는데요	-12884
▁걸고	-12885
▁차분	-12886
종목	-12887
값이	-12888
▁동북	-12889
AY	-12890
▁쭉	-12891
▁나고	-12892
우를	-12893
▁좋았다	-12894
-29	-12895
▁가성비	-12896
▁깔끔하게	-12897
베르	-12898
▁헬스케어	-12899
▁디테	-12900
▁건지	-12901
▁1970	-12902
▁under	-12903
▁구제	-12904
▁예정인	-12905
로써	-12906
▁확대해	-12907
뱅킹	-12908
▁투수	-12909
▁주가가	-12910
▁일산	-12911
▁재건축	-12912
방에서	-12913
▁위키	-12914
▁일회	-12915
▁생각도	-12916
▁high	-12917
AA	-12918
▁의문	-12919
▁방지하기	-12920
청소	-12921
▁확인하실	-12922
으로만	-12923
▁제시했다	-12924
▁창에서	-12925
편이	-12926
정상회담	-12927
환경을	-12928
▁역사상	-12929
▁찾아가는	-12930
▁NFT	-12931
▁고급스러운	-12932
▁변화는	-12933
여부	-12934
pre	-12935
~30	-12936
▁라벨	-12937
▁유익한	-12938
분께	-12939
▁정읍	-12940
▁경제를	-12941
▁프로토콜	-12942
▁기능과	-12943
▁경쟁이	-12944
eople	-12945
▁대한항공	-12946
▁밖의	-12947
▁때보다	-12948
▁선보일	-12949
................	-12950
개인정보	-12951
▁영상이	-12952
rent	-12953
▁연구소	-12954
▁자료에	-12955
▁예상되는	-12956
▁Server	-12957
▁바나	-12958
먹튀	-12959
▁빨라	-12960
▁진동	-12961
▁화제가	-12962
▁이후에는	-12963
▁참여했다	-12964
▁스프링	-12965
▁시설이	-12966
▁겨냥	-12967
▁아버지가	-12968
▁코코	-12969
해당	-12970
▁부회장	-12971
▁분포	-12972
▁납품	-12973
▁작가가	-12974
▁누워	-12975
권으로	-12976
▁영향력을	-12977
하다면	-12978
화성	-12979
▁갑니다	-12980
▁청소년보호	-12981
▁현대자동차	-12982
출장마사지샵	-12983
▁침투	-12984
▁얻게	-12985
▁분야를	-12986
▁지원하기	-12987
▁하단	-12988
▁적용되는	-12989
▁63	-12990
▁바울	-12991
▁안마방	-12992
orn	-12993
자나	-12994
▁뽑아	-12995
cal	-12996
▁모르겠	-12997
▁카메라를	-12998
▁Vis	-12999
▁리스	-13000
▁표현이	-13001
▁아직까지	-13002
▁프리미어	-13003
▁머무	-13004
▁합리	-13005
▁대상은	-13006
▁이내의	-13007
▁아이템을	-13008
▁달라고	-13009
efin	-13010
▁어느새	-13011
▁끝날	-13012
은품	-13013
▁뱀	-13014
▁편지	-13015
▁심리적	-13016
▁조직을	-13017
▁평가했다	-13018
참고	-13019
▁빛이	-13020
그네	-13021
속을	-13022
▁네덜란드	-13023
튜버	-13024
테리아	-13025
▁마카오	-13026
▁세우고	-13027
▁Part	-13028
균형	-13029
▁시기를	-13030
▁양을	-13031
▁경찰이	-13032
▁언어를	-13033
FI	-13034
▁마음은	-13035
▁마다	-13036
▁막대한	-13037
▁Amazon	-13038
\\	-13039
LED	-13040
▁장벽	-13041
▁하도록	-13042
▁기억에	-13043
▁모르겠지만	-13044
곳에	-13045
값을	-13046
산과	-13047
▁최저가	-13048
실적	-13049
cept	-13050
▁66	-13051
▁어딘	-13052
PGA	-13053
▁이윤	-13054
봤는데	-13055
지식	-13056
해상	-13057
▁오류가	-13058
LE	-13059
월말	-13060
▁보호하기	-13061
▁보석	-13062
▁숨어	-13063
일자리	-13064
플레이션	-13065
▁THE	-13066
▁테니스	-13067
▁고스란히	-13068
▁불러일으	-13069
▁들지	-13070
▁듯이	-13071
▁파크	-13072
▁att	-13073
▁취할	-13074
전도	-13075
▁사료	-13076
▁타당	-13077
▁경우에만	-13078
▁무의	-13079
▁지지를	-13080
▁살기	-13081
▁발표된	-13082
▁연기를	-13083
치면	-13084
▁기차	-13085
▁날은	-13086
▁신화	-13087
▁분들의	-13088
▁살피	-13089
▁삶과	-13090
▁때때로	-13091
▁여성은	-13092
▁오렌지	-13093
▁있었어요	-13094
목차	-13095
팀을	-13096
▁알려주	-13097
테이션	-13098
▁119	-13099
시에는	-13100
▁우체	-13101
▁기증	-13102
▁최적화된	-13103
▁추천하는	-13104
▁방수	-13105
▁받아서	-13106
▁기록하고	-13107
▁어디에서	-13108
▁실수	-13109
▁주한	-13110
▁색다른	-13111
▁공간에서	-13112
▁마디	-13113
▁세분	-13114
▁수혜	-13115
드에서	-13116
스럽다	-13117
▁체계를	-13118
이노	-13119
▁교훈	-13120
▁비만	-13121
▁작고	-13122
▁160	-13123
▁배상	-13124
▁소망	-13125
▁먹거리	-13126
▁어우러	-13127
test	-13128
ures	-13129
수영	-13130
▁자격을	-13131
▁정보의	-13132
rol	-13133
▁노무현	-13134
▁영어로	-13135
▁추억을	-13136
▁구동	-13137
▁드러나	-13138
레는	-13139
▁오르는	-13140
▁특정한	-13141
▁방출	-13142
▁탈북	-13143
▁노력하는	-13144
▁마련됐다	-13145
▁신작	-13146
▁담당하는	-13147
▁기어	-13148
금과	-13149
▁사건에	-13150
▁영향이	-13151
▁강남안마	-13152
▁존재한다	-13153
▁영토	-13154
▁운항	-13155
만여	-13156
▁담당자	-13157
▁인식을	-13158
▁냄새가	-13159
▁국어	-13160
했다가	-13161
▁쉽습니다	-13162
pare	-13163
▁교회를	-13164
▁않았을	-13165
▁5,000	-13166
▁문화의	-13167
▁터미널	-13168
▁지난주	-13169
▁우대	-13170
▁힘입어	-13171
CH	-13172
▁가톨릭	-13173
▁양질의	-13174
▁헤어드	-13175
▁띄는	-13176
▁상표	-13177
iews	-13178
▁Che	-13179
▁자신감을	-13180
▁최저임금	-13181
도어	-13182
줘서	-13183
▁배를	-13184
ased	-13185
▁한하여	-13186
▁인디	-13187
▁감동을	-13188
▁도민	-13189
▁매칭	-13190
▁던져	-13191
▁맛과	-13192
▁저에게	-13193
▁지역별	-13194
▁오스트	-13195
▁성공했다	-13196
총회	-13197
ote	-13198
길에	-13199
▁어렵고	-13200
▁만들었습니다	-13201
버트	-13202
▁같고	-13203
▁오바	-13204
▁불이	-13205
▁성장하는	-13206
레나	-13207
▁초등학생	-13208
는데도	-13209
▁심리학	-13210
▁인스턴	-13211
▁만나보세요	-13212
▁버린	-13213
KB	-13214
서버	-13215
▁개그	-13216
▁내야	-13217
▁로맨틱	-13218
▁실적을	-13219
▁업계의	-13220
▁의혹을	-13221
▁음식점은	-13222
청장	-13223
▁이번엔	-13224
▁깎	-13225
▁정규직	-13226
▁예수님의	-13227
▁가정의	-13228
▁동일하게	-13229
퀘어	-13230
ft	-13231
▁올리브	-13232
하겠	-13233
▁김병	-13234
▁찬양	-13235
▁한양	-13236
▁목록을	-13237
계는	-13238
▁사역	-13239
▁장관이	-13240
렌즈	-13241
▁맘에	-13242
▁특가	-13243
▁망설	-13244
▁어색	-13245
▁내어	-13246
▁가능해	-13247
개소	-13248
거라	-13249
▁해명	-13250
번의	-13251
▁양쪽	-13252
▁시설과	-13253
▁요청한	-13254
▁젊은이	-13255
보고서	-13256
▁back	-13257
밴드	-13258
▁드래곤	-13259
▁아이는	-13260
▁Sch	-13261
만원으로	-13262
▁도매	-13263
▁지옥	-13264
▁책정	-13265
았다는	-13266
▁수상했다	-13267
▁안전성	-13268
▁정부에	-13269
▁출연해	-13270
▁350	-13271
▁서귀포	-13272
▁하루를	-13273
▁real	-13274
▁것이기	-13275
▁수준이다	-13276
▁거실	-13277
▁사회가	-13278
▁인형	-13279
조로	-13280
▁길에	-13281
▁줄이	-13282
래프트	-13283
전형	-13284
▁장미	-13285
▁조금은	-13286
묘한	-13287
▁가난한	-13288
명에게	-13289
RS	-13290
▁결혼을	-13291
▁정책이	-13292
▁입점	-13293
▁머리가	-13294
손해	-13295
▁어느정도	-13296
▁이미지가	-13297
▁좋아서	-13298
▁조합원	-13299
▁있었다고	-13300
로봇	-13301
지니	-13302
▁크기를	-13303
▁내비	-13304
▁아이스	-13305
▁명확하게	-13306
▁국내에	-13307
▁국민연금	-13308
▁모습이다	-13309
▁예언	-13310
MI	-13311
▁시작하여	-13312
▁못했습니다	-13313
▁장수	-13314
Tr	-13315
▁게임에서	-13316
▁요한	-13317
▁박사는	-13318
RP	-13319
▁벤치	-13320
협약을	-13321
▁경쟁을	-13322
▁CH	-13323
▁앞세	-13324
▁사용한다	-13325
yl	-13326
포터	-13327
▁임차	-13328
▁외식	-13329
▁사랑이	-13330
쳤습니다	-13331
▁ind	-13332
▁보이며	-13333
▁시작하기	-13334
▁순차	-13335
▁시중	-13336
▁아이스크	-13337
에어	-13338
▁편한	-13339
▁가슴이	-13340
▁62	-13341
크리트	-13342
▁말이죠	-13343
▁여자친구	-13344
FF	-13345
▁끌었다	-13346
▁만났다	-13347
입금	-13348
ott	-13349
▁뜻이다	-13350
맞은	-13351
▁환자에게	-13352
▁360	-13353
▁갑상선	-13354
▁이상적인	-13355
인식	-13356
시경	-13357
▁난다	-13358
본부장	-13359
▁한국이	-13360
▁자바	-13361
방안을	-13362
▁혼자서	-13363
▁일으킨	-13364
층을	-13365
▁면세	-13366
▁이전의	-13367
▁판매가	-13368
▁연결되어	-13369
▁Inc	-13370
▁비중을	-13371
GA	-13372
▁비정규직	-13373
▁뚝	-13374
▁사찰	-13375
▁남기	-13376
▁달에	-13377
▁똑똑	-13378
▁기대가	-13379
▁이용하면	-13380
ives	-13381
▁늘려	-13382
▁그렇습니다	-13383
▁84	-13384
▁자리가	-13385
▁탄탄한	-13386
티를	-13387
▁남한	-13388
▁라면	-13389
▁무엇보다도	-13390
인한	-13391
▁**	-13392
▁보니까	-13393
▁유치원	-13394
istory	-13395
▁나타났	-13396
▁무대에	-13397
▁활동은	-13398
▁천재	-13399
▁객실에서	-13400
▁공제	-13401
▁한동안	-13402
▁카테고리의	-13403
▁열쇠	-13404
▁이진	-13405
▁애드	-13406
▁백악	-13407
▁승부	-13408
▁전제	-13409
▁학교를	-13410
search	-13411
▁않거나	-13412
▁꽁	-13413
청주	-13414
▁문제점을	-13415
▁줌	-13416
▁피어	-13417
▁이어폰	-13418
▁국경	-13419
erson	-13420
▁생산하는	-13421
분과	-13422
가서	-13423
▁다크	-13424
▁유독	-13425
▁받습니다	-13426
▁북부	-13427
▁지금부터	-13428
라를	-13429
▁美	-13430
▁막상	-13431
▁총리는	-13432
▁투기	-13433
▁의미로	-13434
▁의원의	-13435
여개	-13436
▁찾았다	-13437
:20	-13438
▁귀국	-13439
부부	-13440
rit	-13441
▁교차	-13442
ports	-13443
▁스폰	-13444
▁자신과	-13445
▁이후에도	-13446
하되	-13447
▁편이	-13448
▁발언을	-13449
box	-13450
▁영원한	-13451
▁몽골	-13452
▁소니	-13453
~20	-13454
▁일과	-13455
▁걸로	-13456
▁언덕	-13457
▁별다른	-13458
만간	-13459
▁초월	-13460
▁남해	-13461
간호	-13462
▁년간	-13463
▁Art	-13464
▁학사	-13465
▁협박	-13466
위생	-13467
▁화제	-13468
군사	-13469
▁금메달	-13470
체크	-13471
▁타는	-13472
▁앞선	-13473
ao	-13474
▁프로세스를	-13475
▁난민	-13476
▁될까	-13477
▁모았다	-13478
Re	-13479
mat	-13480
▁모던	-13481
▁1995	-13482
▁거룩	-13483
▁불꽃	-13484
끄러운	-13485
▁강경	-13486
▁철거	-13487
▁대법원	-13488
히지	-13489
▁생선	-13490
▁업무에	-13491
▁제출한	-13492
▁현금으로	-13493
▁끔찍	-13494
▁지원에	-13495
▁장의	-13496
PI	-13497
요양	-13498
▁상시	-13499
▁지친	-13500
▁나이에	-13501
▁특징은	-13502
▁매운	-13503
▁혐오	-13504
ser	-13505
▁부실	-13506
▁예매	-13507
▁팩스	-13508
황을	-13509
▁UI	-13510
집에서	-13511
▁69	-13512
▁자의	-13513
▁공정한	-13514
▁여는	-13515
차원	-13516
▁찾지	-13517
수급	-13518
▁Ab	-13519
등한	-13520
▁산출	-13521
▁출신의	-13522
Wh	-13523
자면	-13524
무기	-13525
▁펼치고	-13526
▁췌	-13527
블러	-13528
▁제공한	-13529
2]	-13530
▁걸친	-13531
▁지체	-13532
천지	-13533
해야만	-13534
▁스타벅	-13535
▁사건은	-13536
▁궁금하신	-13537
▁GM	-13538
위원장은	-13539
남자	-13540
▁전망을	-13541
▁알려드릴	-13542
되지는	-13543
BR	-13544
하자는	-13545
▁선착순	-13546
53	-13547
uck	-13548
▁라스	-13549
▁마련된	-13550
출장샵추천	-13551
▁신념	-13552
것으로	-13553
▁좋았습니다	-13554
▁소통을	-13555
시사	-13556
▁증상은	-13557
▁이루어져	-13558
▁교육은	-13559
이후	-13560
▁역사가	-13561
비드	-13562
▁월간	-13563
신용대출	-13564
▁심사를	-13565
▁1996	-13566
▁씹	-13567
▁입구	-13568
▁냉각	-13569
▁파이프	-13570
창원	-13571
▁넣은	-13572
두를	-13573
rop	-13574
▁식량	-13575
카를	-13576
▁왠지	-13577
▁호수	-13578
▁규모를	-13579
▁교육과정	-13580
▁ver	-13581
▁선수는	-13582
▁like	-13583
▁파손	-13584
▁상당의	-13585
Ad	-13586
▁언제든	-13587
▁저널	-13588
▁미팅	-13589
▁면허	-13590
▁지진	-13591
▁체감	-13592
vailable	-13593
반을	-13594
파의	-13595
▁구석	-13596
▁설치를	-13597
)”	-13598
▁샷	-13599
▁칼슘	-13600
▁Design	-13601
▁마른	-13602
▁상을	-13603
▁이외의	-13604
활용	-13605
▁ISO	-13606
▁통지	-13607
▁치료는	-13608
8,	-13609
▁랜덤	-13610
▁문경	-13611
▁관리할	-13612
▁생명의	-13613
▁By	-13614
▁To	-13615
▁입시	-13616
▁관리하고	-13617
채용	-13618
▁슬리	-13619
▁전무	-13620
커니즘	-13621
너리	-13622
▁나간	-13623
▁유럽의	-13624
▁중년	-13625
▁조건이	-13626
▁3,000	-13627
▁안경	-13628
▁유관	-13629
▁팝업	-13630
▁목사는	-13631
부족	-13632
▁입문	-13633
중독	-13634
워치	-13635
▁걸까	-13636
▁여자가	-13637
▁저렇게	-13638
▁몸과	-13639
▁지키기	-13640
로이드	-13641
에있는	-13642
▁구축을	-13643
▁유발할	-13644
년간의	-13645
▁않다고	-13646
▁촉구했다	-13647
54	-13648
▁주파	-13649
등에	-13650
기까지	-13651
▁프로듀	-13652
보이	-13653
▁자산을	-13654
▁전쟁을	-13655
▁전문가가	-13656
곳을	-13657
설비	-13658
피부	-13659
론이	-13660
ales	-13661
▁아시안	-13662
티나	-13663
▁궁금해	-13664
▁따르	-13665
▁심층	-13666
오버	-13667
▁If	-13668
▁구할	-13669
였어요	-13670
▁페이지에서	-13671
its	-13672
▁수상한	-13673
▁IoT	-13674
▁스노	-13675
▁앵	-13676
▁어지	-13677
▁없으니	-13678
국수	-13679
▁실전	-13680
▁EV	-13681
▁중국과	-13682
oot	-13683
▁수고	-13684
야만	-13685
에겐	-13686
▁솟	-13687
오스	-13688
▁달걀	-13689
▁찾아서	-13690
카메라	-13691
▁페어	-13692
▁용서	-13693
▁세계적	-13694
▁케이크	-13695
ECT	-13696
▁7,	-13697
▁광장	-13698
▁부를	-13699
▁실시한다	-13700
프란	-13701
▁거기서	-13702
ating	-13703
▁언급했다	-13704
▁도움이됩니다	-13705
▁하시고	-13706
▁시작하고	-13707
▁올바르게	-13708
▁돕고	-13709
ization	-13710
▁펠	-13711
▁님	-13712
▁팬츠	-13713
▁금액이	-13714
▁무서운	-13715
▁they	-13716
▁개인정보보호	-13717
처벌	-13718
▁아저	-13719
▁다음을	-13720
▁살펴볼	-13721
▁소개한다	-13722
식물	-13723
▁수평	-13724
▁빈곤	-13725
▁잃고	-13726
▁하늘을	-13727
agram	-13728
▁One	-13729
▁뉴스를	-13730
▁비교할	-13731
Th	-13732
▁말씀해	-13733
▁속초	-13734
▁오산	-13735
라운지	-13736
▁역동	-13737
▁이득	-13738
▁되나요	-13739
택배	-13740
하느냐	-13741
성형	-13742
▁그거	-13743
해줄	-13744
▁여가	-13745
소시	-13746
:15	-13747
▁섹스	-13748
▁이라고	-13749
동은	-13750
▁6,	-13751
▁이병	-13752
▁한복	-13753
TP	-13754
▁certif	-13755
▁채소	-13756
▁미치지	-13757
년과	-13758
견적	-13759
그룹의	-13760
▁팬들의	-13761
▁were	-13762
▁분석하고	-13763
심리	-13764
▁여부에	-13765
시간은	-13766
▁들어와	-13767
▁만나게	-13768
▁패러다	-13769
잡이	-13770
▁전국의	-13771
너스	-13772
인민	-13773
▁힌	-13774
▁재벌	-13775
▁시점에	-13776
▁무력	-13777
▁지목	-13778
▁따르는	-13779
ae	-13780
박람회	-13781
지난해	-13782
▁마음껏	-13783
▁어디서나	-13784
▁IV	-13785
▁표현하는	-13786
▁듀얼	-13787
▁체결했다	-13788
공식	-13789
ral	-13790
▁소개하고	-13791
ify	-13792
uch	-13793
▁부분에서	-13794
됐다는	-13795
▁라인업	-13796
▁사용될	-13797
▁콜레스테롤	-13798
컬러	-13799
▁획기	-13800
▁upd	-13801
▁드러났다	-13802
▁수거	-13803
홀에서	-13804
▁주식회사	-13805
▁항암	-13806
박사	-13807
▁IN	-13808
▁기가	-13809
▁퀸	-13810
▁짐작	-13811
▁컴퓨	-13812
▁헨	-13813
▁당해	-13814
▁변화와	-13815
▁딴	-13816
▁운영자	-13817
▁적중	-13818
▁두려움	-13819
이전	-13820
이지요	-13821
▁번거	-13822
~~~~	-13823
천여	-13824
▁로켓	-13825
▁챌린	-13826
▁탈모	-13827
▁변경할	-13828
스트로	-13829
()	-13830
▁순식	-13831
▁장단	-13832
▁LCD	-13833
▁ac	-13834
으로의	-13835
▁교수의	-13836
▁남자의	-13837
▁커리	-13838
lock	-13839
▁경향	-13840
인터뷰	-13841
▁보증하지	-13842
▁늙	-13843
처음	-13844
(18	-13845
▁2025	-13846
러브	-13847
요리	-13848
▁데에	-13849
▁개관	-13850
▁폭염	-13851
▁Techn	-13852
HP	-13853
▁나지	-13854
▁이용에	-13855
▁무엇일까	-13856
▁글자	-13857
▁반사	-13858
▁두는	-13859
▁당사의	-13860
▁촬영을	-13861
▁현안	-13862
▁ICT	-13863
▁커넥	-13864
▁지방선거	-13865
▁피자	-13866
LC	-13867
▁차가운	-13868
들만	-13869
모음	-13870
빨리	-13871
▁가지를	-13872
역안마	-13873
▁보령	-13874
매수	-13875
▁라미	-13876
▁해결책	-13877
▁예뻐	-13878
▁지인	-13879
▁사용된	-13880
▁자격증을	-13881
원인	-13882
하하	-13883
▁경기에	-13884
▁베이스	-13885
▁송고	-13886
▁장악	-13887
▁요법	-13888
ages	-13889
포장	-13890
▁세면	-13891
▁하기도	-13892
지급	-13893
프랑	-13894
▁채굴	-13895
▁사유로	-13896
처는	-13897
▁특이	-13898
▁규칙을	-13899
▁주장이	-13900
▁집권	-13901
▁영화가	-13902
▁이뤄진	-13903
▁비롯하여	-13904
▁컴퓨터를	-13905
당시	-13906
avel	-13907
문화재단	-13908
발의	-13909
▁독창	-13910
▁주먹	-13911
활동에	-13912
▁벌어진	-13913
▁지속가능	-13914
▁픽업	-13915
)-	-13916
▁무섭	-13917
▁친구들이	-13918
▁보시	-13919
▁당분간	-13920
승인	-13921
▁퍼펙트	-13922
▁거지	-13923
▁엔터	-13924
▁의자	-13925
▁햇빛	-13926
▁아직은	-13927
분쟁	-13928
사리	-13929
▁자세를	-13930
▁남의	-13931
▁제법	-13932
말이	-13933
▁아나운	-13934
▁코스피	-13935
▁발열	-13936
-001	-13937
▁생생한	-13938
▁했으나	-13939
▁주름	-13940
▁지적이	-13941
)"	-13942
으려	-13943
은이	-13944
▁단행	-13945
▁당시의	-13946
진행	-13947
▁than	-13948
어떤	-13949
오토	-13950
임스	-13951
▁명확히	-13952
▁출제	-13953
층이	-13954
▁메시지가	-13955
▁스포츠토토	-13956
다지	-13957
▁돌이	-13958
관계가	-13959
▁참조하십시오	-13960
▁론칭	-13961
▁오를	-13962
▁아닌데	-13963
▁주의를	-13964
▁이어가고	-13965
▁길은	-13966
▁있었을	-13967
ohn	-13968
▁새누리	-13969
노래	-13970
면접	-13971
▁후쿠	-13972
방역	-13973
por	-13974
아를	-13975
▁베르	-13976
▁질을	-13977
됐지만	-13978
▁편안하고	-13979
GM	-13980
▁비지	-13981
bl	-13982
리더	-13983
▁적용한	-13984
▁텍사스	-13985
디스크	-13986
otal	-13987
▁분비	-13988
▁투자가	-13989
▁지원사업	-13990
수출	-13991
▁공천	-13992
▁중요하게	-13993
명령	-13994
들었다	-13995
▁검정	-13996
▁대응을	-13997
▁다시보기	-13998
▁미군	-13999
▁시작을	-14000
▁풋	-14001
▁관계에	-14002
▁마이크로소프트	-14003
▁좌석	-14004
터에	-14005
RC	-14006
받기	-14007
▁용기	-14008
▁Car	-14009
▁탐험	-14010
▁Dis	-14011
8)	-14012
▁SP	-14013
▁뷔페	-14014
▁청취	-14015
▁조화를	-14016
조절	-14017
▁되돌아	-14018
▁체력	-14019
가슴	-14020
발달	-14021
유는	-14022
▁해볼	-14023
▁교회가	-14024
밀하게	-14025
▁Publ	-14026
물류	-14027
▁use	-14028
▁한두	-14029
▁Park	-14030
출산	-14031
▁Fl	-14032
요즘	-14033
▁사실에	-14034
커뮤니티	-14035
슬러	-14036
▁차라리	-14037
▁불편을	-14038
▁두루	-14039
주의의	-14040
▁상반	-14041
카드를	-14042
▁et	-14043
▁간략	-14044
체육관광	-14045
▁듣기	-14046
▁잔디	-14047
▁근거로	-14048
▁위촉	-14049
금액은	-14050
▁오피스텔	-14051
성분	-14052
▁과제를	-14053
▁화면에	-14054
site	-14055
▁고객센터로	-14056
▁뽀	-14057
직업	-14058
▁블랙잭	-14059
엄마	-14060
▁팔을	-14061
▁안내를	-14062
▁돌아가는	-14063
사기	-14064
▁화제를	-14065
————	-14066
▁무장	-14067
▁한우	-14068
▁이어져	-14069
약한	-14070
▁응모	-14071
▁이메일을	-14072
▁Service	-14073
▁이상은	-14074
▁best	-14075
았으며	-14076
▁확보를	-14077
병이	-14078
울산	-14079
▁클러스터	-14080
56	-14081
▁대대	-14082
터로	-14083
▁부위	-14084
▁신진	-14085
▁국민들의	-14086
▁드레	-14087
▁과거에	-14088
▁있었기	-14089
우면	-14090
▁잠금	-14091
속으로	-14092
ffect	-14093
▁구비	-14094
이나마	-14095
있어서	-14096
하지도	-14097
▁진출을	-14098
▁중대한	-14099
que	-14100
▁나오면	-14101
▁복수	-14102
▁태도	-14103
▁몰래	-14104
▁고려한	-14105
를린	-14106
발생	-14107
전통	-14108
▁ag	-14109
▁ETF	-14110
▁여기저기	-14111
▁sk	-14112
▁금액은	-14113
▁엑스	-14114
▁제거하고	-14115
eng	-14116
ᄏᄏᄏ	-14117
레저	-14118
▁표지	-14119
▁purch	-14120
AV	-14121
▁뱃	-14122
이어야	-14123
곡을	-14124
자리를	-14125
▁까닭	-14126
▁뚜껑	-14127
퇴근	-14128
EWS	-14129
▁기탁	-14130
▁인체	-14131
▁올해의	-14132
▁시간도	-14133
▁신의	-14134
▁quality	-14135
소장	-14136
oda	-14137
▁안다	-14138
▁옵션이	-14139
▁우울증	-14140
▁1500	-14141
fect	-14142
▁친절한	-14143
▁이식	-14144
▁종로구	-14145
해야하는	-14146
▁됐습니다	-14147
▁장로	-14148
▁남편이	-14149
중학교	-14150
▁김선	-14151
▁이후의	-14152
전드	-14153
▁견해	-14154
▁둘이	-14155
▁사용에	-14156
부천	-14157
▁only	-14158
▁중요하다고	-14159
▁곰팡	-14160
▁톡톡	-14161
▁사랑에	-14162
▁데는	-14163
▁들었	-14164
공동체	-14165
▁줄기	-14166
▁페르	-14167
학자	-14168
명이다	-14169
▁김희	-14170
▁장점은	-14171
▁변화하는	-14172
▁사람으로	-14173
▁침실	-14174
닐라	-14175
▁파고	-14176
식사	-14177
▁다스	-14178
▁연예인	-14179
▁지식과	-14180
ley	-14181
▁스터	-14182
▁일할	-14183
▁알아서	-14184
파를	-14185
▁제한이	-14186
▁긁	-14187
▁늘어날	-14188
이기에	-14189
▁이끌고	-14190
▁중심에	-14191
▁다각	-14192
게시판	-14193
▁끝나면	-14194
르다	-14195
▁리듬	-14196
▁집착	-14197
ified	-14198
▁알려주는	-14199
▁적당히	-14200
▁난방	-14201
▁바라며	-14202
▁판타지	-14203
▁노예	-14204
▁브루	-14205
▁오로지	-14206
▁직관	-14207
lish	-14208
▁데이터는	-14209
주시기	-14210
▁맞추어	-14211
▁붐	-14212
▁번째는	-14213
▁살아있는	-14214
문헌	-14215
▁조세	-14216
▁VIP	-14217
▁이적	-14218
no	-14219
1%	-14220
정말	-14221
▁변수	-14222
나도	-14223
▁안의	-14224
▁연결을	-14225
▁들어가서	-14226
▁꼼꼼하게	-14227
이름	-14228
▁당사는	-14229
▁ᄒ	-14230
론은	-14231
부르크	-14232
문화재	-14233
▁추진해	-14234
▁지역으로	-14235
ration	-14236
억원에	-14237
▁비행기	-14238
▁과다	-14239
▁선명	-14240
베이션	-14241
▁안겨	-14242
▁어떨까	-14243
▁작년에	-14244
▁앞으로의	-14245
▁학업	-14246
▁자리잡	-14247
▁따릅니다	-14248
aj	-14249
논문	-14250
워요	-14251
가면서	-14252
과대학	-14253
센티브	-14254
▁논의를	-14255
▁오사카	-14256
▁떠오르는	-14257
르의	-14258
▁따져	-14259
▁증대	-14260
▁조금이라도	-14261
블로	-14262
▁순수한	-14263
▁금전	-14264
▁동맥	-14265
▁서해	-14266
▁rel	-14267
▁코딩	-14268
▁중고차	-14269
유형	-14270
▁만기	-14271
▁ᅲ	-14272
ican	-14273
크리에이션	-14274
▁기능성	-14275
▁재테크	-14276
▁박영	-14277
▁방탄소년	-14278
Ar	-14279
▁빈번	-14280
▁받아들여	-14281
▁분열	-14282
▁청결	-14283
▁광주시	-14284
▁통신판매	-14285
▁products	-14286
지검	-14287
풍을	-14288
▁입에	-14289
less	-14290
▁회원의	-14291
스틴	-14292
▁잇는	-14293
리케이션을	-14294
번개	-14295
▁소송을	-14296
▁77	-14297
▁장갑	-14298
겠지요	-14299
▁신중하게	-14300
▁썬	-14301
oon	-14302
▁미루	-14303
▁구매를	-14304
▁전술	-14305
▁이용자가	-14306
▁사천	-14307
트에서	-14308
▁인터파크	-14309
▁상해	-14310
▁비전을	-14311
▁성실	-14312
▁강화하는	-14313
▁라인을	-14314
시행	-14315
완벽	-14316
▁처리하는	-14317
셨으면	-14318
마음	-14319
보실	-14320
aly	-14321
▁진행되며	-14322
▁노르	-14323
▁데다	-14324
ines	-14325
▁Amer	-14326
음료	-14327
▁세금을	-14328
▁필요에	-14329
▁필수적인	-14330
▁최강	-14331
▁갈등을	-14332
▁전형적인	-14333
▁달한다	-14334
lex	-14335
▁나타난다	-14336
igital	-14337
문화의	-14338
후에	-14339
▁설치할	-14340
▁어디로	-14341
▁ᄏᄏᄏᄏ	-14342
▁운영되는	-14343
▁over	-14344
▁NC	-14345
▁전망했다	-14346
란을	-14347
▁소련	-14348
▁tvN	-14349
그렇	-14350
▁기사의	-14351
▁부진	-14352
▁자칫	-14353
▁체류	-14354
aut	-14355
▁대통령을	-14356
▁시뮬레이션	-14357
▁online	-14358
청의	-14359
▁계승	-14360
▁콘솔	-14361
▁의사의	-14362
▁카지노는	-14363
초를	-14364
▁알려주세요	-14365
▁은은	-14366
▁염두에	-14367
▁출장업소	-14368
________	-14369
ful	-14370
▁가져올	-14371
량과	-14372
메디	-14373
orm	-14374
▁당근	-14375
▁탈락	-14376
콜걸추천	-14377
▁서술	-14378
▁엮	-14379
지연	-14380
▁방문을	-14381
~8	-14382
포스	-14383
▁특성에	-14384
▁엄청나게	-14385
▁through	-14386
도라	-14387
▁잉글	-14388
▁도널드	-14389
▁선정한	-14390
▁위해선	-14391
▁성숙	-14392
▁투자의	-14393
▁기업들의	-14394
▁10:00	-14395
▁원피스	-14396
▁항공기	-14397
특별자치	-14398
용이	-14399
▁계급	-14400
▁채로	-14401
왔고	-14402
▁해군	-14403
▁이루어지는	-14404
버거	-14405
▁신흥	-14406
▁예쁘게	-14407
▁설명하는	-14408
그리	-14409
언이	-14410
▁것임을	-14411
▁언어로	-14412
드레	-14413
▁“(	-14414
부채	-14415
▁University	-14416
:12	-14417
▁식약	-14418
▁영역에서	-14419
▁내기	-14420
▁지고	-14421
▁대조	-14422
▁기자가	-14423
▁쓰이는	-14424
▁크리에이터	-14425
ift	-14426
▁물로	-14427
▁되기도	-14428
ities	-14429
col	-14430
▁더욱이	-14431
칼럼	-14432
리에서	-14433
▁원자력	-14434
▁바꾼	-14435
내에서	-14436
cont	-14437
uper	-14438
▁나란히	-14439
▁하기에	-14440
▁착각	-14441
▁소재를	-14442
▁조만간	-14443
▁보습	-14444
comm	-14445
글을	-14446
ider	-14447
▁신고를	-14448
▁제한된	-14449
오의	-14450
▁원으로	-14451
ye	-14452
니가	-14453
▁염려	-14454
EE	-14455
▁희귀	-14456
어촌	-14457
▁안된다	-14458
▁아리	-14459
▁전자레인지	-14460
▁단편	-14461
▁교육이	-14462
▁덜어	-14463
-100	-14464
▁"(	-14465
▁나눈	-14466
▁폭로	-14467
▁사고로	-14468
▁교황	-14469
▁구단	-14470
▁주부	-14471
돼지	-14472
금속	-14473
절로	-14474
▁Certification	-14475
▁68	-14476
▁Reg	-14477
키스탄	-14478
▁베이비	-14479
크가	-14480
▁거라	-14481
▁설치하고	-14482
중립	-14483
▁인식이	-14484
▁윌리	-14485
▁충주	-14486
▁무언가를	-14487
서치	-14488
▁브랜	-14489
▁시드	-14490
가에서	-14491
▁위험에	-14492
▁스마트폰을	-14493
▁여지가	-14494
▁지속가능한	-14495
57	-14496
▁우려를	-14497
▁의사와	-14498
컴퍼니	-14499
▁두피	-14500
▁바람을	-14501
▁질병을	-14502
▁베네	-14503
▁외출	-14504
▁키를	-14505
▁비로소	-14506
사이트를	-14507
▁its	-14508
▁주머니	-14509
사법	-14510
oss	-14511
벤션	-14512
외교	-14513
▁순식간에	-14514
국립	-14515
▁탄수	-14516
▁없었고	-14517
▁유튜버	-14518
▁비율은	-14519
▁부모가	-14520
▁구매하는	-14521
스케	-14522
▁장소에	-14523
▁감추	-14524
아라	-14525
/1	-14526
eek	-14527
▁기호	-14528
▁두드러	-14529
▁소속사	-14530
▁적도	-14531
최고품질	-14532
▁Back	-14533
▁객실에는	-14534
칙을	-14535
▁88	-14536
▁흥분	-14537
기간을	-14538
▁힘들다	-14539
보리	-14540
ause	-14541
▁풍성한	-14542
▁우리나라는	-14543
▁남쪽	-14544
▁매출은	-14545
▁장난감	-14546
▁혜택이	-14547
▁올해도	-14548
we	-14549
~19	-14550
▁가사	-14551
▁가볼	-14552
▁자고	-14553
▁가지가	-14554
뷰티	-14555
수증	-14556
erg	-14557
▁찍고	-14558
호한	-14559
▁높을	-14560
영화제	-14561
kore	-14562
▁other	-14563
▁각기	-14564
▁AC	-14565
▁원고	-14566
기간에	-14567
▁(19	-14568
세상	-14569
▁고문	-14570
▁패턴을	-14571
▁보겠습니다	-14572
▁발전과	-14573
▁스테이크	-14574
비율	-14575
▁손목	-14576
▁정맥	-14577
▁광화문	-14578
▁구축하고	-14579
▁불가합니다	-14580
!)	-14581
▁역할이	-14582
보라	-14583
통이	-14584
마블	-14585
성공	-14586
중을	-14587
▁패스트	-14588
▁오락	-14589
▁Rev	-14590
▁입양	-14591
▁바라보고	-14592
▁밖에서	-14593
▁순간을	-14594
▁구로	-14595
▁Data	-14596
▁만들어야	-14597
투를	-14598
▁확산을	-14599
ett	-14600
GO	-14601
▁정보로	-14602
▁운영한다	-14603
▁하라	-14604
ason	-14605
▁노력할	-14606
▁문자를	-14607
▁보호하는	-14608
월호	-14609
▁아베	-14610
▁이별	-14611
▁파업	-14612
▁25%	-14613
▁부모의	-14614
▁버섯	-14615
▁아랍	-14616
▁전망이	-14617
▁man	-14618
▁사업장	-14619
▁예상됩니다	-14620
싶은	-14621
▁도는	-14622
▁수월	-14623
▁전환을	-14624
▁김광	-14625
ural	-14626
▁반영한	-14627
▁재택	-14628
던데	-14629
▁침체	-14630
되었거나	-14631
▁돌아오는	-14632
▁개가	-14633
▁밀양	-14634
▁리스팅	-14635
▁절망	-14636
ATION	-14637
포토	-14638
▁보고서에	-14639
▁시작됩니다	-14640
▁적을	-14641
가공	-14642
▁판촉물	-14643
▁사용하실	-14644
▁이경	-14645
신청을	-14646
lent	-14647
▁15%	-14648
▁검색어	-14649
▁탐방	-14650
은행이	-14651
▁목소리로	-14652
???	-14653
해준	-14654
▁저작권과	-14655
▁반갑	-14656
▁세로	-14657
orth	-14658
봐도	-14659
▁야기	-14660
▁병리학	-14661
공감	-14662
▁다녔	-14663
▁점령	-14664
▁동성애	-14665
▁기억을	-14666
▁운반	-14667
▁음원	-14668
▁레크리에이션	-14669
▁좌절	-14670
▁분석이	-14671
▁회원님	-14672
▁회피	-14673
▁관절염	-14674
▁아니냐는	-14675
▁로스	-14676
▁보컬	-14677
워킹	-14678
▁규정하고	-14679
▁신년	-14680
것이다	-14681
미술관	-14682
▁평소에	-14683
온은	-14684
▁마일	-14685
▁집회	-14686
book	-14687
▁주관하는	-14688
ader	-14689
▁파생	-14690
▁act	-14691
▁얹	-14692
▁일로	-14693
▁시작되는	-14694
▁스스로를	-14695
▁일곱	-14696
▁비누	-14697
끈한	-14698
거에요	-14699
이라고도	-14700
▁도시재생	-14701
▁등록자에게	-14702
▁역학	-14703
동생	-14704
▁듯하다	-14705
▁;	-14706
▁그늘	-14707
▁성격을	-14708
:11	-14709
▁>>	-14710
▁살균	-14711
▁평화를	-14712
비밀	-14713
▁사태가	-14714
▁비교하여	-14715
▁성장과	-14716
▁download	-14717
실시간	-14718
▁나이트	-14719
▁사용되고	-14720
▁(3	-14721
▁상점	-14722
▁회의실	-14723
▁그래프	-14724
▁전직	-14725
사이드	-14726
▁신호를	-14727
▁주의해야	-14728
건조	-14729
집행	-14730
▁버티	-14731
▁기술에	-14732
미스	-14733
▁받으실	-14734
▁EX	-14735
▁산학	-14736
▁구성하는	-14737
▁Hu	-14738
▁가루	-14739
▁반성	-14740
메이드	-14741
▁카라	-14742
▁새마을	-14743
▁마산	-14744
▁전사	-14745
▁폭스	-14746
▁바라보며	-14747
▁소문	-14748
▁병원에서	-14749
▁딱딱	-14750
▁반대하는	-14751
▁논리	-14752
▁달라진	-14753
▁성폭행	-14754
▁있다가	-14755
▁존재를	-14756
어머니	-14757
▁넷플릭스	-14758
▁학생의	-14759
이라이트	-14760
ading	-14761
▁러시아의	-14762
▁돌아왔다	-14763
▁메커니즘	-14764
▁편의시설	-14765
▁프로젝트에	-14766
했으면	-14767
▁int	-14768
▁힘으로	-14769
▁대단한	-14770
ough	-14771
▁확인합니다	-14772
51	-14773
경찰서	-14774
▁디자인은	-14775
질문	-14776
투쟁	-14777
▁여호와	-14778
▁가져오기	-14779
▁업무협약	-14780
로서는	-14781
블로그	-14782
대기	-14783
▁타이밍	-14784
▁중국에	-14785
주주	-14786
▁호응을	-14787
벤처기업	-14788
ML	-14789
▁SSD	-14790
▁설정할	-14791
▁수행하고	-14792
레이드	-14793
ield	-14794
▁도착한	-14795
▁매출액	-14796
Al	-14797
AGE	-14798
▁정제	-14799
▁보증금	-14800
▁충실	-14801
▁동대문	-14802
▁성매매	-14803
대교	-14804
▁농림	-14805
▁싶은데	-14806
익을	-14807
▁욕망	-14808
▁특강	-14809
▁유닛	-14810
▁인류의	-14811
▁공백	-14812
▁실감	-14813
▁유포	-14814
▁표정으로	-14815
52	-14816
▁담았다	-14817
▁적합합니다	-14818
▁방금	-14819
▁수험생	-14820
obile	-14821
▁성장하고	-14822
▁간혹	-14823
uild	-14824
▁생각하며	-14825
▁생각한	-14826
께요	-14827
징어	-14828
▁김일	-14829
▁매출을	-14830
▁after	-14831
IST	-14832
▁방울	-14833
▁시선	-14834
▁식탁	-14835
▁주재	-14836
▁IBM	-14837
▁크루즈	-14838
▁입장이	-14839
▁육체	-14840
들인	-14841
▁교도	-14842
▁모빌리티	-14843
▁way	-14844
▁계획에	-14845
▁히어로	-14846
물론	-14847
배팅	-14848
▁뜻이	-14849
▁마이클	-14850
페인	-14851
val	-14852
▁무덤	-14853
▁배틀	-14854
▁밝히고	-14855
▁장시간	-14856
▁선전	-14857
▁신체적	-14858
▁삐	-14859
▁간식	-14860
▁비유	-14861
▁시크	-14862
▁미네랄	-14863
▁업체는	-14864
▁진행합니다	-14865
▁향이	-14866
▁분명한	-14867
RT	-14868
▁김천	-14869
소화	-14870
▁한결	-14871
셨던	-14872
니는	-14873
▁귀엽	-14874
▁전인	-14875
▁크지	-14876
만큼은	-14877
▁않았다는	-14878
▁늘어나는	-14879
개는	-14880
노이	-14881
▁캡슐	-14882
지역에	-14883
▁조치가	-14884
▁스승	-14885
mp	-14886
표가	-14887
▁동계	-14888
▁수송	-14889
▁청렴	-14890
▁0.5	-14891
▁맡았다	-14892
rib	-14893
능력을	-14894
▁군대	-14895
린은	-14896
모로	-14897
플랜	-14898
▁누군가가	-14899
▁이불	-14900
▁선택하면	-14901
▁규제를	-14902
▁need	-14903
▁운영할	-14904
가면	-14905
▁시에는	-14906
받습니다	-14907
▁At	-14908
▁치러	-14909
▁공식적으로	-14910
▁신라	-14911
▁아담	-14912
▁현저히	-14913
▁보이지만	-14914
▁디젤	-14915
▁기능에	-14916
▁1960	-14917
▁자원을	-14918
오리	-14919
▁매진	-14920
마에	-14921
ever	-14922
▁있듯이	-14923
▁가요	-14924
▁행정안전	-14925
▁낭비	-14926
그래서	-14927
▁단계에	-14928
▁질문이	-14929
▁솜	-14930
▁여성을	-14931
▁갯	-14932
▁방위	-14933
▁reg	-14934
▁개발하는	-14935
▁건강하고	-14936
▁내밀	-14937
역으로	-14938
부서	-14939
충청	-14940
▁과정의	-14941
▁회원에게	-14942
놓을	-14943
은행의	-14944
ific	-14945
td	-14946
답변	-14947
▁아크	-14948
93	-14949
▁줬	-14950
▁이외에	-14951
▁세력	-14952
over	-14953
▁add	-14954
왕의	-14955
▁진한	-14956
:16	-14957
▁회원은	-14958
봐요	-14959
▁먹지	-14960
9)	-14961
▁주일	-14962
▁신청이	-14963
▁돋보이는	-14964
▁못합니다	-14965
모집	-14966
시스코	-14967
nect	-14968
▁반면에	-14969
▁기본으로	-14970
yout	-14971
시키지	-14972
▁Min	-14973
▁예술가	-14974
▁제공을	-14975
▁다시금	-14976
▁Prov	-14977
마스크	-14978
▁로비	-14979
호흡	-14980
아도	-14981
▁캐스팅	-14982
▁생겼다	-14983
▁정도다	-14984
치킨	-14985
▁기한	-14986
▁터널	-14987
토마토	-14988
▁주시는	-14989
▁선택해	-14990
▁아무튼	-14991
▁좋지만	-14992
▁곳곳에서	-14993
▁성남시	-14994
▁특집	-14995
▁활동하는	-14996
▁아름다움을	-14997
영을	-14998
▁고집	-14999
▁Adobe	-15000
%9	-15001
마스터	-15002
▁취하고	-15003
▁떨어질	-15004
▁자체는	-15005
▁나왔습니다	-15006
있는데	-15007
▁진실성에	-15008
애플	-15009
치과	-15010
▁Is	-15011
▁집중할	-15012
킬로	-15013
▁조선일보	-15014
배가	-15015
edi	-15016
▁부른다	-15017
▁연락하여	-15018
amily	-15019
이벤트	-15020
상승	-15021
▁의미는	-15022
▁서산	-15023
▁업계에	-15024
▁효율성을	-15025
아내	-15026
아아	-15027
오피스	-15028
▁필요성	-15029
▁액체	-15030
▁Date	-15031
▁산다	-15032
▁세우	-15033
셨어요	-15034
ness	-15035
▁인건	-15036
▁대단히	-15037
▁따뜻하게	-15038
▁때문이었다	-15039
▁심하게	-15040
▁연구원	-15041
▁온전히	-15042
▁처리할	-15043
아마	-15044
▁이가	-15045
▁제발	-15046
▁축산	-15047
▁접근할	-15048
▁왼	-15049
간을	-15050
▁진상	-15051
▁에디션	-15052
▁Network	-15053
마한	-15054
900	-15055
▁MP	-15056
▁인플루	-15057
▁82	-15058
▁박진	-15059
▁신도	-15060
으려면	-15061
▁가입을	-15062
▁리모델링	-15063
▁브레이크	-15064
맛이	-15065
▁이상인	-15066
(20	-15067
▁철강	-15068
▁밑에	-15069
▁침입	-15070
▁View	-15071
무가	-15072
버렸다	-15073
▁세이	-15074
▁염색	-15075
▁학위	-15076
AE	-15077
▁신비	-15078
▁심어	-15079
▁태권도	-15080
▁인센티브	-15081
세와	-15082
▁김장	-15083
▁연인	-15084
▁처한	-15085
▁불이익	-15086
▁평가가	-15087
▁권위	-15088
▁영적	-15089
▁감정이	-15090
▁보강	-15091
공학과	-15092
▁휴대용	-15093
▁사이클	-15094
▁해결해	-15095
▁해마다	-15096
▁누르	-15097
▁숙련	-15098
▁생활에	-15099
문화예술	-15100
▁확보하고	-15101
대회를	-15102
▁La	-15103
▁중화	-15104
영웅	-15105
▁무겁	-15106
▁풍요	-15107
주며	-15108
ANG	-15109
▁발견한	-15110
한번	-15111
▁97	-15112
▁입지	-15113
▁결론을	-15114
▁즐거움	-15115
▁이점	-15116
▁키우	-15117
분들의	-15118
▁치료하는	-15119
▁World	-15120
▁물가	-15121
ᄃᄃ	-15122
▁독일의	-15123
프린	-15124
플래	-15125
▁김연	-15126
되던	-15127
▁IC	-15128
▁온다	-15129
▁DVD	-15130
▁풍경을	-15131
▁中	-15132
▁자립	-15133
▁Aut	-15134
▁일본이	-15135
▁이용하고	-15136
효과를	-15137
▁나가고	-15138
▁파격	-15139
거부	-15140
오른	-15141
awei	-15142
********	-15143
▁친구를	-15144
되었지만	-15145
▁inst	-15146
낸스	-15147
용차	-15148
ars	-15149
▁팔레	-15150
러를	-15151
안과	-15152
▁길고	-15153
▁임기	-15154
▁표정	-15155
▁계정에	-15156
▁마리아	-15157
이라면서	-15158
▁확대하고	-15159
▁반려견	-15160
▁정책의	-15161
▁진행을	-15162
▁바이너리	-15163
▁결혼식	-15164
▁웃었다	-15165
▁차량의	-15166
르타	-15167
시트	-15168
▁인내	-15169
▁스토리지	-15170
▁감옥	-15171
▁3~4	-15172
▁스크립	-15173
▁아이들과	-15174
▁차원	-15175
▁5)	-15176
변호사	-15177
▁검색을	-15178
너는	-15179
년전	-15180
▁태아	-15181
▁건조한	-15182
별한	-15183
▁일명	-15184
발이	-15185
▁어렵다는	-15186
▁공작	-15187
오프화이트	-15188
/3	-15189
년동안	-15190
▁그다지	-15191
!’	-15192
가을	-15193
▁체온	-15194
디시	-15195
수소	-15196
▁전문가들이	-15197
서야	-15198
▁대표적	-15199
▁Post	-15200
표시	-15201
▁부어	-15202
▁많지만	-15203
▁요구했다	-15204
▁기생	-15205
▁앉아서	-15206
▁컨퍼런스	-15207
/2	-15208
▁진실을	-15209
거렸다	-15210
▁공모전	-15211
▁디테일	-15212
▁했으며	-15213
▁제국	-15214
▁판단을	-15215
▁해외에서	-15216
▁타겟	-15217
▁연결이	-15218
▁확인했다	-15219
▁98	-15220
▁이화	-15221
셀로나	-15222
▁기쁨을	-15223
언스	-15224
지주	-15225
▁고쳐	-15226
▁여객	-15227
센터에	-15228
▁경제의	-15229
stand	-15230
▁나서는	-15231
▁아끼지	-15232
▁박테리아	-15233
▁의사소통	-15234
버드	-15235
▁대해선	-15236
▁종일	-15237
▁음식이	-15238
▁의무를	-15239
사업자대출	-15240
9,	-15241
▁만끽	-15242
▁생산을	-15243
▁겪은	-15244
▁살이	-15245
하고도	-15246
▁부유	-15247
▁여권	-15248
▁Open	-15249
▁아라	-15250
▁광고가	-15251
▁말씀이	-15252
▁들어가면	-15253
교실	-15254
▁반전	-15255
독립	-15256
▁가열	-15257
▁경우라도	-15258
▁네트	-15259
▁대항	-15260
▁이송	-15261
었죠	-15262
ero	-15263
▁파인	-15264
▁마련한	-15265
▁환불해드립니다	-15266
▁개최된	-15267
▁가능하도록	-15268
그럼	-15269
▁뇌졸	-15270
▁서둘러	-15271
레일	-15272
▁건네	-15273
▁비영리	-15274
▁소비자들의	-15275
민을	-15276
▁어디까지	-15277
~7	-15278
니스를	-15279
러는	-15280
▁예민	-15281
▁포천	-15282
ideo	-15283
▁있느냐	-15284
▁저축	-15285
▁제천	-15286
겠는가	-15287
▁1994	-15288
▁신사	-15289
▁유인	-15290
▁이유다	-15291
▁검토하고	-15292
▁제시하고	-15293
▁파악할	-15294
▁Power	-15295
▁번호를	-15296
▁서울대학교	-15297
wo	-15298
▁코치	-15299
▁file	-15300
▁즈	-15301
병의	-15302
▁감기	-15303
▁절단	-15304
▁다할	-15305
적일	-15306
▁품절	-15307
▁시민단체	-15308
▁워드	-15309
▁유족	-15310
▁체험을	-15311
▁휴대전화	-15312
실천	-15313
▁터뜨	-15314
▁짧게	-15315
▁고유의	-15316
▁스타일링	-15317
▁문화와	-15318
▁않나	-15319
▁만족도	-15320
ethod	-15321
▁감면	-15322
▁만들어서	-15323
▁원활하게	-15324
▁모양을	-15325
디움	-15326
(11	-15327
▁수치를	-15328
▁콧	-15329
알바	-15330
▁얼룩	-15331
필드	-15332
FP	-15333
게이트	-15334
고시	-15335
▁열을	-15336
▁900	-15337
▁무료입니다	-15338
함의	-15339
▁빼고	-15340
▁해줄	-15341
▁첼	-15342
▁전지	-15343
▁친구와	-15344
▁투명한	-15345
▁설명합니다	-15346
:||	-15347
▁기저	-15348
▁남자는	-15349
▁폐기물	-15350
▁버그	-15351
▁딱히	-15352
가가치	-15353
ane	-15354
들에게도	-15355
COM	-15356
▁일체	-15357
▁할리	-15358
▁체계적으로	-15359
상한	-15360
▁원형	-15361
▁공유할	-15362
▁후보자	-15363
▁꽤나	-15364
▁잠실	-15365
▁주위	-15366
▁비율을	-15367
▁업체를	-15368
▁쥬	-15369
곳이	-15370
▁경제가	-15371
▁빌라	-15372
▁동아리	-15373
▁성폭력	-15374
허브	-15375
:50	-15376
de	-15377
▁닫기	-15378
▁지도자	-15379
BI	-15380
▁안쪽	-15381
▁통치	-15382
▁논의가	-15383
▁현장의	-15384
민과	-15385
유효한	-15386
▁의미에서	-15387
▁더운	-15388
▁보호하고	-15389
서스	-15390
▁되지만	-15391
▁여유가	-15392
불가	-15393
찰을	-15394
▁증여	-15395
▁한방	-15396
▁금융기관	-15397
우편	-15398
▁얼굴로	-15399
으론	-15400
▁간부	-15401
▁미얀	-15402
▁청산	-15403
▁떨어뜨	-15404
고사	-15405
안군	-15406
쟁이	-15407
▁67	-15408
▁김은	-15409
▁있었다는	-15410
핑크	-15411
▁없지	-15412
RY	-15413
(12	-15414
▁루이	-15415
▁크리	-15416
스트를	-15417
▁부위에	-15418
미녀	-15419
▁우회	-15420
해보면	-15421
자재	-15422
outh	-15423
▁아니냐	-15424
▁오페라	-15425
▁Test	-15426
▁고등학생	-15427
▁dev	-15428
▁일어나고	-15429
▁짓는	-15430
▁희망하는	-15431
▁여관	-15432
▁이룰	-15433
▁dif	-15434
02	-15435
▁밭	-15436
▁동호	-15437
▁쌓여	-15438
▁제공하지	-15439
▁FX	-15440
품으로	-15441
▁학생은	-15442
▁항공권을	-15443
결이	-15444
▁전망된다	-15445
▁집이	-15446
거제	-15447
▁만만	-15448
종으로	-15449
▁Our	-15450
▁입는	-15451
▁카이	-15452
▁방식에	-15453
sk	-15454
▁생계	-15455
▁내놓은	-15456
▁일들이	-15457
▁도와주는	-15458
▁처리를	-15459
▁방지를	-15460
▁하나다	-15461
▁후기를	-15462
더욱	-15463
을까요	-15464
▁무난	-15465
▁시작된다	-15466
▁아니하며	-15467
▁깨끗하게	-15468
▁아이패드	-15469
▁모금	-15470
./	-15471
▁낡	-15472
종류	-15473
▁육군	-15474
▁주시고	-15475
▁고민하고	-15476
▁exper	-15477
▁촌	-15478
위원은	-15479
조차도	-15480
정당	-15481
▁추진한다	-15482
틱스	-15483
▁신상	-15484
▁서울중앙	-15485
진주	-15486
보내기	-15487
▁남성이	-15488
▁also	-15489
▁prepare	-15490
동네	-15491
▁계단	-15492
주시고	-15493
▁내리고	-15494
olution	-15495
터와	-15496
림의	-15497
▁내부의	-15498
▁여유를	-15499
▁움직임이	-15500
창조	-15501
▁도시를	-15502
▁확인해야	-15503
▁청정	-15504
illa	-15505
▁스위치	-15506
▁COVID	-15507
하진	-15508
▁예로	-15509
vest	-15510
티아	-15511
▁났다	-15512
▁설명해	-15513
▁와이파이	-15514
▁조경	-15515
▁요청했다	-15516
▁헝	-15517
▁겸손	-15518
ruct	-15519
▁개장	-15520
량으로	-15521
▁일부러	-15522
더는	-15523
▁남성의	-15524
▁포지션	-15525
반의	-15526
▁교육에	-15527
▁불만을	-15528
▁한가지	-15529
▁스커	-15530
▁세그	-15531
▁용기를	-15532
▁견인	-15533
▁입소	-15534
▁세계로	-15535
제도를	-15536
지역에서	-15537
건지	-15538
▁4000	-15539
:40	-15540
▁기숙	-15541
▁장면이	-15542
▁철저하게	-15543
단독	-15544
목사	-15545
▁수시	-15546
▁작품의	-15547
▁모르지만	-15548
▁스태	-15549
▁원칙을	-15550
▁성장에	-15551
자금대출	-15552
폐기	-15553
▁완공	-15554
▁추상	-15555
▁과학적	-15556
지거나	-15557
▁조속	-15558
▁잔뜩	-15559
▁상하이	-15560
▁판매하고	-15561
▁이완	-15562
▁품고	-15563
▁다양하고	-15564
▁타워	-15565
▁아들을	-15566
▁이점을	-15567
▁협업을	-15568
진짜	-15569
▁휴게	-15570
부스타빗부스타빗	-15571
ana	-15572
▁고조	-15573
해보는	-15574
▁멤버십	-15575
▁담임	-15576
▁발견된	-15577
▁언젠가	-15578
▁사운	-15579
▁홍성	-15580
yle	-15581
▁무죄	-15582
▁가슴을	-15583
▁요금을	-15584
Book	-15585
▁뚜렷한	-15586
▁대두	-15587
무게	-15588
▁박상	-15589
▁계획은	-15590
▁일본에	-15591
▁열릴	-15592
추행	-15593
▁사소한	-15594
법령	-15595
행위를	-15596
▁작품으로	-15597
▁당진	-15598
▁마실	-15599
▁접착	-15600
▁정신이	-15601
91	-15602
▁te	-15603
▁Pol	-15604
▁스케줄	-15605
▁전하고	-15606
라고도	-15607
▁시리아	-15608
▁기구	-15609
▁대부	-15610
체어	-15611
으세요	-15612
:17	-15613
▁활동의	-15614
erts	-15615
▁been	-15616
질로	-15617
더보기	-15618
▁남양주	-15619
ished	-15620
▁벌어지는	-15621
▁알렉	-15622
목으로	-15623
▁인재를	-15624
▁허가를	-15625
▁뒤늦게	-15626
▁장학금	-15627
터스	-15628
:13	-15629
▁한나라	-15630
▁인식하고	-15631
:14	-15632
▁군은	-15633
▁스릴	-15634
▁신동	-15635
DR	-15636
제이	-15637
▁딸기	-15638
▁바가	-15639
▁받았고	-15640
▁컴퓨팅	-15641
라니	-15642
▁Your	-15643
▁기업인	-15644
EU	-15645
▁구직	-15646
▁사령	-15647
▁화를	-15648
▁속성	-15649
}}	-15650
...”	-15651
▁그것의	-15652
▁급격한	-15653
▁사원	-15654
▁시로	-15655
▁교육부	-15656
▁도저히	-15657
▁펼쳤다	-15658
▁연구팀은	-15659
▁최근의	-15660
되었다는	-15661
▁거칠	-15662
▁건국	-15663
▁전체에	-15664
▁every	-15665
마루	-15666
▁가맹점	-15667
▁다르지	-15668
▁가자	-15669
▁유성	-15670
부탁	-15671
▁열정을	-15672
▁지나지	-15673
아무	-15674
▁포함하고	-15675
주의적	-15676
▁습관을	-15677
▁콘크리트	-15678
녀의	-15679
▁뜨거	-15680
▁뿌려	-15681
▁함께한	-15682
▁콘텐츠는	-15683
▁기각	-15684
▁어드	-15685
▁필라	-15686
▁뛰어들	-15687
6-	-15688
독한	-15689
▁사립	-15690
▁안나	-15691
▁고립	-15692
교육과	-15693
▁문화체육관광	-15694
▁필드	-15695
친화	-15696
▁석탄	-15697
▁변화의	-15698
시브	-15699
▁도울	-15700
▁위임	-15701
▁하천	-15702
▁전방	-15703
▁매뉴얼	-15704
▁이번이	-15705
▁자격이	-15706
▁찜	-15707
선교	-15708
▁막는	-15709
였다는	-15710
▁떨어졌다	-15711
▁리드	-15712
:18	-15713
▁온몸	-15714
▁사용자를	-15715
▁동안의	-15716
▁중국어	-15717
남동	-15718
▁요새	-15719
▁올해로	-15720
▁직원들의	-15721
▁Ac	-15722
▁기침	-15723
▁공학	-15724
▁무효	-15725
업계에	-15726
철학	-15727
▁보장하는	-15728
▁짓고	-15729
▁IB	-15730
▁역을	-15731
▁용역	-15732
▁부상을	-15733
oto	-15734
▁자녀를	-15735
연예	-15736
▁아버지는	-15737
보단	-15738
▁정유	-15739
▁참가한	-15740
▁조사한	-15741
▁지침을	-15742
가리	-15743
▁제목의	-15744
▁제조사	-15745
공자	-15746
▁바다를	-15747
▁교재	-15748
▁마우	-15749
▁태극	-15750
▁사정	-15751
▁역전	-15752
보유	-15753
asino	-15754
렸는데	-15755
실비보험	-15756
▁정수	-15757
완벽한	-15758
협동조합	-15759
▁받았던	-15760
▁업체의	-15761
▁정상화	-15762
▁견디	-15763
▁Application	-15764
기존	-15765
와도	-15766
자문	-15767
▁수축	-15768
▁연체	-15769
▁다큐멘	-15770
▁요인이	-15771
▁기대감을	-15772
▁카지노에서	-15773
▁잃지	-15774
way	-15775
▁죽어	-15776
▁환경과	-15777
/4	-15778
워진	-15779
▁미국을	-15780
▁적혀	-15781
▁비디오를	-15782
케이스	-15783
▁보도에	-15784
▁알레르	-15785
비서	-15786
▁일행	-15787
▁리뷰에	-15788
검사를	-15789
ourn	-15790
기초	-15791
▁브러	-15792
▁|1	-15793
▁모델의	-15794
북구	-15795
유리	-15796
▁로즈	-15797
▁내면	-15798
▁운영되고	-15799
▁손톱	-15800
▁박종	-15801
lease	-15802
▁작업은	-15803
▁재산을	-15804
헬스	-15805
▁일본어	-15806
▁구성을	-15807
▁국방부	-15808
▁부분도	-15809
▁인정하고	-15810
▁트렌드를	-15811
▁포함합니다	-15812
▁하려	-15813
지부	-15814
▁손꼽	-15815
문재인	-15816
▁어깨를	-15817
파이어	-15818
▁두가지	-15819
▁것일	-15820
▁도우	-15821
클래스	-15822
▁하는가	-15823
▁시작됐다	-15824
▁가속화	-15825
▁의외로	-15826
▁너무나도	-15827
▁기장	-15828
▁끝났	-15829
▁배구	-15830
하니까	-15831
해주시면	-15832
질과	-15833
▁에이전	-15834
▁창고	-15835
▁공급하는	-15836
▁변호사는	-15837
윤리	-15838
▁달고	-15839
다양한	-15840
▁달리고	-15841
▁대응할	-15842
협정	-15843
ara	-15844
▁적고	-15845
사에게	-15846
▁시즌을	-15847
▁타격을	-15848
매도	-15849
지하	-15850
▁Me	-15851
▁스파이	-15852
오가	-15853
소개글	-15854
▁누리꾼	-15855
▁동굴	-15856
▁목표가	-15857
▁예수님을	-15858
▁KBO	-15859
▁산업에	-15860
▁세계가	-15861
▁외과	-15862
▁CG	-15863
▁애국	-15864
설이	-15865
팀장	-15866
▁생체	-15867
▁베를린	-15868
▁“‘	-15869
▁간담회	-15870
▁나이키	-15871
▁작게	-15872
▁부드러	-15873
▁사람에	-15874
간담	-15875
채를	-15876
▁민생	-15877
▁일원	-15878
▁말미	-15879
3000	-15880
▁실수를	-15881
사업으로	-15882
▁프로젝트의	-15883
▁꾀	-15884
▁제시하는	-15885
시대의	-15886
▁달리는	-15887
▁순위를	-15888
▁엇	-15889
▁대회를	-15890
▁사이로	-15891
▁발생하면	-15892
▁cm	-15893
▁닮은	-15894
번지	-15895
▁친구들	-15896
-210	-15897
▁동문	-15898
▁양평	-15899
▁접할	-15900
다니는	-15901
▁offer	-15902
acy	-15903
actice	-15904
▁알아보도록	-15905
▁VM	-15906
▁바카라사이트	-15907
백만	-15908
조명	-15909
▁고의	-15910
▁재개발	-15911
▁넌	-15912
사유	-15913
아름	-15914
~^^	-15915
TML	-15916
▁다가가	-15917
▁현실적인	-15918
언어	-15919
▁홍대	-15920
수학	-15921
▁자이	-15922
▁치솟	-15923
백과	-15924
▁교보	-15925
수당	-15926
▁170	-15927
▁매장을	-15928
벌이	-15929
ush	-15930
질은	-15931
No	-15932
티콘	-15933
▁봤을	-15934
▁일괄	-15935
▁너를	-15936
▁자기의	-15937
SNS	-15938
▁가축	-15939
▁피부의	-15940
▁하셨습니다	-15941
▁야당	-15942
정부는	-15943
▁세팅	-15944
방법을	-15945
▁집중적으로	-15946
▁달러의	-15947
계절	-15948
코니	-15949
▁감탄	-15950
▁남지	-15951
▁스윙	-15952
▁앵커	-15953
▁태백	-15954
▁레인	-15955
▁자세로	-15956
▁멈춰	-15957
▁발표를	-15958
▁정당한	-15959
▁Enter	-15960
두로	-15961
▁개발과	-15962
▁환상적인	-15963
밸리	-15964
▁이원	-15965
▁한옥	-15966
▁편견	-15967
▁그리는	-15968
▁인원에	-15969
▁귀한	-15970
▁버렸다	-15971
▁메이저리그	-15972
▁LH	-15973
▁인출	-15974
▁표현할	-15975
▁분의	-15976
▁날짜를	-15977
▁않았다고	-15978
_210	-15979
▁전경	-15980
▁비교하면	-15981
하기위한	-15982
▁행복하게	-15983
주시는	-15984
연료	-15985
▁수호	-15986
▁머리에	-15987
▁실험을	-15988
▁수산	-15989
▁알았다	-15990
▁포르투	-15991
▁활발하게	-15992
바둑이	-15993
▁주기적으로	-15994
▁곳도	-15995
▁부정적	-15996
▁되었으면	-15997
▁쑥	-15998
▁뉴시스	-15999
▁하이라이트	-16000
계에서	-16001
듣기	-16002
▁넘쳐	-16003
▁핵심은	-16004
오지	-16005
▁허벅	-16006
억원이	-16007
▁음식은	-16008
▁결정에	-16009
▁남다른	-16010
깊은	-16011
▁대의	-16012
해보고	-16013
ulti	-16014
드리도록	-16015
BO	-16016
▁뜻하는	-16017
법원	-16018
보에	-16019
추는	-16020
▁유효한	-16021
▁건물을	-16022
▁비지니스	-16023
...'	-16024
iver	-16025
했죠	-16026
▁purchase	-16027
래요	-16028
처가	-16029
▁라틴	-16030
섬유	-16031
쓰는	-16032
▁증가할	-16033
▁mm	-16034
소리가	-16035
▁특이한	-16036
▁운세	-16037
itor	-16038
▁마찬가지다	-16039
김치	-16040
돈을	-16041
▁코미디	-16042
▁ᄏ	-16043
▁2%	-16044
▁번씩	-16045
▁함수	-16046
▁임직	-16047
▁북한에	-16048
▁인물이	-16049
▁나름대로	-16050
▁귀족	-16051
▁개선하고	-16052
▁선수들의	-16053
▁지났	-16054
갔습니다	-16055
들여	-16056
등은	-16057
▁김승	-16058
▁웃으며	-16059
▁Center	-16060
네가	-16061
▁드문	-16062
▁사육	-16063
▁레이스	-16064
▁싶으신	-16065
order	-16066
▁대표팀	-16067
채무	-16068
▁여파로	-16069
php	-16070
▁이라크	-16071
▁전립선	-16072
▁장기적인	-16073
▁북쪽	-16074
▁출국	-16075
▁해고	-16076
▁시카고	-16077
▁구매자와	-16078
▁증폭	-16079
▁220	-16080
▁74	-16081
▁SF	-16082
▁대용량	-16083
준의	-16084
▁과천	-16085
▁너머	-16086
▁함양	-16087
▁영남	-16088
▁비정상	-16089
▁과태	-16090
▁치는	-16091
루엣	-16092
▁값이	-16093
▁str	-16094
브로	-16095
▁실효	-16096
▁어린이의	-16097
──	-16098
▁070	-16099
▁내부에	-16100
▁동물의	-16101
▁인구가	-16102
▁표현한	-16103
▁모순	-16104
▁팀장	-16105
▁계열사	-16106
▁등록을	-16107
▁과잉	-16108
▁조형	-16109
back	-16110
read	-16111
롭다	-16112
▁물질을	-16113
▁똥	-16114
▁곤충	-16115
▁국민들이	-16116
▁내역	-16117
▁다닐	-16118
▁용도	-16119
▁조현	-16120
,800	-16121
▁빈티지	-16122
▁가정에서	-16123
타임스	-16124
통상자원	-16125
항을	-16126
자에게는	-16127
▁넣는	-16128
▁가격도	-16129
▁대표를	-16130
▁메신저	-16131
▁Agoda	-16132
▁QR	-16133
▁상하	-16134
분들은	-16135
▁정형	-16136
▁선택의	-16137
▁닉	-16138
▁음식점이	-16139
국회	-16140
ole	-16141
▁말과	-16142
▁하에	-16143
안에서	-16144
▁설치되어	-16145
아빠	-16146
어스	-16147
▁키스	-16148
하기만	-16149
▁검증된	-16150
▁풍성	-16151
▁국한	-16152
▁바에	-16153
▁system	-16154
▁아세	-16155
▁끝나는	-16156
▁이슈가	-16157
▁기업들은	-16158
uss	-16159
▁닌	-16160
이신	-16161
캠퍼스	-16162
▁전문성을	-16163
▁참가자	-16164
▁92	-16165
▁런칭	-16166
▁양극	-16167
▁조사에	-16168
▁주변을	-16169
▁파스타	-16170
▁상식	-16171
▁대학에	-16172
갈비	-16173
택시	-16174
▁국민을	-16175
▁서류를	-16176
▁안정을	-16177
클리닝	-16178
▁남겼다	-16179
▁마사지를	-16180
▁채취	-16181
▁행동에	-16182
:21	-16183
▁강동	-16184
▁자를	-16185
▁고유한	-16186
▁돌아와	-16187
사람이	-16188
▁이동할	-16189
▁일부가	-16190
▁실린	-16191
▁갈등이	-16192
▁아가씨	-16193
▁이뤄질	-16194
군수	-16195
스탄	-16196
etail	-16197
▁헤어드라이어	-16198
▁버전의	-16199
▁대목	-16200
▁휴무	-16201
컨설팅	-16202
▁Java	-16203
배당	-16204
▁!!	-16205
▁DC	-16206
▁흡입	-16207
▁민족의	-16208
협상	-16209
▁새우	-16210
두천	-16211
ince	-16212
▁내려다	-16213
▁찔	-16214
imes	-16215
▁선생님이	-16216
▁아르헨	-16217
▁짱	-16218
르르	-16219
아침	-16220
▁저축은행	-16221
ustomer	-16222
검토	-16223
▁3.1	-16224
▁시설은	-16225
▁퍼져	-16226
▁햇살	-16227
이있는	-16228
▁출동	-16229
▁sub	-16230
▁긴장을	-16231
드라	-16232
반도	-16233
▁val	-16234
▁가슴에	-16235
Cloud	-16236
▁트레이닝	-16237
ᅲᅲᅲᅲ	-16238
▁경로를	-16239
적이었다	-16240
강추	-16241
▁맞대	-16242
▁성능이	-16243
▁설치하는	-16244
▁투자하는	-16245
▁(4	-16246
▁길로	-16247
▁의장은	-16248
▁집계됐다	-16249
미와	-16250
▁거창	-16251
▁미주	-16252
헤럴드	-16253
▁min	-16254
▁백신을	-16255
▁현황을	-16256
상품을	-16257
박이	-16258
/11	-16259
:01	-16260
▁놀란	-16261
▁놓인	-16262
▁사막	-16263
제품을	-16264
▁Trans	-16265
광장	-16266
조작	-16267
▁창의적인	-16268
▁직접적으로	-16269
▁일간	-16270
▁손해를	-16271
▁고객들이	-16272
▁정화	-16273
▁샐러드	-16274
▁살아야	-16275
▁유무	-16276
본부는	-16277
▁돌아갈	-16278
▁생중계	-16279
▁기성	-16280
▁즐기기	-16281
▁프로젝트는	-16282
▁잇따라	-16283
위원회에	-16284
play	-16285
▁부착된	-16286
▁페이지에	-16287
▁여신	-16288
▁뒤에서	-16289
▁건데	-16290
▁느꼈다	-16291
는지를	-16292
▁종류가	-16293
제거	-16294
▁착공	-16295
커머스	-16296
▁윌리엄	-16297
코어	-16298
▁문득	-16299
▁중이며	-16300
▁가능하다는	-16301
품은	-16302
ICE	-16303
었으나	-16304
회사의	-16305
롭지	-16306
엔드	-16307
▁trans	-16308
워즈	-16309
▁중립	-16310
▁퍼즐	-16311
오프라인	-16312
raph	-16313
준은	-16314
▁아니라면	-16315
▁애널	-16316
▁웨스트	-16317
▁대비하여	-16318
▁SEO	-16319
단다	-16320
커버	-16321
▁명문	-16322
▁권리가	-16323
▁바이러	-16324
▁자체의	-16325
극장	-16326
▁한마디로	-16327
▁시설입니다	-16328
Sp	-16329
▁발레	-16330
▁쉽다	-16331
▁동물을	-16332
▁BEST	-16333
▁생각으로	-16334
▁괜히	-16335
')	-16336
기업이	-16337
태그	-16338
▁벽에	-16339
▁분배	-16340
▁등록한	-16341
▁실질적으로	-16342
지기도	-16343
미로	-16344
영역	-16345
▁ar	-16346
▁gr	-16347
소리를	-16348
▁영상은	-16349
▁76	-16350
들보다	-16351
▁엉덩이	-16352
ois	-16353
▁발견하고	-16354
▁톰	-16355
렸다고	-16356
▁결제가	-16357
▁지분을	-16358
▁공예	-16359
▁잠수	-16360
▁엘리트	-16361
▁최첨단	-16362
▁보답	-16363
▁설치해	-16364
▁확인에	-16365
프란시스코	-16366
1.0	-16367
국민의	-16368
▁그렇고	-16369
▁판결을	-16370
▁인터페이스	-16371
규정	-16372
자녀	-16373
정동	-16374
적용	-16375
▁KR	-16376
있어요	-16377
중에서	-16378
들입니다	-16379
▁알렸다	-16380
▁em	-16381
▁유재	-16382
▁주면	-16383
▁SH	-16384
▁깨끗하고	-16385
▁박수	-16386
꺼번에	-16387
렸지만	-16388
▁우아한	-16389
▁되었다고	-16390
▁노란	-16391
▁면적	-16392
▁배너	-16393
▁방사선	-16394
▁수요를	-16395
▁항산화	-16396
▁우리도	-16397
▁기관은	-16398
▁자동차보험	-16399
사각	-16400
▁드롭	-16401
▁쓰여	-16402
▁온라인에서	-16403
▁너의	-16404
▁출시했다	-16405
이러	-16406
▁물려	-16407
▁실루엣	-16408
금융권	-16409
결과를	-16410
분류	-16411
소녀	-16412
년으로	-16413
▁퀴즈	-16414
▁근육을	-16415
▁출연한	-16416
▁결핍	-16417
▁공영	-16418
▁들어올	-16419
▁규격	-16420
▁원문	-16421
▁우체국	-16422
▁제임스	-16423
▁하나만	-16424
수행	-16425
저우	-16426
▁귀가	-16427
▁사진으로	-16428
▁움직일	-16429
▁플래시	-16430
▁Per	-16431
▁몰라도	-16432
▁현대적인	-16433
▁시스템으로	-16434
▁표명	-16435
▁풀고	-16436
▁구하는	-16437
▁어머니의	-16438
▁바보	-16439
cellent	-16440
공간을	-16441
보디아	-16442
▁자료는	-16443
▁검거	-16444
▁여론조사	-16445
▁재판부는	-16446
아카데미	-16447
IB	-16448
태평양	-16449
고양	-16450
▁생략	-16451
▁유흥	-16452
▁김형	-16453
▁두뇌	-16454
▁면책	-16455
▁중재	-16456
▁트리트	-16457
▁지식이	-16458
카톡	-16459
▁스핀	-16460
▁이순	-16461
▁이산화	-16462
▁단골	-16463
▁미술관	-16464
:22	-16465
PO	-16466
▁che	-16467
▁영어를	-16468
pm	-16469
▁공적	-16470
▁약관	-16471
▁관련해서	-16472
▁호흡을	-16473
개에	-16474
▁3%	-16475
▁배열	-16476
▁단단한	-16477
▁불어넣	-16478
▁78	-16479
▁CO	-16480
▁content	-16481
▁김혜	-16482
▁미흡	-16483
▁덴마크	-16484
▁돈으로	-16485
▁돼요	-16486
▁향기	-16487
▁후보를	-16488
급식	-16489
▁주인이	-16490
적으로도	-16491
▁넘나	-16492
▁병원을	-16493
▁위원회	-16494
▁이강	-16495
▁계획입니다	-16496
ask	-16497
▁편도	-16498
▁신재생	-16499
▁원한다면	-16500
▁인플레이션	-16501
▁보스	-16502
▁피드백을	-16503
카지노사이트	-16504
▁공수	-16505
▁수량	-16506
clud	-16507
▁수반	-16508
스트리	-16509
▁복음을	-16510
▁아니기	-16511
▁조용한	-16512
▁포맷	-16513
▁피하기	-16514
▁시원하게	-16515
▁덤프샘플	-16516
ma	-16517
board	-16518
▁군포	-16519
곳에서	-16520
▁Val	-16521
▁모스크	-16522
▁전달하고	-16523
▁사단	-16524
▁측이	-16525
▁활기	-16526
과를	-16527
▁비아	-16528
쇼핑몰	-16529
▁에피소드	-16530
경주	-16531
▁빠져나	-16532
맞이	-16533
▁시선이	-16534
콜라	-16535
시설이	-16536
▁옆에서	-16537
▁Club	-16538
▁아르바이트	-16539
날이	-16540
ASE	-16541
▁이곳을	-16542
▁시리즈의	-16543
글로	-16544
▁성사	-16545
▁언더	-16546
▁숨겨	-16547
▁엑셀	-16548
안산	-16549
▁DJ	-16550
▁사연	-16551
▁활력을	-16552
동포	-16553
▁96	-16554
▁쓰면	-16555
▁선수의	-16556
해주셔서	-16557
▁불과하다	-16558
사원	-16559
▁바지	-16560
▁보좌	-16561
▁현명한	-16562
카는	-16563
▁역설	-16564
이사장	-16565
▁개인정보취급	-16566
▁산소	-16567
▁앓고	-16568
▁소나무	-16569
▁오토바이	-16570
▁♥	-16571
ECD	-16572
ets	-16573
▁Best	-16574
▁나가겠다	-16575
▁등재	-16576
▁가지게	-16577
▁한꺼번에	-16578
인상	-16579
▁엄마의	-16580
주교	-16581
▁매장에서	-16582
▁장성	-16583
dump	-16584
▁부부가	-16585
▁자외선	-16586
▁정복	-16587
▁information	-16588
▁비하	-16589
청에서	-16590
ision	-16591
▁공정거래	-16592
▁회의에서	-16593
▁당기	-16594
▁기울여	-16595
▁분석해	-16596
▁최우선	-16597
▁발생한다	-16598
▁73	-16599
동맹	-16600
스퍼	-16601
▁동서	-16602
▁의상	-16603
갤러리	-16604
▁스트레칭	-16605
:19	-16606
▁먼지	-16607
▁섞어	-16608
▁인격	-16609
▁Bar	-16610
▁운명	-16611
▁되는지	-16612
SM	-16613
인물	-16614
▁강화할	-16615
▁업무협약을	-16616
▁한잔	-16617
봤어요	-16618
▁처리가	-16619
▁회복을	-16620
▁실제로는	-16621
▁이더리움	-16622
▁단계로	-16623
▁클라이언트	-16624
파리	-16625
▁소홀	-16626
▁더욱더	-16627
매출	-16628
▁여기까지	-16629
▁Engine	-16630
시도	-16631
uro	-16632
▁넣을	-16633
▁믿음을	-16634
▁몸은	-16635
▁국가를	-16636
▁짐을	-16637
▁필자는	-16638
▁very	-16639
속도	-16640
▁많기	-16641
트럭	-16642
판은	-16643
▁연세	-16644
▁걸그룹	-16645
▁김준	-16646
▁날에	-16647
▁애매	-16648
▁지역이	-16649
▁대성	-16650
▁리소	-16651
▁평가하는	-16652
▁관광지	-16653
▁화면이	-16654
란이	-16655
▁많다는	-16656
▁날카로운	-16657
▁고객께서는	-16658
▁자연을	-16659
▁어머니가	-16660
예배	-16661
▁후보의	-16662
▁고용노동	-16663
드릴게요	-16664
종일	-16665
▁기관이	-16666
▁크기는	-16667
▁노동조합	-16668
덤프는	-16669
▁누구에게	-16670
십자	-16671
항의	-16672
오후	-16673
사랑의	-16674
▁Ver	-16675
▁아이스크림	-16676
▁참고하시기	-16677
▁Upd	-16678
wp	-16679
활성화	-16680
▁강조하고	-16681
문서	-16682
우수	-16683
▁가다	-16684
▁아키텍	-16685
▁유학생	-16686
▁일년	-16687
▁기준은	-16688
▁찾아야	-16689
ocial	-16690
포함	-16691
앨범	-16692
▁적용하는	-16693
기독교	-16694
▁자료가	-16695
▁아름다움	-16696
클로	-16697
▁발목	-16698
▁전산	-16699
▁선물로	-16700
▁작품이다	-16701
/12	-16702
▁지속될	-16703
▁하나에	-16704
▁공헌	-16705
▁섬세한	-16706
▁출판사	-16707
ping	-16708
대환대출	-16709
장학	-16710
▁사은품	-16711
▁신도시	-16712
▁스팸	-16713
▁이현	-16714
▁손바닥	-16715
위원회에서	-16716
으러	-16717
컨대	-16718
내야	-16719
층은	-16720
통계	-16721
▁재킷	-16722
▁휴양	-16723
영양	-16724
▁나눴	-16725
▁교과서	-16726
▁그것에	-16727
▁본회의	-16728
▁영역에	-16729
▁접어들	-16730
▁유발하는	-16731
▁팟	-16732
▁make	-16733
화해	-16734
▁::	-16735
▁오케	-16736
▁가볍고	-16737
▁꼽힌다	-16738
▁류현	-16739
▁주변에서	-16740
▁내용입니다	-16741
실과	-16742
do	-16743
슬롯	-16744
▁형상	-16745
▁기금	-16746
▁쉬워	-16747
▁운동은	-16748
▁엎	-16749
▁가산	-16750
사진을	-16751
▁수단으로	-16752
▁부추	-16753
▁뮤직비디오	-16754
없고	-16755
▁장군	-16756
모습	-16757
▁대피	-16758
▁도발	-16759
▁돼지고	-16760
▁도움으로	-16761
▁유머	-16762
▁펀딩	-16763
카운	-16764
(30	-16765
▁적절하게	-16766
▁똑같	-16767
▁경력을	-16768
▁방송에서	-16769
스마트폰	-16770
▁86	-16771
len	-16772
▁전의	-16773
▁한의	-16774
▁남기고	-16775
▁방법도	-16776
▁올바르지	-16777
▁OK	-16778
▁누구보다	-16779
▁펼쳐지는	-16780
▁61	-16781
▁주유	-16782
▁취향에	-16783
자산운용	-16784
▁대가	-16785
▁바위	-16786
▁방에	-16787
레가	-16788
▁유가	-16789
▁어떨까요	-16790
▁인성	-16791
▁항소	-16792
▁스테인	-16793
als	-16794
els	-16795
▁드려	-16796
▁인간을	-16797
▁강조하는	-16798
유니	-16799
훈은	-16800
최초	-16801
토의	-16802
▁김주	-16803
▁지켜야	-16804
▁방법이다	-16805
협회는	-16806
▁요구하고	-16807
OA	-16808
▁말하지	-16809
▁처음이다	-16810
하는데요	-16811
응답	-16812
타의	-16813
▁국가에	-16814
▁약물을	-16815
▁제외하고는	-16816
년월	-16817
▁구입한	-16818
▁공부하는	-16819
oll	-16820
▁같다고	-16821
▁다루고	-16822
▁확보할	-16823
▁사라지고	-16824
▁design	-16825
▁과시	-16826
▁러닝	-16827
▁요건	-16828
겠어	-16829
▁Management	-16830
거리며	-16831
▁활발히	-16832
▁결정한	-16833
▁세븐	-16834
▁있으시면	-16835
▁결성	-16836
▁같지만	-16837
▁전성	-16838
alys	-16839
▁관행	-16840
▁파란	-16841
▁이벤트가	-16842
▁대학에서	-16843
▁플레이를	-16844
▁유니폼	-16845
공고	-16846
어리	-16847
▁전월	-16848
여행을	-16849
▁서비스도	-16850
위안	-16851
▁Rec	-16852
:02	-16853
▁탐지	-16854
▁건축물	-16855
▁생기고	-16856
공지	-16857
▁임플란트	-16858
▁구워	-16859
▁잦은	-16860
▁분류할	-16861
▁행동이	-16862
매체	-16863
▁저가	-16864
▁상황과	-16865
▁잠재적	-16866
my	-16867
▁임무	-16868
▁실증	-16869
하셔도	-16870
▁느낀다	-16871
▁해보고	-16872
▁공사를	-16873
▁찾아온	-16874
▁마련하고	-16875
란한	-16876
이재	-16877
▁믿지	-16878
▁3.0	-16879
▁반응형	-16880
역량	-16881
▁쉬는	-16882
▁테이프	-16883
▁품종	-16884
미사일	-16885
전부터	-16886
rome	-16887
▁아로마	-16888
▁공동주택	-16889
▁이집트	-16890
▁익스피	-16891
▁부문에서	-16892
eta	-16893
▁발주	-16894
▁원이	-16895
▁예정된	-16896
▁웹사이트를	-16897
▁피를	-16898
market	-16899
▁support	-16900
aa	-16901
▁먹어야	-16902
▁일어났	-16903
▁출시를	-16904
▁신용등급	-16905
▁나타났습니다	-16906
▁합작	-16907
예수	-16908
내셔널	-16909
쿠버	-16910
▁가나	-16911
주었다	-16912
▁리포트	-16913
▁자녀가	-16914
:23	-16915
시키며	-16916
▁설명이	-16917
▁손해배상	-16918
GS	-16919
일수록	-16920
▁프론	-16921
▁함으로써	-16922
▁어플리케이션	-16923
필수	-16924
ency	-16925
▁압력을	-16926
▁협력해	-16927
▁협의를	-16928
▁추천드립니다	-16929
일부	-16930
▁낭만	-16931
▁주님	-16932
▁팀에	-16933
과세	-16934
시안	-16935
▁자국	-16936
리터	-16937
▁멜로	-16938
▁분실	-16939
▁느끼지	-16940
▁앱에서	-16941
동성	-16942
텍스	-16943
▁시그니	-16944
▁소개할	-16945
inc	-16946
▁용접	-16947
▁바비	-16948
▁비결	-16949
▁디저트	-16950
▁아름답게	-16951
▁삼척	-16952
안마방	-16953
▁개선에	-16954
▁검찰이	-16955
▁당국은	-16956
▁해주고	-16957
▁여러분께	-16958
▁포인트가	-16959
수석	-16960
언을	-16961
증명서	-16962
▁무게를	-16963
▁그곳에서	-16964
▁채팅어플	-16965
▁보장합니다	-16966
여기	-16967
▁밀집	-16968
▁어학	-16969
캐스트	-16970
▁있다며	-16971
▁발명	-16972
▁표출	-16973
▁의지가	-16974
▁재학생	-16975
▁학위를	-16976
▁부작용이	-16977
것같	-16978
▁떠날	-16979
▁무산	-16980
▁읽은	-16981
▁데이터의	-16982
DM	-16983
한화	-16984
(24	-16985
공사는	-16986
▁관계로	-16987
▁절차가	-16988
▁해당된다면	-16989
평생	-16990
▁꿈은	-16991
▁남양	-16992
▁잡힌	-16993
▁커질	-16994
락한	-16995
▁거둔	-16996
▁클렌	-16997
▁성분을	-16998
▁휴가를	-16999
▁양주	-17000
▁중장기	-17001
▁직원을	-17002
▁필요성이	-17003
▁굶	-17004
:25	-17005
▁인접	-17006
▁진공	-17007
▁춤을	-17008
▁가정을	-17009
▁이번에도	-17010
:24	-17011
▁소재의	-17012
▁궁금합니다	-17013
▁안티	-17014
시켜야	-17015
▁길어	-17016
▁될지	-17017
▁부재	-17018
▁불평	-17019
▁도전을	-17020
▁마케팅을	-17021
▁씻어	-17022
▁있는지를	-17023
IZ	-17024
▁지급하는	-17025
ams	-17026
▁아닌지	-17027
▁기적	-17028
▁수습	-17029
▁없이는	-17030
▁전적으로	-17031
남에	-17032
▁기둥	-17033
▁마틴	-17034
▁후손	-17035
xx	-17036
▁덕에	-17037
▁호흡기	-17038
채권	-17039
▁하우	-17040
그래프	-17041
▁흥미를	-17042
준이	-17043
▁오바마	-17044
판매가	-17045
▁팜	-17046
루살	-17047
여대	-17048
ning	-17049
▁계획하고	-17050
▁기울이고	-17051
▁강행	-17052
▁고찰	-17053
▁차에	-17054
▁세인트	-17055
박을	-17056
▁피가	-17057
해보자	-17058
▁능동	-17059
▁연일	-17060
▁중국을	-17061
▁개발해	-17062
▁인정하는	-17063
▁조심스럽게	-17064
▁약화	-17065
▁살면서	-17066
▁인력을	-17067
성적	-17068
일드	-17069
▁거래는	-17070
▁지었다	-17071
▁액세서리	-17072
▁컴퓨터에	-17073
들에서	-17074
▁인명	-17075
▁유적	-17076
Tube	-17077
▁간호사	-17078
▁자신도	-17079
홈페이지	-17080
네이	-17081
가지를	-17082
인지는	-17083
국적	-17084
▁발렌	-17085
▁자란	-17086
▁감상할	-17087
▁교회는	-17088
프로젝트	-17089
▁배포금지	-17090
년차	-17091
▁칼라	-17092
▁예상치	-17093
▁초기에	-17094
ecause	-17095
하십니다	-17096
▁대회에서	-17097
▁나주	-17098
더불어	-17099
▁전달할	-17100
종교	-17101
▁편지를	-17102
▁민주노총	-17103
▁광복	-17104
▁하향	-17105
▁배경을	-17106
항목	-17107
▁마비	-17108
▁청원	-17109
경기에서	-17110
riend	-17111
▁종합적으로	-17112
하든	-17113
▁권력을	-17114
▁않고도	-17115
고속도로	-17116
▁Facebook	-17117
아지	-17118
트립	-17119
▁팁을	-17120
▁이른다	-17121
▁브랜드가	-17122
오면	-17123
▁제품이다	-17124
"(	-17125
돌아	-17126
▁금호	-17127
소유	-17128
▁learn	-17129
VR	-17130
▁마인	-17131
cert	-17132
업체의	-17133
▁FTA	-17134
’.	-17135
날을	-17136
루살렘	-17137
▁공간의	-17138
▁표시된	-17139
펜션	-17140
▁전임	-17141
▁느낌의	-17142
▁단어가	-17143
▁할인가	-17144
측의	-17145
▁학교의	-17146
▁실시하는	-17147
.31	-17148
증으로	-17149
sent	-17150
▁인문학	-17151
▁포켓몬	-17152
령이	-17153
▁CM	-17154
▁낙태	-17155
▁믿어	-17156
▁자연과	-17157
▁Sk	-17158
특수	-17159
▁품질의	-17160
CL	-17161
인공	-17162
▁NO	-17163
▁쇄	-17164
개와	-17165
▁고고	-17166
▁방콕	-17167
▁his	-17168
▁말하자면	-17169
▁문헌	-17170
▁International	-17171
연도	-17172
▁고객과	-17173
▁So	-17174
▁집필	-17175
▁썸	-17176
▁이메일로	-17177
▁일주일에	-17178
▁졸업하고	-17179
거같	-17180
도르	-17181
염의	-17182
▁휩싸	-17183
구청장	-17184
▁경제학	-17185
▁눈물이	-17186
▁뉴스레	-17187
▁나쁘지	-17188
▁기출문제	-17189
▁기기를	-17190
▁바꾸고	-17191
▁이동통신	-17192
▁이대	-17193
:59	-17194
단에서	-17195
▁벌이고	-17196
▁메타버스	-17197
전망	-17198
▁소집	-17199
▁수준에서	-17200
간이	-17201
아산	-17202
날로그	-17203
ward	-17204
▁청문	-17205
▁가치는	-17206
성남	-17207
▁작전	-17208
동물을	-17209
▁진정으로	-17210
▁service	-17211
적중	-17212
▁그루	-17213
▁상이	-17214
▁감성을	-17215
▁의혹이	-17216
황이	-17217
ENU	-17218
▁조직이	-17219
수수료	-17220
▁상승한	-17221
▁방학	-17222
▁운이	-17223
하였으나	-17224
▁정신건강	-17225
출장맛사지	-17226
▁개인정보취급방침	-17227
▁막고	-17228
▁이동합니다	-17229
▁노벨	-17230
토토사이트	-17231
▁11:00	-17232
▁접종을	-17233
▁결제를	-17234
▁아니었	-17235
▁차량이	-17236
▁궁금증을	-17237
▁믿습니다	-17238
▁가라앉	-17239
▁시작하면	-17240
▁내수	-17241
braindumps	-17242
▁규탄	-17243
▁마구	-17244
▁answ	-17245
배달	-17246
렸다는	-17247
▁동남아	-17248
▁삼성전자는	-17249
▁전문기업	-17250
학대	-17251
▁바쁘	-17252
▁동아시아	-17253
▁조건으로	-17254
witter	-17255
▁간섭	-17256
▁씨를	-17257
▁어마	-17258
검진	-17259
▁수성	-17260
레벨	-17261
▁인슐	-17262
▁투숙	-17263
▁폭탄	-17264
”...	-17265
BN	-17266
▁전진	-17267
사이클	-17268
▁개발된	-17269
CI	-17270
직접	-17271
▁공룡	-17272
oftware	-17273
▁사안	-17274
▁하수	-17275
▁속하는	-17276
▁음료를	-17277
▁주위에	-17278
▁패밀리	-17279
asp	-17280
▁가급	-17281
▁생각과	-17282
▁역사적인	-17283
▁사업자등록번호	-17284
병에	-17285
▁유한	-17286
▁죽는	-17287
asia	-17288
▁드러내	-17289
▁입장이다	-17290
▁원유	-17291
행사를	-17292
ized	-17293
▁비판을	-17294
▁옆으로	-17295
▁이름과	-17296
바퀴	-17297
▁개정안	-17298
▁우리와	-17299
▁주연	-17300
▁체험할	-17301
▁선택해야	-17302
▁같다는	-17303
▁구매자료를	-17304
▁ed	-17305
센터가	-17306
린의	-17307
▁토로	-17308
▁필기	-17309
비치	-17310
▁나빠	-17311
▁부자	-17312
▁수유	-17313
▁세웠다	-17314
▁요청할	-17315
밥을	-17316
지속	-17317
ko	-17318
▁달래	-17319
▁침구	-17320
▁전력을	-17321
▁환경의	-17322
▁봉쇄	-17323
▁요가	-17324
해수	-17325
▁아님	-17326
▁납입	-17327
▁어떻	-17328
▁Med	-17329
▁글쓰기	-17330
▁되었을	-17331
▁자체적으로	-17332
투명	-17333
▁구토	-17334
▁1992	-17335
상세	-17336
더가	-17337
▁눈동	-17338
▁망가	-17339
▁빠질	-17340
'...	-17341
▁김대중	-17342
▁people	-17343
▁에디터	-17344
▁지음	-17345
이렇게	-17346
▁게시글	-17347
▁무리가	-17348
▁디자인에	-17349
부여	-17350
▁예술의	-17351
▁장애가	-17352
▁물의	-17353
▁갖는다	-17354
사항이	-17355
▁감소했다	-17356
▁지극	-17357
▁신기술	-17358
▁protected	-17359
염을	-17360
▁대입	-17361
▁나라에서	-17362
▁주무	-17363
능한	-17364
▁레저	-17365
▁싶다고	-17366
▁순차적으로	-17367
추를	-17368
▁때만	-17369
▁벡터	-17370
▁고기를	-17371
▁키우고	-17372
▁되자	-17373
▁이하로	-17374
▁토너먼트	-17375
계와	-17376
▁배수	-17377
▁콘서	-17378
▁프레스	-17379
하신다면	-17380
▁이사장은	-17381
▁숙지	-17382
▁선수를	-17383
공예	-17384
곡동	-17385
▁성격이	-17386
▁excellent	-17387
과거	-17388
▁관점	-17389
▁지주	-17390
▁이미지는	-17391
▁써서	-17392
▁키움	-17393
-31	-17394
리칸	-17395
차전	-17396
:27	-17397
조회수	-17398
▁모릅니다	-17399
▁가꾸	-17400
▁본격화	-17401
▁파란색	-17402
▁금융감독	-17403
구미	-17404
커플	-17405
▁Direct	-17406
식에는	-17407
▁활용하고	-17408
강도	-17409
▁가파	-17410
라면서	-17411
fore	-17412
충북	-17413
▁화보	-17414
▁글과	-17415
▁독보	-17416
라미	-17417
비앤	-17418
ART	-17419
▁8,	-17420
▁거점	-17421
▁관악	-17422
▁드라이클리닝	-17423
졌어요	-17424
▁켄	-17425
니당	-17426
▁위를	-17427
▁고객들의	-17428
▁치명적인	-17429
공이	-17430
:45	-17431
니를	-17432
▁저와	-17433
▁포스팅을	-17434
▁바르셀로나	-17435
▁원칙적으로	-17436
▁새겨	-17437
민주주의	-17438
▁레이아웃	-17439
▁악의	-17440
▁타운	-17441
▁절차에	-17442
질에	-17443
▁안면	-17444
씨에게	-17445
▁1993	-17446
▁피지	-17447
중이다	-17448
▁추가할	-17449
강사	-17450
▁영향력	-17451
▁작품에	-17452
▁주인공이	-17453
/7	-17454
▁림프	-17455
발전을	-17456
▁노란색	-17457
▁생기면	-17458
홀딩	-17459
▁스트랩	-17460
▁이름의	-17461
▁합리적	-17462
타리	-17463
:28	-17464
ious	-17465
▁슬롯머신	-17466
미경	-17467
▁닥터	-17468
▁포인트로	-17469
▁적절히	-17470
▁씁	-17471
ATE	-17472
ecure	-17473
드래	-17474
본문	-17475
▁나무를	-17476
▁카타르	-17477
ats	-17478
▁김명	-17479
▁안될	-17480
주요	-17481
▁SQL	-17482
▁않으면서	-17483
▁아시아경제	-17484
림은	-17485
미세	-17486
▁모양이	-17487
▁암보험	-17488
View	-17489
▁산업통상자원	-17490
거래소	-17491
정책의	-17492
▁경험한	-17493
▁스테이	-17494
▁전쟁이	-17495
▁Cent	-17496
게이션	-17497
CM	-17498
낚시	-17499
분할	-17500
크루	-17501
▁충성	-17502
▁교실	-17503
▁경기는	-17504
▁임무를	-17505
▁없어도	-17506
▁유형을	-17507
소시엄	-17508
▁문제도	-17509
▁인터넷에	-17510
▁렉	-17511
▁강화해	-17512
▁파일이	-17513
▁싣	-17514
그레	-17515
홈런	-17516
어떻게	-17517
▁산업용	-17518
SAP	-17519
aid	-17520
▁시일	-17521
▁식물성	-17522
▁때를	-17523
했듯이	-17524
▁호스텔	-17525
▁짙은	-17526
▁설계된	-17527
▁캠퍼스	-17528
타가	-17529
ense	-17530
▁top	-17531
▁볼수	-17532
▁삼고	-17533
▁각국의	-17534
▁생식	-17535
▁LTE	-17536
▁정도에	-17537
기보다는	-17538
▁중견	-17539
▁상징하는	-17540
방은	-17541
노동자	-17542
리거나	-17543
.11.	-17544
▁연습을	-17545
▁보물	-17546
▁심심	-17547
▁개념이	-17548
▁좋다는	-17549
▁ON	-17550
▁예정이라고	-17551
▁Word	-17552
OG	-17553
테이	-17554
▁나서고	-17555
▁경유	-17556
▁부의	-17557
암보험	-17558
독일	-17559
▁라우	-17560
슨의	-17561
▁이뤄졌다	-17562
▁주목받고	-17563
든가	-17564
체스터	-17565
▁사용법	-17566
▁지위를	-17567
▁참고해주세요	-17568
거지	-17569
▁촬영한	-17570
▁커피숍	-17571
▁오스트리아	-17572
▁대표와	-17573
뉴스통신	-17574
▁짠	-17575
▁뭐라고	-17576
증에	-17577
▁부스	-17578
가이드	-17579
프라이즈	-17580
▁농장	-17581
▁디아	-17582
▁영광을	-17583
▁줘	-17584
트륨	-17585
▁되살	-17586
덤프를	-17587
▁무늬	-17588
▁Fire	-17589
▁현직	-17590
▁개선하는	-17591
트맨	-17592
▁지낸	-17593
만원에	-17594
인기자	-17595
▁이렇듯	-17596
▁쏙	-17597
▁간판	-17598
▁트윈	-17599
str	-17600
▁진흥	-17601
▁(10	-17602
▁유연한	-17603
▁Group	-17604
▁94	-17605
▁사랑은	-17606
▁이었다	-17607
페어	-17608
▁녹아	-17609
▁조상	-17610
▁조율	-17611
▁후보로	-17612
▁중앙일보	-17613
용을	-17614
충남	-17615
심에서	-17616
ora	-17617
▁때와	-17618
▁밤을	-17619
코노미	-17620
▁많이본	-17621
▁대접	-17622
▁수익성	-17623
임은	-17624
▁완주	-17625
▁뜻으로	-17626
▁손상을	-17627
EP	-17628
퍼런	-17629
▁세미	-17630
▁외로	-17631
▁고객들에게	-17632
창을	-17633
▁갤러	-17634
달라는	-17635
▁(0)	-17636
duc	-17637
터미널	-17638
▁(4)	-17639
▁발코니	-17640
▁알려드리겠습니다	-17641
▁난이	-17642
▁웃는	-17643
▁먹어도	-17644
▁조금이나마	-17645
버터	-17646
카의	-17647
▁속이	-17648
▁아내가	-17649
▁없이도	-17650
▁에이스	-17651
▁받았다고	-17652
▁좋아합니다	-17653
▁ML	-17654
▁하고자	-17655
▁뿜	-17656
면은	-17657
▁글루	-17658
▁박원	-17659
▁나들이	-17660
▁집중하고	-17661
▁끌려	-17662
▁구성해	-17663
▁본능	-17664
▁오기	-17665
▁일일이	-17666
▁할인된	-17667
▁주며	-17668
▁다리가	-17669
▁특히나	-17670
▁맛볼	-17671
건강보험	-17672
▁사업이다	-17673
▁백만	-17674
▁오라	-17675
▁장이	-17676
365	-17677
▁다윗	-17678
위키	-17679
▁방을	-17680
▁부평	-17681
▁발견할	-17682
▁보조금	-17683
▁침략	-17684
동과	-17685
▁영상으로	-17686
브를	-17687
동에서	-17688
▁퍼포먼스	-17689
▁믹	-17690
격증	-17691
▁동구	-17692
▁방광	-17693
▁두꺼운	-17694
▁덤프공부자료	-17695
군산	-17696
▁앞당	-17697
▁지킬	-17698
기관이	-17699
▁기념해	-17700
▁인프라를	-17701
▁녹화	-17702
▁돌고	-17703
▁평등	-17704
▁반영해	-17705
▁줄었다	-17706
택트	-17707
▁없으므로	-17708
▁잉글랜드	-17709
▁교원	-17710
▁Can	-17711
▁대안을	-17712
▁일정이	-17713
인사이트	-17714
▁비즈니스를	-17715
였을	-17716
▁경산	-17717
▁빛의	-17718
▁고가	-17719
▁전일	-17720
▁서초구	-17721
▁게시물이	-17722
oun	-17723
▁여왕	-17724
▁지자	-17725
▁des	-17726
▁당국	-17727
▁산업을	-17728
▁특화된	-17729
||1	-17730
▁문이	-17731
▁스피드	-17732
▁지방의	-17733
▁고민하는	-17734
▁게임입니다	-17735
▁인근에	-17736
▁앞으로는	-17737
코딩	-17738
▁79	-17739
▁컸다	-17740
반도체	-17741
▁데이터에	-17742
광역	-17743
▁곁에	-17744
▁열대	-17745
타이어	-17746
▁정책과	-17747
▁감각을	-17748
▁나아갈	-17749
▁스토리를	-17750
▁주목된다	-17751
▁전국적으로	-17752
▁✔	-17753
운송	-17754
형과	-17755
▁이창	-17756
▁온도가	-17757
▁날려	-17758
▁Mon	-17759
러의	-17760
▁89	-17761
▁르네	-17762
▁자리한	-17763
▁직원의	-17764
▁알아두실	-17765
레를	-17766
류에	-17767
empt	-17768
▁카테고리로	-17769
▁턴	-17770
조제	-17771
▁순간에	-17772
▁이용약관	-17773
▁듬	-17774
》,	-17775
▁보전	-17776
▁커튼	-17777
▁애플리케이션을	-17778
▁옴	-17779
▁펑	-17780
욕장	-17781
▁발자	-17782
크리스	-17783
▁물고기	-17784
▁믿음이	-17785
▁정하고	-17786
▁요소는	-17787
▁합의를	-17788
▁끊임없는	-17789
줄이	-17790
▁레고	-17791
alysis	-17792
▁신차	-17793
▁기도를	-17794
신과	-17795
-40	-17796
:29	-17797
▁거북	-17798
▁상승했다	-17799
▁싸우는	-17800
▁시너지	-17801
던가	-17802
운다	-17803
▁묻고	-17804
▁올라온	-17805
좋아	-17806
▁선택은	-17807
▁박차를	-17808
▁맛은	-17809
▁오세	-17810
▁주에	-17811
2008	-17812
▁안타까운	-17813
▁상황입니다	-17814
▁밀착	-17815
▁불렀	-17816
▁안철수	-17817
소속	-17818
▁CT	-17819
▁구체적	-17820
중소기업	-17821
▁철수	-17822
▁art	-17823
▁제한을	-17824
▁원인으로	-17825
영국	-17826
▁Go	-17827
기관에	-17828
IGHT	-17829
▁친구의	-17830
비행	-17831
▁튜브	-17832
:05	-17833
▁Az	-17834
교육지원	-17835
통은	-17836
티는	-17837
▁공급을	-17838
▁운동이	-17839
▁있겠다	-17840
ature	-17841
▁김대	-17842
폴리스	-17843
▁샤오	-17844
▁스테이션	-17845
게이	-17846
▁일으켜	-17847
▁Kim	-17848
▁숫자가	-17849
▁등록번호	-17850
▁Ltd	-17851
VP	-17852
▁용의	-17853
▁지워	-17854
▁화살	-17855
가지고	-17856
▁레포트	-17857
약의	-17858
(16	-17859
▁힘들게	-17860
업자	-17861
▁개최되는	-17862
말고	-17863
▁될까요	-17864
▁일기	-17865
자로부터	-17866
▁든든한	-17867
▁know	-17868
▁브랜드로	-17869
▁샌프란시스코	-17870
▁의왕	-17871
▁정례	-17872
▁키가	-17873
당국은	-17874
▁노력해	-17875
하곤	-17876
▁MM	-17877
▁들어선	-17878
▁while	-17879
▁차별화	-17880
▁비용으로	-17881
aily	-17882
usic	-17883
▁How	-17884
▁알아보는	-17885
▁잃어버린	-17886
▁VS	-17887
▁경희	-17888
▁그립	-17889
▁YTN	-17890
▁학생들	-17891
청과	-17892
:26	-17893
▁그라	-17894
월이	-17895
촉진	-17896
▁주석	-17897
시의회	-17898
▁나타내	-17899
▁보이스	-17900
▁when	-17901
조한	-17902
통의	-17903
▁국비	-17904
센터의	-17905
▁정의를	-17906
8000	-17907
시출장샵	-17908
▁가르치는	-17909
▁자신은	-17910
원자	-17911
▁숨은	-17912
▁황제	-17913
회장은	-17914
▁아쉽게	-17915
▁에드	-17916
▁특검	-17917
▁외에는	-17918
▁여건	-17919
▁포기하지	-17920
▁주가는	-17921
집은	-17922
▁하트	-17923
▁편입니다	-17924
득점	-17925
▁놀랐	-17926
▁섹시	-17927
▁버리는	-17928
▁협상을	-17929
▁available	-17930
타로	-17931
▁꿈이	-17932
▁키보	-17933
▁시험에	-17934
▁이해관계	-17935
▁재학	-17936
만원이	-17937
eter	-17938
▁HTML	-17939
원칙	-17940
▁좋네요	-17941
▁시리즈는	-17942
ody	-17943
▁자막	-17944
▁설명할	-17945
▁예시	-17946
▁정직	-17947
▁블로거	-17948
▁다이아몬드	-17949
▁만남을	-17950
▁열리고	-17951
▁봉사활동	-17952
▁제안했다	-17953
▁집은	-17954
atform	-17955
창의	-17956
통에	-17957
▁문구	-17958
▁유형에	-17959
▁남아있는	-17960
음의	-17961
▁다듬	-17962
▁스냅	-17963
▁적용될	-17964
▁부흥	-17965
▁확대할	-17966
쳐서	-17967
▁CL	-17968
▁방한	-17969
▁서울시는	-17970
▁연고	-17971
▁가져야	-17972
제도의	-17973
이미지를	-17974
▁췌장	-17975
▁얘기가	-17976
▁홍보를	-17977
inter	-17978
▁Lab	-17979
▁CR	-17980
▁반해	-17981
▁튀김	-17982
▁주민의	-17983
변을	-17984
조달	-17985
졌는데	-17986
기후	-17987
▁물과	-17988
▁알림을	-17989
▁강력하게	-17990
▁무단으로	-17991
▁외부에서	-17992
양성	-17993
▁수강생	-17994
▁아바	-17995
▁혈당	-17996
▁민주화	-17997
▁분야는	-17998
▁생각해요	-17999
▁온실가스	-18000
▁챔피언십	-18001
뮤직	-18002
▁상인	-18003
▁개발이	-18004
▁뉴딜	-18005
▁있긴	-18006
▁근접	-18007
▁성공할	-18008
▁존재가	-18009
▁특징이	-18010
▁English	-18011
▁리디	-18012
▁법조	-18013
▁폭풍	-18014
▁1.2	-18015
인기자격증	-18016
▁덕분	-18017
▁심사위원	-18018
▁}	-18019
▁향했다	-18020
스튜디오	-18021
▁선보이고	-18022
▁늑	-18023
HAN	-18024
코드를	-18025
▁포르투갈	-18026
상가	-18027
주자	-18028
▁잃을	-18029
▁해병	-18030
급의	-18031
정산	-18032
▁앤드	-18033
▁Global	-18034
▁사태를	-18035
▁시스템과	-18036
▁카지노를	-18037
ability	-18038
▁서쪽	-18039
▁도입을	-18040
▁작용을	-18041
▁바와	-18042
▁폴란드	-18043
해운	-18044
▁예의	-18045
▁잡기	-18046
단장	-18047
섹스	-18048
angu	-18049
담한	-18050
▁귀중한	-18051
▁뉴스가	-18052
▁10,000	-18053
▁87	-18054
▁테라	-18055
▁레전드	-18056
▁예산이	-18057
▁투자에	-18058
▁알려지지	-18059
교과	-18060
▁앱이	-18061
너지를	-18062
▁이해와	-18063
▁샵	-18064
그런데	-18065
oday	-18066
▁사우나	-18067
▁경상북도	-18068
▁펫	-18069
▁MD	-18070
▁틀어	-18071
스타트	-18072
▁그래야	-18073
▁성범죄	-18074
님도	-18075
현금	-18076
▁식이	-18077
▁높았다	-18078
▁밀가루	-18079
▁설립한	-18080
▁이벤트는	-18081
▁Express	-18082
숙박	-18083
▁세입	-18084
▁해준	-18085
▁화해	-18086
▁전략이	-18087
▁fail	-18088
▁만들어낸	-18089
▁누락되었거나	-18090
▁아토	-18091
▁펼칠	-18092
▁선택하십시오	-18093
)(	-18094
열이	-18095
▁전과	-18096
▁year	-18097
▁아랫	-18098
▁신고가	-18099
▁아동의	-18100
fo	-18101
▁게임과	-18102
▁아날로그	-18103
,,,	-18104
▁검찰에	-18105
▁중심이	-18106
류는	-18107
▁여부는	-18108
▁them	-18109
▁행사에는	-18110
설턴	-18111
피가	-18112
무지	-18113
▁학대	-18114
▁생긴다	-18115
▁트리트먼트	-18116
▁로열	-18117
그동안	-18118
합을	-18119
▁통화를	-18120
하기에는	-18121
▁즉석	-18122
방으로	-18123
▁Par	-18124
▁의식을	-18125
▁1950	-18126
구속	-18127
▁비비	-18128
bject	-18129
▁비틀	-18130
운동의	-18131
▁얼른	-18132
▁하셔야	-18133
겼습니다	-18134
-50	-18135
권에서	-18136
▁내다봤다	-18137
▁않더라도	-18138
동원	-18139
▁부양	-18140
▁자켓	-18141
왔어요	-18142
▁장애를	-18143
come	-18144
▁세상은	-18145
▁^	-18146
경과	-18147
▁목을	-18148
▁공기를	-18149
▁싶었던	-18150
▁동쪽	-18151
▁옹호	-18152
▁거래에	-18153
우와	-18154
포로	-18155
▁사람이라면	-18156
▁기업가	-18157
▁생방송	-18158
~1	-18159
▁깨닫게	-18160
▁초보자	-18161
▁생각됩니다	-18162
▁수목	-18163
스트는	-18164
▁이벤트에	-18165
▁there	-18166
▁success	-18167
겨운	-18168
이식	-18169
장도	-18170
▁가치와	-18171
▁동결	-18172
▁쌓인	-18173
▁1-2	-18174
▁변경될	-18175
▁Hy	-18176
▁통행	-18177
▁군민	-18178
▁그러고	-18179
▁포함되지	-18180
▁플랫폼은	-18181
▁몹	-18182
▁구두	-18183
▁대명	-18184
▁문의는	-18185
▁미얀마	-18186
▁지원과	-18187
▁일시적으로	-18188
만으로는	-18189
▁긍정적으로	-18190
했어	-18191
▁더한	-18192
▁대비한	-18193
▁1991	-18194
ke	-18195
만원이상	-18196
▁의정	-18197
▁상품과	-18198
디스플레이	-18199
▁◈	-18200
▁정정	-18201
▁회색	-18202
버리는	-18203
▁여자는	-18204
▁증가로	-18205
▁자동차를	-18206
▁부하	-18207
▁패치	-18208
▁대동	-18209
▁색을	-18210
▁사랑스러운	-18211
소수	-18212
▁금기	-18213
▁렌트	-18214
▁초고	-18215
문제가	-18216
회의실에서	-18217
▁박람회	-18218
▁이웃을	-18219
▁군인	-18220
▁가든	-18221
▁시기가	-18222
▁하니까	-18223
round	-18224
▁활성화에	-18225
▁Associate	-18226
지원을	-18227
akes	-18228
▁세제	-18229
▁악용	-18230
▁익스피디아	-18231
▁장기적으로	-18232
▁기여한	-18233
▁반응은	-18234
조각	-18235
▁어휘	-18236
▁가려움	-18237
▁블로그에	-18238
▁언론사는	-18239
oz	-18240
▁공군	-18241
▁조식	-18242
파원	-18243
▁레버	-18244
▁서대문	-18245
▁기능으로	-18246
▁책임자	-18247
▁벤츠	-18248
▁알뜰	-18249
6000	-18250
▁훌쩍	-18251
▁사라져	-18252
니와	-18253
▁2-3	-18254
▁일들을	-18255
▁주제는	-18256
▁출퇴근	-18257
바겐	-18258
▁넷째	-18259
▁유예	-18260
▁한진	-18261
Un	-18262
▁찍는	-18263
▁실손	-18264
공격	-18265
▁노스	-18266
▁더이상	-18267
▁문제다	-18268
▁conf	-18269
무단	-18270
▁바나나	-18271
▁선진국	-18272
▁Out	-18273
▁배경에	-18274
▁신청한	-18275
▁‘2019	-18276
배터리	-18277
▁마음대로	-18278
신에	-18279
▁수질	-18280
▁이끈	-18281
▁만나서	-18282
▁상태는	-18283
▁정신과	-18284
▁위함	-18285
▁마포구	-18286
▁어머니는	-18287
무늬	-18288
선한	-18289
ategory	-18290
▁유상	-18291
▁펼쳐진다	-18292
▁눈앞에	-18293
리브	-18294
▁노원	-18295
▁법이	-18296
▁잠정	-18297
사회를	-18298
▁수익률	-18299
▁설치가	-18300
▁기술력을	-18301
▁강점	-18302
▁아니야	-18303
었는데요	-18304
▁확인해보세요	-18305
공모	-18306
ior	-18307
▁교양	-18308
▁sim	-18309
▁심각하게	-18310
kt	-18311
레오	-18312
ouc	-18313
▁막내	-18314
▁밖에도	-18315
국제공항	-18316
▁가능한가요	-18317
▁민선	-18318
▁장소로	-18319
▁사람이다	-18320
▁정체성을	-18321
▁귀하가	-18322
▁소비자들이	-18323
IR	-18324
니의	-18325
irt	-18326
▁도래	-18327
4000	-18328
▁세라	-18329
▁놀라게	-18330
스톱	-18331
판의	-18332
▁추산	-18333
▁고려하면	-18334
||3	-18335
▁위주의	-18336
▁있으시	-18337
▁터져	-18338
▁원하지	-18339
▁1988	-18340
지표	-18341
▁정선	-18342
▁특혜	-18343
SA	-18344
▁나갔	-18345
▁포용	-18346
BL	-18347
▁이루어지고	-18348
암동	-18349
네스코	-18350
▁시행하고	-18351
▁인천공항	-18352
보관	-18353
▁절제	-18354
발행	-18355
▁루프	-18356
▁방화	-18357
▁공장을	-18358
▁주민등록	-18359
▁주장하고	-18360
있다는	-18361
▁올라가는	-18362
▁단점이	-18363
▁시작했고	-18364
▁자신들이	-18365
▁물품을	-18366
▁일상의	-18367
▁Office	-18368
▁자택	-18369
▁Work	-18370
▁감안하면	-18371
▁전국에서	-18372
나물	-18373
왔는데	-18374
▁상단에	-18375
▁요청에	-18376
▁모르겠습니다	-18377
▁삼국	-18378
▁이루어질	-18379
▁불쾌	-18380
▁앱은	-18381
▁역사에	-18382
▁Business	-18383
▁원에	-18384
▁//	-18385
▁호의	-18386
▁도시락	-18387
▁무언가	-18388
▁비중은	-18389
대회에서	-18390
▁good	-18391
▁원내대표는	-18392
비용을	-18393
▁표면에	-18394
▁안전사고	-18395
돌봄	-18396
셨을	-18397
▁전압	-18398
▁스타벅스	-18399
▁카테고리는	-18400
||2	-18401
▁급식	-18402
▁언론의	-18403
디가	-18404
▁고래	-18405
▁선정해	-18406
▁보건의료	-18407
▁시민이	-18408
▁프린트	-18409
▁차지한	-18410
▁페미니	-18411
비즈니스	-18412
▁이동하는	-18413
▁주민자치	-18414
▁간담회를	-18415
▁아름답고	-18416
▁아이에게	-18417
저것	-18418
중간	-18419
지마	-18420
ARS	-18421
▁그녀에게	-18422
▁업계에서	-18423
력도	-18424
뮤지	-18425
▁무궁	-18426
▁쿠션	-18427
콘서트	-18428
quest	-18429
▁폭이	-18430
▁Lin	-18431
▁보호에	-18432
▁심도	-18433
▁왕이	-18434
▁측의	-18435
▁향상에	-18436
보게	-18437
▁물량	-18438
▁계시는	-18439
▁상대를	-18440
▁기지	-18441
▁진행이	-18442
▁페인트	-18443
▁수치가	-18444
▁향하는	-18445
▁개체	-18446
▁금감	-18447
▁위법	-18448
자와의	-18449
위원장이	-18450
▁텐아시아	-18451
영향	-18452
▁"'	-18453
▁이나	-18454
▁여성들이	-18455
▁사명	-18456
▁센트	-18457
▁돈은	-18458
▁반죽	-18459
▁애인	-18460
사항은	-18461
▁서버를	-18462
▁원동	-18463
교회의	-18464
대원	-18465
모리	-18466
▁묶어	-18467
▁산타	-18468
▁지각	-18469
사업이	-18470
▁비핵화	-18471
▁공개됐다	-18472
출장샵예약	-18473
소연	-18474
▁이어갈	-18475
▁안전관리	-18476
▁여러분을	-18477
▁재배포금지	-18478
한인	-18479
▁산악	-18480
▁싸우	-18481
▁없거나	-18482
▁Black	-18483
▁옐	-18484
업의	-18485
▁바뀔	-18486
▁understand	-18487
레어	-18488
절이	-18489
▁진료를	-18490
▁예루살렘	-18491
PP	-18492
▁버거	-18493
▁아쿠	-18494
화장품	-18495
▁맞았다	-18496
론가	-18497
▁스케치	-18498
▁장거리	-18499
▁준비했다	-18500
▁2020.	-18501
야마	-18502
▁폐렴	-18503
ublic	-18504
테이블	-18505
▁드러난	-18506
▁명예를	-18507
▁비어	-18508
▁걱정하지	-18509
▁것만으로도	-18510
네마	-18511
▁101	-18512
▁매력이	-18513
▁일어나지	-18514
▁기꺼	-18515
▁주를	-18516
작으로	-18517
▁고양시	-18518
김포	-18519
부인과	-18520
▁관계는	-18521
▁담당하고	-18522
▁캄보디아	-18523
▁실정이다	-18524
▁있어서는	-18525
매장	-18526
▁끈다	-18527
▁인터넷에서	-18528
종에	-18529
▁귀하	-18530
▁본론	-18531
▁측에	-18532
▁몰랐다	-18533
▁what	-18534
▁한자	-18535
오면서	-18536
▁넓고	-18537
분으로	-18538
▁향상된	-18539
▁아이콘을	-18540
내외	-18541
무진	-18542
▁부총	-18543
▁억압	-18544
▁연락이	-18545
▁이니	-18546
▁경계를	-18547
▁목적에	-18548
▁할인을	-18549
ony	-18550
▁좋았	-18551
력발전	-18552
:35	-18553
▁돌연	-18554
▁밝고	-18555
▁살아갈	-18556
▁수있다	-18557
▁공부하고	-18558
_19	-18559
▁부엌	-18560
▁가정용	-18561
▁교회에	-18562
▁프리랜	-18563
수단	-18564
▁그러던	-18565
▁사망한	-18566
▁약속했다	-18567
▁상금	-18568
▁흑인	-18569
▁가져온	-18570
▁색상을	-18571
▁열악한	-18572
▁결정적인	-18573
▁바라보았다	-18574
▁단풍	-18575
▁피크	-18576
▁자사의	-18577
▁유명하다	-18578
▁이야기하는	-18579
터카	-18580
▁단호	-18581
▁잇몸	-18582
▁무사히	-18583
▁콜라보	-18584
▁나타냈다	-18585
▁조사됐다	-18586
희롱	-18587
▁진해	-18588
▁서포터	-18589
▁언론에	-18590
▁이대로	-18591
▁형식을	-18592
▁버전으로	-18593
사령	-18594
안동	-18595
▁판정	-18596
▁상태입니다	-18597
▁은근	-18598
▁나라는	-18599
한국시간	-18600
▁기후변화	-18601
이네요	-18602
▁총장은	-18603
기다	-18604
농구	-18605
▁가솔	-18606
▁외무	-18607
▁특징으로	-18608
관리에	-18609
어졌다	-18610
▁일상적인	-18611
▁콘텐츠가	-18612
▁바꿨	-18613
KT	-18614
▁기록이	-18615
▁주민들은	-18616
▁직원들은	-18617
테랑	-18618
▁한류	-18619
▁주택을	-18620
▁치료의	-18621
▁사실입니다	-18622
▁켈	-18623
▁식의	-18624
▁논란을	-18625
▁부분의	-18626
뉴욕	-18627
웠고	-18628
▁PE	-18629
▁행위는	-18630
폭이	-18631
▁고충	-18632
▁눈부	-18633
▁개인적	-18634
▁있고요	-18635
df	-18636
li	-18637
셨다면	-18638
▁소진	-18639
▁작성된	-18640
▁고온	-18641
▁지름	-18642
마이크	-18643
▁공급망	-18644
:03	-18645
▁주요뉴스	-18646
▁챗	-18647
던지	-18648
▁신이	-18649
▁실적이	-18650
▁시니어	-18651
증상	-18652
▁종전	-18653
키지	-18654
▁향수	-18655
갤럭시	-18656
▁열차	-18657
대표이사	-18658
연결	-18659
▁슬픈	-18660
해야할	-18661
▁결정이	-18662
▁건가	-18663
▁숨진	-18664
▁잡혀	-18665
▁통장	-18666
▁국가와	-18667
▁되니	-18668
▁이용객	-18669
학부	-18670
▁의문을	-18671
▁주인공은	-18672
▁독도	-18673
▁역할에	-18674
▁대회는	-18675
▁불안한	-18676
▁들어있는	-18677
▁참고문헌	-18678
용인	-18679
일차	-18680
▁책에	-18681
그래픽	-18682
▁성장이	-18683
▁엄마는	-18684
ember	-18685
▁보건복지부	-18686
▁부끄러	-18687
▁있음에도	-18688
▁방식이다	-18689
▁작동하지	-18690
하드	-18691
▁강진	-18692
▁대학을	-18693
▁직원은	-18694
기능을	-18695
▁팬들이	-18696
▁학부	-18697
메이크	-18698
▁외교부	-18699
▁이용하기	-18700
두산	-18701
▁진영	-18702
정책과	-18703
▁확보한	-18704
▁인상적인	-18705
▁편리하고	-18706
▁듣지	-18707
▁높다는	-18708
▁보였습니다	-18709
▁특례	-18710
▁마련할	-18711
▁와중에	-18712
▁말라고	-18713
▁이것도	-18714
▁만족스러운	-18715
▁베스트셀러	-18716
,0	-18717
동향	-18718
그룹이	-18719
▁설문조사	-18720
전달	-18721
▁결국은	-18722
▁이용자들의	-18723
▁정진	-18724
▁모양새	-18725
▁맞물	-18726
▁대다수	-18727
▁엣	-18728
시픽	-18729
층에서	-18730
하셨다	-18731
▁활짝	-18732
▁기획재	-18733
▁역시나	-18734
▁탱크	-18735
▁학력	-18736
월은	-18737
▁연산	-18738
▁활약을	-18739
▁이어진다	-18740
지법	-18741
▁CB	-18742
▁스쿨	-18743
▁펜션	-18744
▁확인된	-18745
▁탔	-18746
▁송도	-18747
▁근거가	-18748
▁지도를	-18749
▁민속	-18750
▁생각했던	-18751
걸로	-18752
▁리조	-18753
▁카르	-18754
있지	-18755
행성	-18756
▁이만	-18757
▁NEWS	-18758
▁가이드라인	-18759
▁고객님께서	-18760
▁브라우저를	-18761
▁손상된	-18762
▁있었으며	-18763
▁world	-18764
▁계획이라고	-18765
도전	-18766
혹한	-18767
:55	-18768
▁규명	-18769
▁말이야	-18770
▁현실적으로	-18771
▁발표했습니다	-18772
▁・	-18773
다이스	-18774
의정부	-18775
▁권유	-18776
단계로	-18777
▁르노	-18778
▁피하는	-18779
▁구축하는	-18780
▁각광	-18781
▁당의	-18782
▁법률에	-18783
▁영화에	-18784
기며	-18785
환은	-18786
▁선한	-18787
▁얘기다	-18788
ission	-18789
엔진	-18790
~12	-18791
▁대상자	-18792
▁때문이라고	-18793
네스	-18794
주어	-18795
▁메탈	-18796
▁보살	-18797
▁전당	-18798
▁상대가	-18799
▁성명을	-18800
▁반지	-18801
소이스	-18802
▁여자의	-18803
측이	-18804
▁인포	-18805
▁펌프	-18806
▁준비할	-18807
▁절대적으로	-18808
유예	-18809
▁사귀	-18810
▁낙찰	-18811
▁들러	-18812
▁반납	-18813
님들의	-18814
▁광범위	-18815
▁여름에	-18816
eel	-18817
▁부른	-18818
▁싱크	-18819
▁웃고	-18820
▁창문	-18821
자전거	-18822
[...]
